<unk>	0
<s>	0
</s>	0
,	-2.55834
.	-3.05951
▁ᎠᎴ	-3.31633
▁ᎾᏍᎩ	-3.74099
;	-3.84766
Ꮓ	-4.0466
▁ᎯᎠ	-4.39998
▁ᎨᏒ	-4.68728
▁	-4.8047
Ꭲ	-4.89453
▁ᎥᏝ	-5.10675
▁ᎨᏒᎢ	-5.1615
ᏰᏃ	-5.22952
Ꭹ	-5.27443
▁ᎨᏎᏍᏗ	-5.28852
▁ᎤᏁᎳᏅᎯ	-5.30216
▁ᏃᎴ	-5.41239
▁Ꭴ	-5.45836
?	-5.52983
▁Ꭰ	-5.54566
▁ᏴᏫ	-5.55116
Ꮙ	-5.59368
Ꮧ	-5.62699
Ꭿ	-5.6887
▁ᎩᎶ	-5.72041
▁ᎾᏍᏉ	-5.76163
▁ᎢᏳᏍᏗ	-5.79865
▁ᎾᎿ	-5.80403
▁ᎾᏍᎩᏯ	-5.81414
⁠	-5.82005
▁ᎠᏎᏃ	-5.83343
▁ᎠᏴ	-5.85065
Ꭽ	-5.88355
▁Ꮎ	-5.91054
▁ᏱᎩ	-5.91209
-	-5.94471
▁ᏥᎩ	-5.95428
▁ᏱᎰᏩ	-5.95541
▁ᎪᎱᏍᏗ	-5.95552
▁ᏂᎦᏛ	-5.97806
▁ᏂᎯ	-5.98097
▁ᎢᎦ	-5.98298
▁ᎤᎬᏫᏳᎯ	-6.01604
▁ᏥᏌ	-6.01649
▁ᏂᎨᏒᎾ	-6.01732
Ᏹ	-6.07424
▁“	-6.08944
Ꮎ	-6.10564
ᏍᎩᏂ	-6.12357
Ꮫ	-6.19119
▁ᎣᏍᏛ	-6.19463
▁ᎯᎠᏃ	-6.20885
ᏍᏗ	-6.22663
▁ᎤᏪᏥ	-6.27759
▁Ꮷ	-6.28866
▁Ꮧ	-6.29885
▁ᎢᏳᏃ	-6.30583
▁ᎾᏍᎩᏃ	-6.34105
▁ᏧᏪᏥ	-6.35781
▁ᎦᎶᏁᏛ	-6.37933
Ꮣ	-6.39165
▁ᏄᏪᏎᎢ	-6.4002
▁ᎿᏉ	-6.41675
▁ᎠᏂ	-6.4247
▁ᎡᎶᎯ	-6.42557
▁ᏞᏍᏗ	-6.44303
▁Ꮵ	-6.46104
▁ᎨᏍᏗ	-6.46171
▁ᎿᏉᏃ	-6.49284
▁ᎤᏲ	-6.52745
Ꭶ	-6.54224
▁ᎤᏛᏁ	-6.56138
▁Ꮳ	-6.58369
▁ᎤᏣᏘ	-6.58732
▁ᎠᏥᎸ	-6.61695
▁”	-6.62555
▁Ᏹ	-6.64088
▁Ꮪ	-6.64266
▁ᏫᎵᎻ	-6.67144
,”	-6.67683
▁ᎾᎯᏳ	-6.68618
▁ᏂᎦᎥ	-6.69727
▁ᎬᏂᎨᏒ	-6.70841
Ꮒ	-6.71242
▁ᎠᏍᎦᏯ	-6.71422
▁ᎦᎸᏉᏗᏳ	-6.7143
▁ᎬᏂᏳᏉ	-6.72947
▁ᏄᏍᏛ	-6.73191
Ꮕ	-6.75019
▁ᎦᏙ	-6.753
▁ᎧᏃᎮᏛ	-6.75578
▁ᎡᎯ	-6.76466
▁ᎤᏩᏒ	-6.77016
▁ᎠᏁᎯ	-6.77149
▁ᎦᎸᎳᏗ	-6.77431
▁ᎠᏰᎵ	-6.79984
▁ᎠᏕᎸ	-6.82197
▁ᎨᏎᎢ	-6.82438
▁ᎤᏤᎵ	-6.84567
▁ᏰᎵ	-6.84975
▁ᏌᏉ	-6.85487
▁ᎤᏤᎵᎦ	-6.85878
Ꭸ	-6.85881
▁ᎠᎹ	-6.86271
Ꮟ	-6.86467
▁ᎢᏣ	-6.87199
▁ᎤᏂ	-6.87333
Ꮅ	-6.87352
▁ᎢᏴᏛ	-6.87565
Ꮈ	-6.88322
ᏗᏱ	-6.89262
▁Ꭲ	-6.92991
▁ᎾᏂᎥ	-6.93114
▁ᎣᏏᏳ	-6.93473
▁ᎠᏎ	-6.94003
Ᏻ	-6.94197
▁ᎦᏙᎯ	-6.95346
▁ᏔᎵ	-6.96022
Ꮄ	-6.96285
▁ᎢᏏᎵ	-6.97324
▁[	-6.98298
▁ᎤᏟ	-6.99028
▁ᎪᎯ	-6.99095
▁ᏗᎧᎿᏩᏛᏍᏗ	-6.99231
▁Ꭿ	-7.01862
▁ᎠᏓᏅᏙ	-7.0236
▁Ꮣ	-7.0239
▁ᎣᏍᏓ	-7.02685
Ꮢ	-7.03378
▁ᎠᏂᏍᎦᏯ	-7.04187
▁ᎨᏎ	-7.05344
▁ᎢᏥᏈᏱ	-7.08339
.”	-7.08996
▁ᏔᎵᏁ	-7.09749
▁ᎼᏏ	-7.11322
▁Ꭶ	-7.13308
Ꮂ	-7.13771
ᏍᎪ	-7.13916
▁ᎢᏳ	-7.14367
▁ᎬᏩ	-7.15635
▁ᎨᏒᎩ	-7.15695
▁⁠	-7.1633
▁ᎤᏍᏗ	-7.17791
▁ᎢᎬᏱ	-7.17826
▁ᏤᎦᏈ	-7.18131
▁ᏚᏳᎪᏛ	-7.18224
▁ᎡᎳᏗ	-7.20334
]	-7.20678
▁ᎤᏂᏣᏘ	-7.21232
!	-7.22185
▁ᎡᏆᎭᎻ	-7.22785
▁ᎢᏳᎵᏍᏙᏗᏱ	-7.22858
▁ᎦᏙᏃ	-7.23168
▁ᎠᏫ	-7.23201
ᏍᎩ	-7.23393
▁Ᏻ	-7.23452
:	-7.23756
ᎨᏍᏗ	-7.23942
Ꭰ	-7.24203
▁ᎢᏗᏢ	-7.24263
▁ᏩᎦ	-7.24526
▁ᏇᎵᏲ	-7.26245
▁Ꮻ	-7.27657
▁ᏏᏆ	-7.27706
▁ᎠᎨᏴ	-7.28817
Ꭺ	-7.28836
▁ᏲᎾ	-7.28867
▁ᏦᏩ	-7.30375
▁ᎤᎾ	-7.30436
Ꭼ	-7.30708
▁ᏌᎳᏓ	-7.31494
▁ᎠᏏ	-7.31771
▁ᎾᎥ	-7.3298
!”	-7.33027
ᏙᏗ	-7.33492
▁ᏄᏪᏒᎩ	-7.33767
▁ᏅᎩ	-7.34286
?”	-7.34703
▁ᏄᏪᏎᎴᎢ	-7.35214
▁Ꮽ	-7.36126
▁ᏂᎦᏓ	-7.36942
▁ᏧᏓᎴᏅᏛ	-7.39144
▁ᏱᎨᏎᏍᏗ	-7.4043
▁ᏦᎢ	-7.40758
Ꮿ	-7.4137
▁ᎢᏥ	-7.43155
▁ᎤᏙᎯᏳᎯᏯ	-7.43865
▁ᏥᏌᏃ	-7.44327
▁ᏅᏯ	-7.44452
Ꮵ	-7.44967
Ꮑ	-7.45781
▁ᏂᏚᏪᏎᎴᎢ	-7.47067
▁Ꮿ	-7.4837
▁ᎦᏚ	-7.48448
▁ᏐᏈᎵ	-7.48762
▁ᏝᏍᎪ	-7.48782
▁Ꮔ	-7.49436
▁ᎠᏂᏧᏏ	-7.49546
▁ᏣᎬᏫᏳᎯ	-7.50034
▁ᎤᎬᏩᎵ	-7.50658
▁ᏧᏤᎵ	-7.51117
▁Ꮒ	-7.51844
Ꮞ	-7.5208
▁ᎦᎵᏉᎩ	-7.52486
▁ᏓᎶᏂᎨ	-7.52561
▁ᎬᏩᏍᏓᏩᏗᏙᎯ	-7.53269
▁Ꭼ	-7.53299
▁ᏄᏪᏎᎸᎩ	-7.53383
ᏍᎬ	-7.53705
▁ᎡᏍᎦ	-7.54007
Ꭾ	-7.5405
▁Ꭸ	-7.54419
▁ᎦᎪ	-7.54465
▁ᏂᎦᏗᏳ	-7.54607
▁ᎢᏧᎳᎭ	-7.56859
▁ᎬᏗ	-7.56936
▁ᏂᎪᎯᎸ	-7.57026
▁ᏰᎵᏉ	-7.57787
Ꮃ	-7.57887
▁ᎦᏓ	-7.59427
▁ᎠᏆ	-7.60351
▁ᎤᏙᏓ	-7.61135
▁ᎠᏓ	-7.61153
▁ᏚᏂ	-7.61502
▁ᏈᏓ	-7.61551
▁ᎣᏂ	-7.62207
▁ᏄᏪᏎᎴ	-7.62989
▁Ꮥ	-7.64255
▁ᎤᏤᏍᏙ	-7.64426
▁ᏥᎷᏏᎵᎻ	-7.66669
▁ᏂᏚᏪᏎᎸᎩ	-7.67466
▁ᎠᏏᏉ	-7.67588
▁ᏣᏂ	-7.68178
▁ᎦᏚᎲ	-7.68322
▁ᏅᏗᎦᎵᏍᏙᏗᎭ	-7.68986
▁ᎠᏂᎨᏴ	-7.69741
▁ᎬᏂ	-7.70229
▁ᎤᏅᏒ	-7.70745
▁ᎢᎩ	-7.71107
▁ᎪᏪᎵ	-7.71772
▁ᏉᎳ	-7.72757
▁ᏧᎾᏓᎴᏅᏛ	-7.72906
▁ᏱᎨᏎ	-7.73589
▁ᎡᏙᏓ	-7.73714
▁ᎢᏯᏂᏛ	-7.7377
▁ᎬᏂᏛ	-7.73935
▁ᎠᎩ	-7.75226
▁ᏄᎬᏫᏳᏒ	-7.75337
▁ᏂᎬᎾᏛ	-7.75427
Ꮨ	-7.75497
▁ᎢᎦᎢ	-7.76305
▁ᏍᎩ	-7.76596
▁Ꭱ	-7.77121
▁ᎾᏍᎩᏯᎢ	-7.77134
▁ᏐᏉ	-7.77932
▁ᏣᎵ	-7.78806
▁ᎪᎯᏳᏗ	-7.78969
▁ᎠᏂᏔᎵ	-7.79255
ᏔᏅᎯ	-7.79329
Ꮀ	-7.80078
▁ᎾᎥᏂ	-7.81176
▁ᎡᎳᏂ	-7.81206
▁ᎤᎵᏂᎩᏛ	-7.8216
Ᏼ	-7.82311
▁ᏄᎵᏍᏔᏁᎢ	-7.82613
▁ᎢᏴ	-7.82834
▁ᎤᏁᏨ	-7.83205
▁ᎤᏙᎯᏳᎯ	-7.83345
▁ᎼᏏᏃ	-7.83895
▁ᏧᏂ	-7.84017
▁ᎤᏓᎵᎢ	-7.84026
ᎸᎩ	-7.84272
▁ᏗᎦᎳᏫᎢᏍᏗᏱ	-7.8429
ᏍᎨᏍᏗ	-7.86014
▁ᎢᎬᏱᏗᏢ	-7.86654
▁ᎤᏓᏙᎵᏍᏗ	-7.86658
▁ᎠᏣᏗ	-7.86689
▁ᏄᏂᏪᏎᎢ	-7.86698
▁ᏥᎪ	-7.8713
▁Ꭽ	-7.87524
ᎸᎯ	-7.87783
▁Ꮩ	-7.88492
▁ᎢᎨᏎᏍᏗ	-7.88513
ᎴᎢ	-7.88544
ᎮᏍᏗ	-7.88974
▁Ꭷ	-7.89882
▁ᏗᎧᎿᏩᏗᏙᎯ	-7.90418
Ꭵ	-7.90613
▁ᎯᏍᎩ	-7.90912
▁ᏗᎦᎸᏫᏍᏓᏁᏗ	-7.91129
▁ᎠᏯ	-7.91152
▁ᏗᏣ	-7.92591
▁ᎢᏧᎳ	-7.93051
▁ᎩᎦᎨ	-7.93155
▁ᎤᏛᏅ	-7.93345
▁ᎡᏏᎩ	-7.9368
▁ᎠᎾᎵᏅᏟ	-7.94307
▁ᏌᏌ	-7.94325
▁ᎰᎻ	-7.96336
▁ᎦᎶᎯᏍᏗᏱ	-7.96431
Ꮸ	-7.96722
▁ᏅᏩᏓᎴ	-7.96822
▁ᎭᏫᏂ	-7.97143
▁ᏑᎾᎴ	-7.97462
▁ᏧᎾ	-7.97794
▁ᎠᎵᏍᏓᏴᏗ	-7.98152
ᏔᏅ	-7.98213
▁ᏍᎩᎾᎾ	-7.9832
▁ᏅᏙ	-7.99134
▁ᏒᏃᏱ	-7.99415
▁ᎢᎬᏱᏱ	-7.99453
▁ᎢᎾᎨ	-8.00117
▁ᎬᏩᎦᏘᏯ	-8.00469
▁ᎤᏃᏕᎾ	-8.00471
▁ᎠᏧᏣ	-8.00471
Ꮻ	-8.00783
▁ᎤᏩᏌ	-8.01466
▁ᏔᎳᏚ	-8.01533
Ꮳ	-8.02034
▁Ꭳ	-8.02144
Ꮲ	-8.02155
▁ᎤᏥ	-8.0235
▁ᎦᎸᎶᎢ	-8.03056
▁ᏱᎨᏎᎢ	-8.03599
Ꮜ	-8.03668
▁ᏧᎬᏩᎶᏗ	-8.04808
▁ᎩᎳ	-8.04931
▁ᎤᏓ	-8.05237
▁ᎤᎾᏤᎵᎦ	-8.06243
ᏅᎯ	-8.06627
▁ᏚᏙᎥ	-8.06858
▁ᏚᎾ	-8.0717
▁ᎦᏲᏟ	-8.08045
▁ᏅᏩᏙᎯᏯᏛ	-8.08165
▁ᎠᏏᏴᏫ	-8.08325
▁Ꭵ	-8.08583
▁ᎢᏤ	-8.08636
ᏉᏍᎩᏂ	-8.09131
▁ᎢᎸᎯᏳ	-8.09309
▁ᎢᏓᎵᏅᏟ	-8.09312
▁ᏧᎾᏁᎶᏗ	-8.09323
ᏍᏛ	-8.09798
ᏍᎩᏂᏃᏅ	-8.1042
▁ᏱᎨᏒᎾ	-8.10473
Ꮩ	-8.1116
▁ᎣᎩ	-8.11375
Ꮝ	-8.11586
▁ᎤᏍᏆᏂᎪᏗ	-8.11614
▁ᎤᏚᎩ	-8.11802
▁ᏗᎦ	-8.13849
▁ᎠᏆᏤᎵ	-8.13911
▁ᎢᎪᎯᏛ	-8.14067
▁ᎠᎬᏱ	-8.14093
▁ᎠᏰᎸ	-8.14794
▁ᏄᎵᏍᏔᏅ	-8.14956
▁ᎡᏆ	-8.15109
▁ᎭᏫᏂᏗᏢ	-8.15269
▁ᎠᏇᏥ	-8.15271
Ꮥ	-8.15652
▁ᏧᏤᎵᎦ	-8.15748
▁ᎩᎳᏉ	-8.16002
Ꮤ	-8.16076
▁ᏅᏓᏳᏓᎴᏅᎯ	-8.16501
▁ᏂᏨᏪᏎᎭ	-8.16512
▁ᏄᏂᏪᏒᎩ	-8.16568
▁ᎦᏓᎭ	-8.17077
▁ᎤᏇᏓᎵ	-8.17724
▁ᎦᏳᎳ	-8.17756
▁ᎤᎾᏓᏅᏘ	-8.1778
ᏎᎢ	-8.18813
▁ᎢᏳᏩᏂᏌᏛ	-8.19014
▁ᎢᏳᏰᏃ	-8.19261
▁ᎢᏐ	-8.19281
▁ᏥᏳ	-8.19915
▁ᏃᏗ	-8.20752
▁ᎢᎦᏛ	-8.21325
▁Ꮫ	-8.2147
▁ᎤᏁᎳᎩ	-8.21604
▁ᎤᏕᎵᏛ	-8.21616
▁ᏧᏙᎢᏛ	-8.21626
▁ᏄᏪᏒ	-8.2168
▁ᏄᏍᏗ	-8.22648
▁ᎢᏯᎦᏴᎵ	-8.2291
▁ᏧᏍᏆᏴᏍᏗ	-8.22984
▁ᎤᏛᏛᏁ	-8.23418
▁ᏗᎪᏢᏔᏅᎯ	-8.24255
▁ᏓᏂ	-8.25378
▁ᏍᏉ	-8.25491
▁ᎠᏁᎲ	-8.25804
ᏁᎢ	-8.2595
ᏍᏗᏱ	-8.26109
▁ᎦᎵᏦᏛ	-8.26247
ᎮᎢ	-8.2657
ᏅᎩ	-8.26678
▁ᏄᎵᏍᏔᏁ	-8.26893
▁Ꮹ	-8.2697
▁ᏄᏓᎴᏒ	-8.27106
▁Ꮶ	-8.27193
ᎸᎢ	-8.27302
▁ᎠᏁᎲᎢ	-8.27784
ᏒᎩ	-8.28297
▁ᎠᏍᏓᏯ	-8.28549
▁ᎤᎾᏤᎵ	-8.29395
ᏙᏗᏱ	-8.29425
▁ᎢᏳᎵᏍᏙᏗ	-8.29562
▁ᎠᎾᏙᎴᎰᏍᎩ	-8.29764
▁ᎦᏁᎸ	-8.29842
▁ᏐᎢ	-8.29885
▁ᏦᎢᏁ	-8.3016
▁ᏃᏉ	-8.31033
▁ᎠᏍᎪᎯᏧᏈ	-8.31221
▁ᎡᎳᏆᏗ	-8.32666
▁ᏧᏅᏏᏓᏍᏗ	-8.3267
▁ᎩᎬ	-8.32705
ᎨᎢ	-8.3279
ᎲᎢ	-8.33055
▁ᏄᎵᏍᏔᏅᎩ	-8.33239
▁Ꮭ	-8.33984
▁ᏌᏩᏂ	-8.34109
▁ᎠᏂᏆᎵᏏ	-8.3411
▁ᏠᎨᏏ	-8.34129
▁ᎠᏲᎱᎯᏍᏗ	-8.34139
▁ᎠᏓᏁᎸ	-8.35108
▁ᎧᏅᏂᏍᎩ	-8.35179
ᎪᎢ	-8.36262
▁ᎠᎦᏴᎵᎨ	-8.36479
▁ᎠᎺᏉᎯ	-8.37117
▁ᏄᏂᎬᏫᏳᏒ	-8.37122
▁ᏧᏕᏘᏴᏛ	-8.37123
▁ᎤᏂᏃᏕᎾ	-8.37125
▁ᏥᏳᎯ	-8.37128
▁ᎤᏁᎬ	-8.37239
▁ᎤᏒᎯ	-8.37584
▁Ꮟ	-8.38569
▁ᎤᏂᎬᏫᏳᎯ	-8.38695
▁ᎤᏃᎴ	-8.38768
▁ᎠᏍᎦᏂ	-8.39992
▁ᎢᎦᏤᎵ	-8.40107
▁ᎠᏙᎴᎰᏍᎩ	-8.4023
▁ᎠᏍᎪᎵ	-8.40276
▁ᏗᏂᎧᎿᏩᏗᏙᎯ	-8.41806
▁ᏣᏄᏏ	-8.4184
▁ᏅᏩᎾᏓᎴ	-8.42611
▁ᏂᎯᏍᎩᏂ	-8.4271
▁ᏕᏥ	-8.42899
Ꮴ	-8.44074
▁ᎾᎿᏂ	-8.45113
ᎨᎶᎯ	-8.45698
▁ᎡᏣ	-8.46295
▁ᎤᏓᏅᏘ	-8.46673
▁ᏧᏂᏍᏆᏂᎪᏙᏗ	-8.46766
▁ᎥᎥ	-8.46779
Ꮆ	-8.47395
▁ᏗᏂᏲᎵ	-8.47581
▁ᏂᎬ	-8.47798
▁ᎠᏲᎵ	-8.48282
ᏁᎸ	-8.48329
▁ᎤᏬᏰᏂ	-8.48427
▁ᎡᏆᎻ	-8.48437
▁ᎤᎵᏂᎩᏗᏳ	-8.48456
▁ᎡᏝᏪᎯ	-8.48566
▁ᏂᎬᏅ	-8.48795
▁ᎠᎦᏴᎵᎨᎢ	-8.49261
▁ᎤᎵᏏᎩ	-8.50182
▁ᎪᎰᏍᏗ	-8.50184
▁ᏨᏒ	-8.50306
▁ᎢᏨᏒ	-8.50325
ᏍᏙᏗ	-8.50581
ᎬᎢ	-8.50772
▁ᎦᎸᎶ	-8.51188
▁ᏤᏥ	-8.51683
▁ᎦᎾᏝᎢ	-8.51925
▁ᎠᏓᎨᏳᏗ	-8.5194
▁ᎡᏥ	-8.5194
▁ᎨᎵᎵ	-8.51974
▁ᏔᎵᏁᏃ	-8.5198
Ꮖ	-8.52249
▁ᏥᎨᏒᎩ	-8.52336
▁ᏥᎨᏎᎢ	-8.52544
▁ᎨᏐᎢ	-8.52578
ᎠᏁᎶᎯ	-8.52594
Ꭳ	-8.52815
Ꭴ	-8.53247
▁ᏕᎦ	-8.53674
▁ᎢᏯᎩᏳᏍᏈᏛ	-8.53687
▁ᎭᎾ	-8.53835
▁ᎤᏁᎳᏅᎯᏃ	-8.54063
▁ᎢᏨ	-8.54122
ᏍᎦ	-8.54559
▁ᎠᏄᏬ	-8.55305
▁ᏗᏃᏪᎵᏍᎩ	-8.55501
▁ᎠᏍᎩᎾ	-8.55524
▁ᎤᏤᎵᎪᎯ	-8.5556
▁ᎤᏅᏏᏓᏍᏗ	-8.55573
▁ᏕᏫ	-8.55589
Ꭱ	-8.5603
Ꮷ	-8.56127
ᏍᎬᎢ	-8.57187
▁ᎦᏰᎪᎩ	-8.57374
▁ᎠᏂᏴᏫᏯ	-8.57398
▁ᎢᎪᎯᏓ	-8.57402
▁ᎢᏗ	-8.57579
▁ᎠᎦᏔᎲᎢ	-8.5782
▁ᎭᏂ	-8.58217
▁ᎣᏓᎸ	-8.58502
▁ᏗᏥ	-8.58957
▁(	-8.5924
Ꮘ	-8.59495
▁ᎦᎸᏉᏗ	-8.59548
▁Ꮨ	-8.59996
ᎦᎵ	-8.60793
▁ᏗᏆᏤᎵ	-8.61026
▁ᎤᏴᏍᏗ	-8.61037
▁ᎴᏆᏂ	-8.61163
▁ᎠᏃᎯᏳᎲᏍᎩ	-8.61168
▁ᏓᏆᎴᎳ	-8.61176
▁ᎤᏣᏔᏅᎯ	-8.61181
▁ᏥᏍᏕᏥ	-8.61189
▁ᎠᏰᎳᏍᏗ	-8.61209
▁ᎤᎬᏫᏳᏌᏕᎩ	-8.61227
▁ᎧᏁᏌᎢ	-8.61257
▁ᏄᏍᏕᏍᏗ	-8.61274
▁ᎨᏐ	-8.62435
ᏒᎢ	-8.62596
ᏔᏅᎩ	-8.62694
▁ᏄᏓᎴ	-8.62701
▁ᏣᏤᎵ	-8.6279
▁ᎠᏥ	-8.6302
▁ᎪᎢ	-8.63091
▁ᎧᏁᏍᎦ	-8.63126
▁ᎠᏂᏍᎩᎾ	-8.6313
▁ᏗᎦᏙᎵ	-8.63171
ᏍᎨᎢ	-8.63363
▁ᎠᏛ	-8.63374
▁ᎠᎩᎾ	-8.63777
▁ᎨᎳᏍᏗᏱ	-8.63907
▁ᎤᏰᎸᏗ	-8.64207
▁ᎤᏛᎦᏅ	-8.64397
Ꮹ	-8.64773
▁ᏫᏥ	-8.64863
▁Ꮸ	-8.64901
▁ᎦᏚᎲᎢ	-8.65118
▁ᏗᏂᏲᏟ	-8.65124
▁ᎠᏌᎻᏓ	-8.65124
▁ᎨᏥᏅᏏᏛ	-8.65133
▁ᎺᎵ	-8.65169
▁ᎠᏗᎾ	-8.65205
▁ᏧᏁᏥ	-8.65217
▁ᎠᏂᏏᏴᏫᎭ	-8.65226
Ꭷ	-8.65496
▁ᎤᏲᎱᏒ	-8.65516
▁ᎢᎦᏛᏃ	-8.65846
▁ᎠᎾ	-8.66308
▁ᎤᏰᎸᏛ	-8.66431
▁ᏥᎨᏒ	-8.66782
▁ᎤᎪᎲ	-8.66844
▁ᏗᏣᏤᎵ	-8.67028
▁ᎢᎸᎯᏢ	-8.67165
▁ᎦᏩᏒᎩ	-8.67165
▁ᏧᏂᏲᎱᏒᎯ	-8.67171
▁ᎢᏳᏕᏘᏴᏛ	-8.67175
▁ᎤᏕᏁᎴᎢ	-8.67194
▁ᎪᏢᏔᏅᎯ	-8.67232
▁ᎢᏯ	-8.67285
▁ᏑᏓᎵ	-8.67549
▁ᎠᏍᎪᎯ	-8.67566
▁ᎠᏎᏉ	-8.68181
ᏧᏈ	-8.68302
▁ᎢᏳᏍᎩᏂ	-8.68417
ᏁᏗᏱ	-8.68501
▁ᎬᏅ	-8.68526
▁ᏥᎨᏎ	-8.68639
Ᏺ	-8.68816
▁ᏅᏓᎬᏩᏓᎴᏅᏛ	-8.69251
▁Ꮁ	-8.69295
▁ᏣᏁᎳᏅᎯ	-8.6932
▁ᏂᎪᎯᎸᎢ	-8.694
▁ᎢᏳᎾᏍᏗ	-8.69519
▁ᎠᎦᏙᎥᎯᏍᏗ	-8.69769
▁ᎤᏒ	-8.69974
ᎬᎾ	-8.70006
ᏍᎨ	-8.70062
ᏗᎦᎳᏫᎢᏍᏗᏱ	-8.70455
ᎲᎩ	-8.70474
▁Ꮕ	-8.70574
▁ᎤᎾᏓᏡᎬ	-8.70684
▁ᎧᏁᎬ	-8.70708
▁Ᏼ	-8.70781
ᏔᏁᎢ	-8.71324
▁ᏗᏓᏍᏚᏗᏱ	-8.71377
▁ᏃᏯ	-8.71429
▁ᏅᏲᎯ	-8.71441
▁ᏥᎦᏔᎭ	-8.71569
o	-8.72064
▁ᏄᏪᏎ	-8.7255
▁ᏅᏗᎦᎵᏍᏙᏗᏍᎨ	-8.72584
▁ᏓᏔᎴᏒ	-8.72779
ᎭᏩ	-8.72934
▁ᎨᏴ	-8.7302
ᏍᎪᎢ	-8.73247
ᏍᏔᏅ	-8.73447
▁ᏔᏕᏲᎲᏍᎩ	-8.7355
▁ᏆᎴᏗ	-8.73557
▁ᏗᏤᏥ	-8.73569
▁ᎥᏣᏱ	-8.73586
▁ᎤᎾᏤᎵᎪᎯ	-8.7359
▁ᏗᎾᏓᏅᏟ	-8.73622
▁ᎤᎵ	-8.73625
▁ᎤᏐᏅ	-8.73889
Ꮯ	-8.74193
▁ᎤᏅᏗ	-8.74832
▁ᎤᎾᏛᎦᏅ	-8.7491
▁ᏂᎦ	-8.75087
▁ᎠᎲ	-8.75192
▁ᎰᏩ	-8.75422
▁Ꮀ	-8.75568
▁ᏗᏂ	-8.75734
▁ᏅᎦᏍᎪᎯ	-8.75774
▁ᎤᎵᎮᎵᏍᏗ	-8.75808
▁ᎤᎴᏅᎮ	-8.75824
▁ᏅᏓᎦᎵᏍᏙᏗᏍᎬᎩ	-8.75834
▁ᎤᏲᎢᏳ	-8.75902
▁ᎠᎳᏂ	-8.75922
▁ᎬᏘ	-8.75925
▁ᏚᏬᎡᎢ	-8.75932
▁ᎡᎶᏛ	-8.75959
▁ᎤᏠᏱ	-8.7599
▁ᎠᏂᏯᏫᏍᎩ	-8.76152
ᏎᏍᏗ	-8.7638
Ᏸ	-8.76622
▁ᎤᏅ	-8.76634
▁ᎠᏂᏐᎢ	-8.76761
▁ᎤᎷᏨ	-8.76865
▁ᎦᏁᎸᎢ	-8.76952
▁ᎦᎵᏦᏛᎢ	-8.76989
▁ᎤᏙᎯᏳ	-8.77003
▁-	-8.77155
ᏔᏁ	-8.77199
▁ᎤᎧᏛ	-8.77313
ᎾᏍᎩ	-8.77573
▁ᏗᏅᏃᏛ	-8.77767
▁ᏌᏉᏉ	-8.77788
ᏒᎯ	-8.77798
▁ᎡᎺᏅ	-8.78046
▁ᎬᏩᏚᏫᏛ	-8.78046
▁ᎠᏂᏧᏣ	-8.78052
▁ᎩᎳᏈᏴ	-8.78057
▁ᎠᎬᏱᏣ	-8.78106
▁ᏂᎯᏃ	-8.78117
▁ᎭᏫᏂᏣ	-8.78117
▁ᎣᎯᏍᏙᏗ	-8.7812
▁ᎬᏔᏅᎯ	-8.78254
Ꮠ	-8.78426
▁ᎾᏍᎩᏍᎩᏂ	-8.78554
▁Ꭻ	-8.78706
▁ᎬᏂᎨ	-8.78833
▁ᎣᏂᏃ	-8.78964
▁ᎦᏍᎩᎸ	-8.79633
▁ᏂᏚᏪᏎᎴ	-8.79648
▁ᎤᏙᎴᎰᏒ	-8.79846
▁ᏥᏚ	-8.80296
▁ᎴᏥᎵ	-8.80382
▁ᎤᏣᎴᏍᏗ	-8.80388
▁ᏂᏣ	-8.80618
▁ᎦᎸᎳᏗᏢ	-8.80634
▁ᎭᏢ	-8.80741
▁Ꮴ	-8.816
ᎨᎳᏍᏗᏱ	-8.81809
ᏁᎸᎯ	-8.81817
▁ᏥᎨᏐ	-8.82015
▁ᏂᏥᎥ	-8.8203
▁ᏍᎩᏴ	-8.82154
▁ᏓᎦ	-8.82224
▁ᎤᏓᏅᏙ	-8.82258
▁ᏱᎦ	-8.82509
▁ᏗᏄᏬ	-8.82548
▁ᏫᎾᏍᏛᎾ	-8.82751
▁ᏧᏒᎯᏛ	-8.82798
▁ᏎᎵ	-8.82874
▁ᎤᏁ	-8.8311
▁ᏤᎯ	-8.832
ᏍᏓ	-8.83214
▁ᏗᎬᏩ	-8.84269
▁ᏚᏏᎳᏛ	-8.8435
▁ᎤᎾᏙᏓᏆᏍᎬ	-8.84424
▁ᎢᎸᏍᎩ	-8.84573
▁ᎢᏯᏂ	-8.84678
▁ᏖᎸᎳᏗ	-8.8519
▁ᎦᎵᏦᏕ	-8.85194
▁ᎡᏉᏂ	-8.8521
ᎬᎩ	-8.85253
▁ᎾᏂᏪᏍᎨᎢ	-8.85278
▁ᏔᎷᎩᏍᎩ	-8.8542
▁ᎠᏆᏤᎵᎦ	-8.855
▁ᎡᎭ	-8.86275
▁ᏧᏗᏱ	-8.86566
▁ᎠᏋᏒ	-8.86679
▁ᎨᎾᏂ	-8.87473
▁ᎠᎦ	-8.87661
▁ᎭᏫᏯ	-8.87692
▁ᎤᏏᏙᎵ	-8.87707
▁ᎢᏳᏟᎶᏛ	-8.87714
▁ᏃᏈᏏ	-8.87728
▁ᏂᎬᏩᏪᏎᎴᎢ	-8.87739
▁ᏕᏣ	-8.87903
▁ᎪᏱᏁᎢ	-8.87907
▁ᎦᏚᏏ	-8.88131
▁ᏤᏍᏗ	-8.88363
▁ᎠᏂᎦᏔᎲ	-8.89186
▁ᎤᏁᏤ	-8.89281
▁ᎢᎾᎨᎢ	-8.89485
ᏓᏁᏗ	-8.90163
▁ᏭᏕᎵᎬ	-8.90254
▁ᏗᏨᏍᏙᏗ	-8.9026
▁ᏑᎾᏓᏡᎩ	-8.90262
▁ᏧᏂᎸᏫᏍᏓᏁᎯ	-8.90335
▁ᎢᎾᏛ	-8.90339
▁ᎫᏩ	-8.90457
▁ᏅᏗᎦᎵᏍᏙᏗᏍᎨᏍᏗ	-8.90508
ᏒᎾ	-8.90517
▁ᎦᏍᎩᎶ	-8.90734
▁Ꭺ	-8.90834
▁ᏥᎨᏐᎢ	-8.9106
▁ᎠᏴᏃ	-8.91731
▁ᎡᎯᏍᏗ	-8.91883
▁ᏗᎫᎪᏙᏗ	-8.91954
▁ᎤᏪᎵᏎ	-8.92027
ᎲᎾ	-8.92089
▁ᏄᎾᏍᏛ	-8.92128
▁ᎤᏁᏤᎴ	-8.92325
ᏛᎾ	-8.92383
▁ᎣᎭᏁ	-8.92448
▁ᎨᏥ	-8.92685
ᏗᏍᎬ	-8.92869
▁ᎬᏃᏛ	-8.92901
▁ᏗᎵᏍᏓᏴᏗᏱ	-8.92922
▁ᎠᏥᎸᏉᏗᏳ	-8.92974
▁ᎤᏙ	-8.92976
▁ᎤᏁᎳᏅᎯᏍᎩᏂ	-8.93093
ᏗᏍᎩ	-8.93519
ᎴᏍᏗ	-8.93694
ᎯᏳ	-8.93729
ᎯᎠ	-8.9375
▁ᏂᏚ	-8.94001
▁ᏂᎦᏪᏍᎬ	-8.94324
▁ᎤᎵᏏᎬ	-8.94797
▁ᎡᎶ	-8.94802
▁ᎤᏪᎷᏁ	-8.94831
▁ᏄᏛᏁᎴ	-8.94854
▁ᎬᏂᏳᏉᏃ	-8.95053
▁ᎠᏆᏓᏅᏙ	-8.95075
▁ᏥᏍᏆ	-8.95307
▁ᎦᎵ	-8.9541
▁ᎢᏅ	-8.9552
▁ᎤᏂᎷᏤ	-8.9553
▁ᏧᎾᏤᎵ	-8.95549
▁ᏂᎦᏪᎭ	-8.95626
▁ᎥᏞᏍᏗ	-8.9563
▁ᎠᎰᎵ	-8.9569
▁ᎠᏎᏉᏉ	-8.96082
▁ᎣᎦ	-8.9643
Ꮇ	-8.96541
▁ᎤᎬᏫᏳ	-8.96677
▁ᎮᎾ	-8.96693
▁ᏣᏥ	-8.96806
▁ᎡᎵ	-8.97048
ᏕᏍᏗ	-8.97203
▁ᎠᏰᎸᎢ	-8.97257
Ꮪ	-8.97405
▁ᏑᎾᎴᎢ	-8.97462
▁ᎠᏓᏅᏖᏍᎬ	-8.97607
▁ᎠᎵᏍᎪᎸᏙᏗ	-8.9816
ᎰᎢ	-8.98164
▁ᎤᏍᎪᎸ	-8.98202
▁ᏦᎠᏍᎪᎯ	-8.98367
▁ᏧᏆᎶᎦ	-8.98369
▁ᎩᎦ	-8.98373
▁ᏗᏂᎳᏫᎩ	-8.98403
▁ᎤᎩᎬ	-8.98424
▁ᎩᎶᏍᎩᏂ	-8.98447
▁ᎨᏣ	-8.98489
▁ᏧᎾᏤᎵᎦ	-8.98526
▁ᏣᏁᎭ	-8.98538
▁ᎣᏥ	-8.98576
▁Ꮤ	-8.98627
▁ᎩᎦᎨᎢ	-8.98932
Ꮋ	-8.99298
Ꮔ	-8.99319
▁ᎤᏩᏒᏉ	-8.99326
ᏁᏢᏔᏅᏛ	-8.99829
▁ᏗᎬ	-8.99979
▁ᏫᏚ	-9.00007
▁ᏍᎩᎾ	-9.00057
▁ᎠᎵ	-9.00086
▁ᏓᏳ	-9.00383
▁ᏅᏗᎦᎵᏍᏙᏗᏍᎬ	-9.00497
▁ᎢᏣᎵᏍᏓᏁᏗ	-9.00953
▁ᏩᎭᏯ	-9.01224
▁ᏗᎧᎸᎬ	-9.01225
▁ᏙᏱᏗᏢ	-9.01241
▁ᏣᎳᎩ	-9.01278
▁ᎡᎶᏗ	-9.01533
▁ᎤᏠᏱᏉ	-9.01713
▁ᎠᏙᎯ	-9.0185
Ꮺ	-9.01868
ᏙᎢᏳᏍᏗ	-9.02255
▁ᏱᏓ	-9.02393
▁ᎦᎶᎯᏍᏗ	-9.0254
ᎯᏍᏗ	-9.02569
▁ᎤᏣᏘᏂ	-9.03297
▁ᎤᏚᎵᏍᎬ	-9.03453
▁ᎤᎾᏓ	-9.03551
▁ᎢᏳᎾᎵᏍᏓᏁᏗ	-9.03936
▁ᎢᏳᎾᏛᏁᏗ	-9.0396
▁ᎯᏍᎦᏍᎪᎯ	-9.04165
▁ᏂᏚᏳᎪᏛᎾ	-9.04166
▁ᏧᏬᏰᏂ	-9.04169
▁ᎠᏂᏲᏍᎩ	-9.04181
▁ᏣᏁᏢᏔᏅᎯ	-9.04194
ᏁᎴ	-9.04212
▁ᏣᏙᏓ	-9.04217
▁ᎤᏂᏙᏓ	-9.04238
▁ᏩᏍᏛ	-9.04256
▁ᏱᏥᎦᏔᎭ	-9.04286
▁ᏥᎻ	-9.04426
▁ᎤᏍᏆᏂᎩᏗ	-9.04478
▁ᎶᏗ	-9.04625
▁ᎾᎥᏂᎨ	-9.04859
ᏍᏓᏯ	-9.04912
▁ᎬᏩᏂ	-9.04968
▁ᎤᎦᏔ	-9.05142
▁ᎤᎵᏍᏆᎸᏗ	-9.05376
▁ᎠᏂᏅ	-9.05938
▁ᎤᏐᏱ	-9.06079
▁ᎤᏩ	-9.06231
ᏗᏍᎨᏍᏗ	-9.06238
▁ᎬᎩ	-9.06466
▁ᏱᏣ	-9.06686
▁ᎤᏪ	-9.06919
▁ᎤᎵᏍᏓᏴᏗ	-9.07023
▁ᎤᏪᏘ	-9.07161
▁ᏱᎦᎵᏍᏙᏓ	-9.07199
▁ᎵᎠ	-9.07201
▁ᎤᎵᏍᏈᏗ	-9.07203
▁ᎠᏥᏅᏏᏓᏍᏗ	-9.07207
▁ᏃᏊ	-9.0721
▁ᎢᏥᏍᎦᏯ	-9.07222
▁ᏎᎦ	-9.07339
ᏔᏂ	-9.07351
▁ᎤᏁᎦ	-9.07355
▁ᎤᎧᎵᏨᎯ	-9.07361
▁ᏧᏓᏏ	-9.07364
▁ᎤᎾᏝᎢ	-9.07436
▁ᎠᎦᏔᎲ	-9.07491
Ꮚ	-9.0752
▁ᎤᏍᎪᏍ	-9.07744
▁Ᏺ	-9.07776
▁ᎢᏤᎲᎢ	-9.07991
ᏗᎭ	-9.0826
▁ᏕᎤ	-9.0846
--	-9.08524
▁ᎢᏤᎲ	-9.09131
ᏛᎢ	-9.09182
ᏁᏗ	-9.09202
▁ᎠᎹᏱ	-9.09259
▁ᏄᏪᏎᎸ	-9.09378
▁ᎠᏴᏍᎩᏂ	-9.09646
▁ᏓᎩ	-9.10001
▁ᎤᎷᏤ	-9.10236
▁ᎵᏇᎩ	-9.1032
▁ᏚᏅᏓᏒ	-9.1032
▁ᏒᎦᏔ	-9.10321
▁ᎤᎦᎾᏍᏛ	-9.10328
▁ᎦᎶᏇ	-9.10342
▁ᏏᏌ	-9.10388
▁ᏚᎾᏙᎥ	-9.10392
▁ᏥᏄᏍᏗ	-9.1041
▁ᎬᏙᏗ	-9.10485
▁ᎦᎸᎳᏗᏣ	-9.10655
ᎸᎭ	-9.10708
ᏍᏔᏁᎢ	-9.10712
Ꮭ	-9.11055
ᏍᏘ	-9.11996
▁ᎡᎲ	-9.1268
▁ᏡᎬ	-9.12927
▁ᏧᏓ	-9.12979
▁ᏛᎦ	-9.13039
▁ᎢᏯᏛᏁᏗ	-9.13319
▁ᏎᏓᏂ	-9.13547
▁ᏔᎴᎲᎦ	-9.13548
▁ᏥᎪᏪᎳ	-9.13553
▁ᎠᏂᏳᏩᏁᎦ	-9.13554
▁ᏧᏓᏆᏙᎩ	-9.13559
▁ᎠᏂᏴᏫ	-9.13564
▁ᎦᏚᎢᏣ	-9.13587
▁ᏱᏚ	-9.13596
▁ᎢᎬᏁᎸᎯ	-9.13597
▁ᎤᏲᎱᏎᎢ	-9.13784
▁ᏭᎷᏤ	-9.14005
▁ᎠᏗᏔᏍᏗ	-9.14113
▁ᎢᏳᎵᏍᏓᏁᏗ	-9.14115
▁ᎬᏅᎢ	-9.14755
▁ᏄᎾ	-9.15208
Ꮦ	-9.15313
ᎯᏍᏗᏱ	-9.15368
▁ᎨᎵ	-9.15461
ᏏᏴᏫᎭ	-9.15628
▁ᎤᏬᏢ	-9.15676
▁ᎤᏂᏍᎦᏅᏨ	-9.15769
▁ᎤᏛᎦᏁ	-9.16111
▁ᏄᎵᏍᏔᏂᏙᎸ	-9.16118
▁ᎦᏰ	-9.16129
▁ᏕᎯ	-9.1616
▁ᏈᎵᎩ	-9.16739
▁ᎨᎻᎵ	-9.16879
▁ᏧᎸᏫᏍᏓᏁᎯ	-9.16879
▁ᏅᏓᎦᎵᏍᏔᏂ	-9.1688
▁ᏔᎳᏍᎪᎯ	-9.1688
▁ᎢᏣᎵᏅᏟ	-9.16882
▁ᎦᏅᏍᏙᏗ	-9.16885
▁ᏕᏧᎬ	-9.16886
▁ᎤᎾᏓᏤᎵᏛ	-9.1689
▁ᎯᏅᏏᏓᏍᏗ	-9.16908
▁ᎢᏥᏙᏓ	-9.16909
▁ᏧᎾᏛᏐᏅᎯ	-9.16935
▁ᎢᏣᏛᏁᏗᏱ	-9.16963
▁ᎤᏕᏯᏙᏗ	-9.17328
▁ᎦᏚᎢ	-9.17425
▁ᏙᏱ	-9.17796
ᏙᎸᎢ	-9.18508
▁ᏂᏗ	-9.1854
▁ᎤᏂᎪᎲ	-9.1871
▁ᎤᎶᎩᎸ	-9.18904
▁ᎬᏗᏍᎬ	-9.19341
ᎣᏍᏓ	-9.19491
▁ᏂᎯᏰᏃ	-9.19803
▁ᎤᏛᎾ	-9.20204
▁ᏓᎾ	-9.20262
▁ᏐᎣᏁᎳ	-9.20327
▁ᎠᏂᎨᏯ	-9.20328
▁ᎤᎩᏨᏛ	-9.20339
▁ᏥᏂᎬᏅ	-9.20352
▁ᎢᏯᏛᏁᎯ	-9.20354
▁ᎠᏕᎳ	-9.20359
▁ᎢᏨᎨᏳᎢ	-9.20368
▁ᏂᎦᎵᏍᏗᎭ	-9.2038
▁ᎦᎸᏉᏙᏗ	-9.20397
▁ᎤᎴᏂᏙᎴᎢ	-9.2042
▁ᎦᏁᎦ	-9.20429
▁ᎢᏯᏍᏗ	-9.20666
▁ᏭᎶᏎᎢ	-9.20741
▁ᎡᎮᎢ	-9.2083
▁ᎤᏂᏲ	-9.20865
▁ᎾᎯᏳᏉ	-9.21024
▁ᎦᎵᏉᎩᏁ	-9.21067
▁ᎤᎪᎮ	-9.211
▁ᎤᎷᏨᎩ	-9.21112
▁ᎤᏪᏅᏎ	-9.21318
▁ᏂᎦᎥᏉ	-9.21993
▁ᏓᏥ	-9.22406
▁ᎤᏁᏤᎸ	-9.22446
▁ᎦᏬᏂᏍᎬ	-9.22605
ᎠᏗᏔᏍᏗ	-9.2296
ᎨᏳᎯᏳ	-9.22967
ᏗᎦᏅᏌᏗ	-9.22988
Ꮱ	-9.23202
▁ᏗᎨᏒ	-9.23391
ᎧᏔᎮᎢ	-9.23429
▁ᏂᎬᎾᏛᎢ	-9.23524
▁ᎤᎵᏍᏆᏗᏍᏗ	-9.23647
▁ᏧᏂᎾᏫ	-9.23679
▁ᎠᏂᏍᎦᎾ	-9.23859
▁ᎤᎾᏫ	-9.23905
▁ᏓᏆᎴᎷ	-9.23918
▁ᏅᎬᏩᏪᏎᎸᎩ	-9.23928
▁ᎢᏥᎦᏔᎭ	-9.23964
▁ᏏᏓᏁᎸᎯ	-9.24008
▁ᎠᏂᏃᎯᎵᏙᎯ	-9.24036
▁ᎠᏓᏁᎯ	-9.24038
▁ᎤᏟᎯᏳ	-9.24043
▁ᎦᏛᎦ	-9.24218
▁ᎠᏤᎯ	-9.24261
▁ᏤᎭ	-9.24541
▁ᎢᎬᏩ	-9.24599
▁ᎢᎦᏓ	-9.24887
▁ᎠᏂᎦᏔᎲᎢ	-9.24967
Ꮗ	-9.25299
ᎲᎦ	-9.25617
▁ᎠᏓᏅᏓᏗᏍᏗ	-9.25679
▁ᎦᏓᏁ	-9.26024
▁ᎪᏪᎸ	-9.26398
▁ᏅᏩᏓᎴᏃ	-9.26499
▁ᏥᏓ	-9.26559
▁ᏴᏫᏉ	-9.26762
▁ᎠᏂᏬᏂᏍᎬ	-9.26848
▁ᏄᏩᏁᎴ	-9.26897
▁ᏂᎦᎵᏍᏗᏍᎬ	-9.27066
▁ᎠᏠᏁᏗ	-9.27602
▁ᏓᎿᏩ	-9.27602
▁ᏅᏓᏳᎶᏒᎯ	-9.2761
▁ᎧᏃᎯᏰᎩ	-9.27613
▁ᎡᏉᎯᏳ	-9.27613
▁ᎠᎦᏘᏏᏗᏢ	-9.27626
▁ᏧᏳᎪᏗ	-9.27638
▁ᏗᏰᎸᎯ	-9.27653
▁ᎤᏔᎳᏬᎯᏍᏗ	-9.27675
▁ᎦᎷᏨᎭ	-9.27688
▁ᏅᏃᎯ	-9.27775
▁ᎠᎹᏟ	-9.2778
▁ᎠᏆᏛᏅ	-9.27878
▁ᎾᏍᎩᏯᏉ	-9.27929
▁ᎤᎾᎵ	-9.28005
▁ᎪᏪᎸᎢ	-9.28441
▁ᏧᏂᏍᏗ	-9.28467
ᏛᎩ	-9.288
▁ᎤᏁᏨᎩ	-9.29784
▁ᏄᏛᏁᎸ	-9.29951
▁ᎦᏙᎨ	-9.30035
---	-9.30346
▁ᏄᏍᏕ	-9.30542
▁ᎤᏕᏘᏴᏌᏗᏒ	-9.30665
▁ᏕᎤᏙᎥ	-9.30697
▁ᏓᏳᏓᎴᏅ	-9.30705
▁ᎠᏍᏛ	-9.30826
▁ᎦᏙᎬ	-9.30955
ᏅᏏᏛ	-9.3138
▁ᏗᏏᏓᎵ	-9.31449
▁ᎣᏣᎵᏅᏟ	-9.31449
▁ᏤᎩᏏᏂ	-9.3145
▁ᏆᏂᏆ	-9.31451
▁ᎯᎸᎢᏴ	-9.31452
▁ᎢᏓᏓᏅᏟ	-9.31456
▁ᎨᏥᎸᏉᏗ	-9.31458
▁ᏗᎨᎦᏁᎶᏗ	-9.3146
▁ᎠᏈᎻᎴᎩ	-9.31468
▁ᏗᏇᏥ	-9.31468
▁ᎤᎦᎵᏍᏗ	-9.31473
▁ᏩᎶᏏ	-9.31509
▁ᎬᏩᏕᏁᎴᎢ	-9.3155
▁ᎾᎩᏪᏎᎸᎩ	-9.3156
▁ᎠᏓᏫ	-9.31637
▁ᏕᏣᏓᏅᏛᎢ	-9.31642
▁ᏦᏰᏂ	-9.31708
▁ᏧᏩ	-9.31869
▁ᎠᏂᎪᎢ	-9.31892
ᏱᎩ	-9.32076
▁ᎪᏍᏓ	-9.3209
ᎧᏂ	-9.32903
▁ᏧᎬ	-9.32993
▁ᎯᎪ	-9.33096
▁ᎪᎳ	-9.33162
▁ᎪᏪᎵᎯ	-9.33179
”	-9.33366
ᏍᎪᎯ	-9.33661
▁ᎠᏯᏙ	-9.34095
ᏨᎩ	-9.34126
▁ᏚᎴᏅ	-9.34227
ᎢᏍᏗᏱ	-9.34314
ᏁᎭ	-9.34361
▁ᎦᎸ	-9.3447
▁ᏕᏣᏙᎥ	-9.34671
▁ᎾᏃ	-9.35123
▁ᎢᏣᏤᎵ	-9.35347
▁ᏘᏅᏏᏓᏍᏗ	-9.35456
▁ᏄᏂᎬᏫᏳᏌᏕᎩ	-9.35462
▁ᎥᏓᎵ	-9.35469
▁ᎢᎳᏯ	-9.35477
▁ᎤᎾᎵᏍᏕᎸᏙᏗ	-9.35487
▁ᏗᏘᏂᏙᎯ	-9.35515
▁ᏐᎳ	-9.35523
▁ᎠᏁᏙᎯ	-9.35534
▁ᏎᎦᏨ	-9.3565
▁ᎤᏩᏒᎯᏳ	-9.35653
▁ᏗᏣᏤᎵᎦ	-9.35755
▁ᎤᏙᎯᏳᏒ	-9.35791
▁ᎤᏕᏅᎯ	-9.35838
▁ᏗᎨ	-9.35876
▁ᎬᏗᏍᎩ	-9.35991
▁ᎠᎦᏗ	-9.36026
▁ᎠᏍᏓᏱ	-9.36068
ᏛᏁᏗ	-9.36692
▁Ꮑ	-9.36732
▁ᏭᏂ	-9.36866
ᏙᎯ	-9.37048
▁ᎣᏓᎸᎢ	-9.37068
ᎦᏅᎯᏛ	-9.371
▁ᎠᏂᏓ	-9.37114
ᎢᏳᏍᏗ	-9.37137
e	-9.38291
▁ᎠᎵᏍᏚᎶ	-9.38336
▁ᏱᏥ	-9.38742
▁ᎥᎩ	-9.38773
ᏌᏛ	-9.38844
▁ᎠᏥᎸᏱ	-9.38981
ᎩᏍᏗ	-9.39151
▁ᏄᏩᏁᎸ	-9.39224
▁ᏙᏛ	-9.39276
▁ᎤᎶᏐᏅ	-9.39337
▁ᎠᎦᏴᎵ	-9.39538
▁ᎠᎧᎵᎢ	-9.39548
▁ᎠᏰᏙᎳᏛᏗ	-9.39593
▁ᏩᏏᏓᏂ	-9.39615
▁ᏓᏏᎳᏛ	-9.39618
▁ᏚᏬᏢᏔᏅᎩ	-9.39629
▁ᏗᏓᏅᏙ	-9.39642
▁ᎠᎨᏳᏣ	-9.39663
▁ᏱᏄᏍᏗ	-9.3967
▁ᏗᎨᏫ	-9.39673
▁ᏧᏂᎸᏫᏍᏓᏁᏗᏱ	-9.3971
▁ᎠᎹᏰᎵ	-9.39732
▁ᎤᏍᎦᏃᎵ	-9.39743
▁ᏥᏁᎬᎢ	-9.39989
▁ᎠᏤ	-9.40093
▁ᏂᏥ	-9.40186
▁ᎤᏲᎱᏒᎯ	-9.40372
▁ᎨᏂ	-9.40426
▁ᏗᎩ	-9.40443
▁ᎢᎬ	-9.40491
▁ᎪᎩ	-9.40491
▁ᎫᏢᏗ	-9.4056
ᎯᏍᏙᏗ	-9.40601
ᏍᏙ	-9.40674
ᎠᏂᎳᏍᏓᎸ	-9.40745
▁ᎧᏁᎬᎢ	-9.41111
▁Ꮡ	-9.41282
▁ᏚᏁᏤᎴ	-9.41369
▁ᏗᎦᎸᏉᏗ	-9.41437
ᏍᎬᎾ	-9.41852
▁ᎾᏂᎥᏉ	-9.42175
▁ᎠᎲᎢ	-9.42277
▁ᏚᏙᎥᎢ	-9.42473
ᎨᏒ	-9.4256
ᏅᎢ	-9.42727
▁ᎠᏦᏴ	-9.43204
▁ᏗᏓᎴᏂᏍᎬ	-9.4321
▁ᎣᏏ	-9.43359
▁ᎤᏬᎸ	-9.4346
t	-9.43477
▁ᏗᎦᎫᏍᏛᏗ	-9.43733
▁ᏍᏈᏍᏓ	-9.43963
▁ᎠᏍᏆᎨᏂ	-9.43964
▁ᎵᏫ	-9.43967
▁ᎨᏥᏅᏏᏓᏍᏗ	-9.4397
▁ᎧᏂᎩᏓ	-9.43992
▁ᎦᏬᏂᏍᎩ	-9.43995
▁ᏚᏬᏢᏅᎩ	-9.43998
▁ᎢᎩᏙᏓ	-9.44
▁ᎾᏍᎦᏅᎾ	-9.44007
▁ᎤᏗᎴᎩ	-9.44009
▁ᎧᏃᎮᏍᎩ	-9.44009
▁ᏍᏔᏯ	-9.4405
▁ᎦᎶᏙᏗ	-9.44062
▁ᎤᎾᏁᎳᎩ	-9.44081
▁ᎤᏅᏌ	-9.44105
▁ᎠᏢᏗᏱ	-9.44114
Ꮼ	-9.44154
▁ᎠᏲᎩ	-9.44221
ᏕᎢ	-9.44228
▁ᎤᏓᏅᏘᏳ	-9.44254
▁ᎤᏂᏥ	-9.44281
▁ᎤᏅᏟ	-9.44281
ᏅᏒ	-9.44384
▁ᏱᏗᏥ	-9.44414
▁ᎢᏳᏍᏗᏉ	-9.44468
▁ᎦᎶ	-9.44558
▁ᎤᎵᏍᏗ	-9.44653
▁ᏂᏓ	-9.44738
ᏒᎭ	-9.44776
▁ᎦᏅᎯᏛ	-9.44892
▁ᏕᎨ	-9.45139
▁ᏥᏕ	-9.45183
▁ᎡᎲᎢ	-9.45286
▁ᎤᏓᏅᏖ	-9.45957
▁ᎠᏍᎦᎾ	-9.46105
▁ᏅᏓ	-9.46306
▁ᏱᏗ	-9.46828
▁ᏓᎬ	-9.46918
▁ᎠᏔᎴᏒ	-9.47197
ᎠᎴ	-9.47218
▁ᏫᏣ	-9.47448
▁ᏦᎩ	-9.47661
▁ᏓᏓᎿᏩᏍᏛ	-9.47699
▁ᎤᏂᏣᏖ	-9.47709
▁ᏂᏚᎩᏨᏂᏒ	-9.47724
ᏚᎵᏍᎬᎾ	-9.47726
▁ᏓᏆᏙᎥ	-9.47742
▁ᎢᎦᎦᏛ	-9.47858
▁ᏗᎧᏃᏗ	-9.4831
▁ᏧᎸᏫᏍᏓᏁᏗ	-9.48336
▁ᏩᏚᎵᏏ	-9.48509
▁ᎦᎷᏯᏍᏗ	-9.48511
▁ᎪᏍᏚ	-9.48513
▁ᏧᏯᏖᎾ	-9.48514
▁ᏧᏃᏰᏂ	-9.48519
▁ᏓᎦᎷᏥ	-9.48529
▁ᏅᏛᎩᏅᏏᏛ	-9.48532
▁ᏂᎦᏪᏍᎨᎢ	-9.48532
▁ᏧᏂᏢᎩ	-9.48546
▁ᏗᏂᎦᏙᎵ	-9.48548
▁ᎾᏎᎵᏗ	-9.48552
▁ᎠᎩᏅᏏᏙᎯ	-9.48555
▁ᎯᎸᎯᏳ	-9.48577
▁ᎬᏂᏗᏳ	-9.48582
▁ᎠᏂᎩᏏ	-9.48586
▁ᎤᏍᏆᎸᎲ	-9.48601
ᎴᎯᏐᏗ	-9.48608
▁ᏗᎧᏃᏗᏱ	-9.48737
▁Ꭹ	-9.48762
▁ᎠᎩᏏ	-9.48861
▁ᎤᏂᎷᏨᎩ	-9.48928
▁ᎭᎾᎾ	-9.49099
▁ᎤᏥᎸᎢ	-9.49221
▁ᎠᎼ	-9.49291
▁ᎢᎦᏘ	-9.49427
ᎦᏔᎲᎾ	-9.49552
▁ᏭᎷᏤᎢ	-9.49634
ᏍᏉ	-9.49795
ᏁᎯ	-9.49856
▁ᎢᎬᏁᏗ	-9.4987
ᎠᏋᏌ	-9.49897
▁ᏩᏯ	-9.50023
▁ᏥᏣ	-9.50484
ᏍᎦᏅᎢᏍᏗ	-9.50864
▁Ꭾ	-9.51095
ᏅᎾ	-9.51221
▁ᎤᏲᎢ	-9.52001
▁ᎤᏍᎦᏅᏨ	-9.52137
ᎩᏎ	-9.52201
▁ᎢᏤᎾ	-9.52213
▁ᎠᎴᏬ	-9.52413
▁ᎦᏛᎬ	-9.52458
ᏤᏍᏗ	-9.52471
▁ᎦᎳᎨᏴ	-9.52475
▁ᏕᎦᏚᎲ	-9.5248
▁ᏗᎩᎦᏴᎵᎨ	-9.52489
▁ᏂᏣᏛᏁᎸ	-9.52492
▁ᏚᏂᎸᏫᏍᏓᏁᎲ	-9.52515
ᏰᎵ	-9.52531
▁ᎦᏓᏅᏖᏍᎬ	-9.52536
▁ᏚᎾᏓᏅᏛ	-9.5255
ᎲᏏ	-9.52556
▁ᎤᏕᏅ	-9.52579
ᏍᎬᎩ	-9.52585
▁ᎦᏄᎸ	-9.5279
▁ᏥᎦ	-9.53016
▁ᏇᏂ	-9.53043
▁ᎤᎾᎵᏍᏓᏴᏗ	-9.53149
▁ᎢᏥᏈ	-9.53236
c	-9.53237
▁ᎢᏳᏩᎫᏗ	-9.53271
▁ᏒᎧᏔ	-9.53271
▁ᎢᏳᏓᎴᎩ	-9.53271
▁ᏄᏃᎯᏳᏒᎾ	-9.53271
▁ᎢᏥᏡᏱ	-9.53271
▁ᎦᎵᏆᏍᎪᎯ	-9.53271
▁ᏚᏙᎡᎢ	-9.53274
▁ᏙᎴᏛ	-9.53279
▁ᏫᏥᎢᎦ	-9.53279
▁ᏎᎷ	-9.53279
▁ᎠᏂᏣᎳᎩ	-9.53283
▁ᎤᏍᎦᏎᏗ	-9.53285
▁ᎢᏤᏯᏔᎮᏍᏗ	-9.53285
▁ᎢᏌᏯ	-9.53287
▁ᎢᏗᎦᏔᎭ	-9.53299
▁ᏅᏓᏳᎵᏍᏙᏔᏅᎩ	-9.53308
▁ᏄᎬᏫᏳᏌᏕᎩ	-9.53316
▁ᎢᏨᏲᏎᎭ	-9.53327
▁ᏗᎹᏗ	-9.53334
▁ᎠᏂᎪᏕᏍᎩ	-9.53337
▁ᎤᎯᏐᏗ	-9.53344
▁ᏧᏙᏓᏆᏓ	-9.5337
▁ᏗᎾ	-9.53389
▁ᎠᏏᎾᏌᏂ	-9.53409
▁ᎾᏂᎥᎢ	-9.53445
▁ᎠᎫᏴᏙᏗ	-9.53485
▁ᏗᎦᎪᏗᏱ	-9.53512
▁ᎦᎾᏰᎯᏍᏗ	-9.53516
▁ᎤᎾᏄᎪᏫᏒᎯ	-9.53584
▁ᎤᎾᏫᏱ	-9.53584
▁ᎠᏆᏛᎦᏅᎩ	-9.53636
ᎵᎦ	-9.53654
▁ᏗᏦᏢᏗ	-9.53735
▁ᎦᏬᏂᎯᏍᏗ	-9.53755
▁ᏁᎳ	-9.53771
ᏁᎳᏅᎯ	-9.5378
▁ᏭᏴᎴᎢ	-9.5381
▁ᏩᏍᏗ	-9.53991
▁ᏉᎳᏃ	-9.54119
▁ᎠᏗᎭ	-9.5417
▁ᏧᏪ	-9.54187
▁ᏂᏕ	-9.54235
ᎡᎵ	-9.54324
▁ᎤᏪᎿᎢ	-9.54349
ᏍᏆ	-9.5449
▁ᏴᎩ	-9.54492
▁ᏫᎦ	-9.5458
,]	-9.54596
▁ᏗᏦ	-9.54597
▁ᎢᏤᎯ	-9.54757
▁ᏅᏛ	-9.55447
▁ᎠᎪ	-9.55601
▁ᏄᏍᏛᎢ	-9.55641
▁ᎡᏘ	-9.56081
ᏗᏍᎪ	-9.5613
ᏁᎳ	-9.56623
ᏂᏏ	-9.56769
ᎡᎢ	-9.57137
ᎦᏘ	-9.57222
▁ᏚᎪᎮ	-9.5733
▁ᏅᏗᎦᎵᏍᏙᏗᏍᎪ	-9.57361
ᏕᎾ	-9.57372
ᎤᏁᎳᏅᎯ	-9.57426
▁ᎠᏂᏃᎮᏍᎬ	-9.57468
▁ᏧᏪᏅᏒ	-9.57469
▁ᎤᏃᏴᎬ	-9.57512
▁ᏓᏓᏁᎸ	-9.57538
▁ᎯᏯ	-9.57927
ᎲᏍᎩ	-9.57945
ᎾᏝᎢ	-9.58047
ᏛᎬᎦ	-9.5814
▁ᎡᏉᏗ	-9.58148
▁ᎤᏂᏬᏂᎯᏍᏗ	-9.58184
ᎶᎯ	-9.58204
▁Cr	-9.5827
▁ᎢᏳᎾᏛᎿᏕᎩ	-9.58271
▁ᏍᎦᏚᎩ	-9.58271
▁ᏂᏥᏪᎭ	-9.58271
▁ᏎᎩᎵ	-9.58272
▁ᏧᏓᏕᏒᏛ	-9.58276
▁ᏗᏂᎭᏄᎸᎯ	-9.58278
▁ᎡᏈᏌ	-9.58278
▁ᏔᎷᏣ	-9.58281
▁ᎠᏦᎭᏴ	-9.58284
▁ᎠᎩᎵᏯ	-9.58291
▁ᏌᎪᏂᎨ	-9.58296
▁ᏍᎩᏃᎲᏏ	-9.58301
▁ᎢᎳᎪ	-9.58302
▁ᏗᎪᏪᎵᏍᎩ	-9.58308
▁ᎤᏩᏙᎯᏴᏓ	-9.58309
▁ᎢᏳᏓᎴᏅᏛ	-9.5831
▁ᎤᏂᎬᏫᏳᏌᏕᎩ	-9.58312
▁ᎢᏳᏩᏂᏐᏗᏱ	-9.58312
▁ᎢᏳᏩᏁᏗᏱ	-9.58322
▁ᎤᏰᎯ	-9.58356
▁ᏙᏰ	-9.58356
▁ᎤᏬᏗᎨ	-9.58395
▁ᏒᎮᏱᏣ	-9.58431
▁ᎢᎬᏁᎯ	-9.58437
▁ᏓᏯᎢ	-9.58445
▁ᎦᏥ	-9.58544
)	-9.58594
▁Ꮖ	-9.58709
▁ᎧᎸᎢ	-9.58752
▁ᏚᎸᏫᏍᏓᏁᎲᎢ	-9.58781
ᏙᎩ	-9.5903
ᏁᎴᎢ	-9.59074
▁ᏚᎾᏓᏅᏛᎢ	-9.5908
▁ᎤᎾᎵᎢ	-9.59313
ᏔᏅᎭ	-9.59629
▁ᏄᏛᏁᎴᎢ	-9.59736
▁ᎦᎸᎳᏗᏳ	-9.59919
▁ᎡᏓ	-9.59943
▁ᎤᎾᏓᏡᎬᎢ	-9.60082
▁ᏣᏤᎵᎦ	-9.6017
ᏑᏴᎾ	-9.60288
▁ᎾᏍᎩᏉ	-9.60466
▁ᎪᎯᏓ	-9.60576
ᏁᎲ	-9.60727
▁ᏂᎦᏗ	-9.60806
▁ᎨᎦ	-9.60895
▁ᏴᎦ	-9.60902
▁ᎤᏓᏅᏖᏗ	-9.61116
ᏁᎸᎩ	-9.61244
▁ᏗᎧᎿᏩᏛᏍᏗᏱ	-9.61334
▁ᏯᏆ	-9.61398
▁ᏱᏂ	-9.61446
▁ᏗᎦᏓ	-9.61548
ᏤᎢ	-9.61858
▁ᎾᏍᎩᏴ	-9.61899
▁ᎾᏂ	-9.61997
▁ᎯᎸ	-9.62046
▁ᎦᏃᎸᎥᏍᎬ	-9.62567
▁ᎧᎳᏩᏗᏒ	-9.62701
▁ᏗᎦᏚᎲ	-9.62742
ᎦᏔᎭ	-9.62751
▁ᎢᏦᎯᏳᏒ	-9.6276
▁ᎠᏤᎵᏍᏛ	-9.62765
ᏥᏌ	-9.62801
▁ᎦᎨ	-9.62917
▁ᎨᎳ	-9.63093
▁ᏭᎶᏒ	-9.6311
▁ᎠᏆᏚᎵ	-9.63164
▁ᎦᏁᏌᎢ	-9.63233
▁ᏙᎯ	-9.63265
ᎢᏍᏗ	-9.63272
▁ᎤᏅᏒᏉ	-9.633
▁ᏭᎾ	-9.63402
▁ᏨᏗᏓᎴᎲᏍᎦ	-9.63534
▁ᏧᏕᏘᏴᏓ	-9.63535
▁ᏗᏟᎶᏍᏔᏅᎯ	-9.63537
▁ᏗᏖᎵᏙ	-9.63542
▁ᎤᎪᏏᏓ	-9.63548
▁ᏦᏓᏂ	-9.63548
▁ᎠᏂᏫᏅ	-9.63549
▁ᏱᏅᏗᎦᎵᏍᏙᏗᎭ	-9.63556
▁ᎢᏳᎾᎵᏍᏙᏗᏱ	-9.63566
▁ᎤᎦᎾᏍᏓ	-9.63574
▁ᏧᎪᎳ	-9.63583
▁ᎢᏯᎾᏛᏁᎯ	-9.63585
▁ᏍᏆ	-9.63585
▁ᎬᏩᏟᏍᏗ	-9.636
▁ᎠᏥᏍᏛ	-9.63619
▁ᎪᎯᏗᏳ	-9.63628
▁ᎠᎵᏍᏕᎸᏙᏗ	-9.63703
▁ᎤᏚᎵᏍᎨᏍᏗ	-9.63706
▁ᎠᏃ	-9.63736
▁ᎤᏚᎸᏗ	-9.63765
▁ᎢᏣᏤᎵᎦ	-9.63782
▁ᏣᏁᎳ	-9.63782
▁ᏧᏍᏗ	-9.63785
▁ᎢᎦᎦᏘ	-9.6381
▁ᏗᏆᏤᎵᎦ	-9.63951
ᏁᎵ	-9.64007
ᎪᎯ	-9.64179
▁ᎡᎵᏍᏗ	-9.6438
ᏛᎦ	-9.64452
▁ᏓᏣ	-9.64788
▁ᏧᏓᏃ	-9.64896
ᏕᎵ	-9.65091
▁ᎤᏂᏣᏔ	-9.6523
▁ᎣᏂᏱ	-9.65245
▁ᏙᏓ	-9.65293
▁ᏗᏆ	-9.65537
▁ᏃᏥ	-9.65786
ᎪᏗ	-9.65873
ᎭᏂ	-9.65902
▁ᎯᎠᏍᎩᏂ	-9.65924
ᏁᎮᏍᏗ	-9.65989
ᏉᏃ	-9.66187
▁ᎠᏓᏁᎸᎢ	-9.66296
▁ᏄᏪᏒᎢ	-9.66671
▁ᏱᏨ	-9.66814
▁ᏄᎵᏍᏔᏅᎢ	-9.66882
▁ᏯᎩ	-9.67379
▁ᏞᎦ	-9.67404
▁ᎾᎾᏛᏁᎲ	-9.67433
ᎷᎦ	-9.67712
▁ᎬᏩᎾ	-9.6781
▁ᏚᎳᏍᎬ	-9.68123
▁ᎤᏁᏨᎢ	-9.68163
▁ᎤᎨᏓᎵᏴ	-9.68256
▁ᎤᏅᏏᏴ	-9.68257
▁ᏭᏯᏅᎮ	-9.68264
▁ᎠᎾᎢᏒ	-9.68302
▁ᎤᏂᎷᏨ	-9.68316
ᎩᎶ	-9.68322
▁ᏕᎭᎷᎨ	-9.68372
▁ᎦᏅᏅ	-9.68376
▁ᏭᎷᏨ	-9.68589
▁ᏕᎩ	-9.68629
▁ᎤᏒᎢ	-9.68752
▁ᏧᎾᏍᏗ	-9.6882
▁ᏗᏥᎾᏫ	-9.68854
▁ᏐᏓᎻ	-9.68855
ᏌᎳᏓ	-9.69006
ᏍᏔᏂ	-9.69027
▁ᎤᎷᎯᏍᏗ	-9.69032
▁ᏗᎪ	-9.6906
▁ᎤᏂᏴᏍᏗ	-9.69081
▁ᎠᎦᏘᏏ	-9.69086
▁Perry	-9.69089
▁ᏧᎦᎾᏮ	-9.6909
ᏚᏓᎴᏍᏙᏗ	-9.69091
▁ᎥᏳᎩ	-9.69092
▁ᎠᎵᏍᏔᏴᏗ	-9.69103
▁ᎤᎩᏨᏓ	-9.69105
▁ᎧᏂᎩᏛ	-9.6911
▁ᎤᎾᏰᎯᏍᏗ	-9.69118
▁ᏗᏕᏲᏗ	-9.69118
▁ᎤᏫᏯ	-9.69119
▁ᎤᏂᎩᎬ	-9.69121
▁ᎤᏬᏢᏔᏅᎩ	-9.69122
▁ᏧᎾᎩᎸᏗ	-9.69123
▁ᏗᏓᏘᏂᏙᎯ	-9.69127
▁ᎤᏁᎫᏥᏛ	-9.69128
▁ᎠᏆᏁᎳᏅᎯ	-9.69147
▁ᎠᎵᏍᎪᎸᏔᏅᎯ	-9.69155
▁ᏳᏚᎵᏍᎨ	-9.69168
▁ᎠᏍᏚᏗ	-9.69177
▁ᎨᎵᏍᎬ	-9.69208
▁ᏂᏗᎥ	-9.69222
▁ᏚᏓᏘᎾᎥᎢ	-9.69327
▁ᎤᏂᏍᏆᏂᎪᏎᎢ	-9.69331
▁ᎢᏳᎾᏛᏁᏗᏱ	-9.69548
▁Ᏸ	-9.69585
▁ᎤᏍᏆᏂᎪᏗᏳ	-9.69651
▁ᏓᏆ	-9.69835
▁ᎣᏏᏉ	-9.69863
▁ᏄᏛᏁᎸᎩ	-9.69866
▁ᏗᎨᏒᎢ	-9.70309
▁ᎤᎿ	-9.70326
▁ᎤᎾᎵᎪ	-9.7042
ᎵᏍᏙᏗ	-9.70475
▁ᏂᎦᏪᏍᎬᎢ	-9.70687
▁ᎠᏫᏅ	-9.70698
▁ᎠᎩᏍᏗ	-9.70859
ᎴᏂ	-9.71272
ᎡᎯ	-9.71318
ᎡᏗᏱ	-9.71395
▁ᎢᏧ	-9.71475
▁ᏅᎩᏁ	-9.71535
▁ᏱᎬ	-9.71562
▁ᏳᎾ	-9.71603
▁ᏁᎰ	-9.71634
▁ᏫᏓ	-9.71649
▁ᎾᎥᎢ	-9.71748
▁ᎤᏁᏨᎯ	-9.71827
ᎵᏍᏗ	-9.71856
n	-9.71871
▁ᎠᏏᏴᏫᏃ	-9.72186
▁ᏣᎾ	-9.7235
▁ᏚᏳᎪᏛᎢ	-9.72537
▁ᎢᏳᎢ	-9.72873
ᏗᏍᎨᎢ	-9.7317
ᎶᏛ	-9.73221
▁ᎤᏥᎸ	-9.73368
▁ᎤᏪᎵᎯᏍᏗ	-9.73545
▁ᎤᏕᏁᎸ	-9.73676
▁ᎠᏰᏙᎳᏛ	-9.73685
▁ᎡᏙᎲ	-9.73708
▁ᎠᎾᏓ	-9.74059
▁ᎤᏓᏂᎵᎨ	-9.74096
ᏗᏳ	-9.74147
▁ᎤᎵᏁᏨ	-9.74158
▁ᏕᏡᎬ	-9.74222
▁ᏓᏁᏩᏗᏒ	-9.74223
▁ᏕᎨᏌᏗᏒ	-9.74247
▁ᎤᏓᏅᏖᎴ	-9.74319
▁ᎠᏆᏚᎵᏍᎬ	-9.74365
▁ᎤᏓᏴᏍᏗ	-9.74769
▁ᎷᏈᏂ	-9.74972
▁ᏗᏂᎵᎠᏅᎯᏛ	-9.74972
▁ᎢᏈᎬᎢ	-9.74972
▁ᎹᏏᏙᏂ	-9.74976
▁ᏞᎩᏳ	-9.74979
▁ᎠᎾᏓᏅᏟ	-9.7498
▁ᎬᏔᏂᏓᏍᏗ	-9.74986
▁ᎠᎪᏄ	-9.74987
▁ᏌᎺᎵᏱ	-9.74993
▁ᎠᏙᎳᏅᏍᏗ	-9.74994
▁ᎩᏟ	-9.75004
▁ᏗᎦᏅᏙᏗ	-9.75008
▁ᎠᏫᏄᏣ	-9.7501
▁ᎠᏟᎶᏍᏗ	-9.75024
▁ᎢᏳᏪᏅᏍᏗ	-9.75028
▁ᎢᏨᏗᏍᎨᏍᏗ	-9.7503
▁ᏧᏍᏆᏅᎾ	-9.75037
▁ᎡᏏᏱ	-9.7506
▁ᎤᏬᏚᎯ	-9.75072
▁ᎤᏬᏚᎯᏳ	-9.75078
▁ᎠᏥᎾᏝᎢ	-9.75079
▁ᎤᎶᏒᏍᏗ	-9.75082
▁ᏧᏓᎴᏅᏓ	-9.75112
▁ᎠᏓᎯ	-9.75131
▁ᏎᎳᏱ	-9.7516
▁ᎤᏂᏴᏍᏗᏱ	-9.75254
▁ᏔᎵᏧᏈ	-9.75256
ᎤᏅ	-9.75363
▁ᎣᏁ	-9.75428
▁ᏚᏯ	-9.75453
ᎶᏗ	-9.75462
▁ᏤᎮᎢ	-9.75479
▁ᎠᏁᎮᎢ	-9.75562
▁ᏚᎴᏁᎢ	-9.75728
▁ᏰᎭ	-9.7576
▁ᎠᏁᎭ	-9.75851
▁ᏐᎢᏱ	-9.75948
▁ᏱᏗᏣ	-9.76063
▁ᎠᎬ	-9.76176
▁ᎢᏳᎾ	-9.76375
ᏨᎯ	-9.76528
▁ᏓᏨ	-9.76648
▁ᎦᏍᎩᎸᎢ	-9.76937
▁ᎠᏥᎸᏉᏗ	-9.76955
ᏍᏊ	-9.7737
ᏍᏗᏍᎬ	-9.77682
▁ᎤᎨᏳᎯ	-9.77683
▁ᏙᎯᏱ	-9.77894
▁ᎤᏬᎵ	-9.77985
▁ᎢᏓ	-9.78013
ᏍᏔ	-9.78327
▁ᎠᏜ	-9.78443
▁ᎠᏎᎩ	-9.78444
▁ᏚᎴᏁ	-9.78478
▁ᎤᏁᏅᏎ	-9.78566
▁ᏫᎬᏩ	-9.78577
▁ᎤᎸ	-9.7862
ᏛᏗ	-9.78661
ᏛᎭ	-9.78827
a	-9.78908
ᏠᎾᏍᏗ	-9.78948
ᎸᏉᏙᏗ	-9.79229
ᎸᏉᏗᏳ	-9.7958
▁ᏔᎵᎭ	-9.79616
▁ᏅᏓᏳ	-9.79803
▁ᎠᏂᏙᎾᎥ	-9.79834
▁ᏗᏓ	-9.79967
ᏅᏒᎩ	-9.80188
▁ᏗᏣᏓᏅᏙ	-9.80212
ᎠᏯ	-9.80314
▁ᎬᏆ	-9.80413
▁ᏨᏍᎩᏃ	-9.8042
▁ᎤᏰᏤ	-9.80421
▁ᎠᏆᎧᏛ	-9.80431
▁ᏓᏠᎯᏍᏛ	-9.80468
▁ᎠᏁᏙᎲ	-9.80471
▁ᏭᎶᏎ	-9.8049
▁ᎤᏓᏅᏎ	-9.80628
ᏛᎯ	-9.80629
ᏍᏕᎸᏗ	-9.8074
▁ᏕᎦᎶᏗ	-9.80899
▁ᎤᏓᎵ	-9.80915
▁ᏏᎩᎻ	-9.80931
▁ᎠᏥᎦᏘᏗᏍᏗ	-9.80957
ᎢᏳ	-9.80968
▁ᎤᏓᏅ	-9.81023
ᎾᏏ	-9.81023
▁ᎤᏍᎪᎵ	-9.81035
▁ᎪᏪᎳ	-9.81071
▁ᎠᎾᏛ	-9.81072
▁ᎤᏕᎰᎯᏍᏗ	-9.81119
ᏐᎢ	-9.81135
▁ᎢᏳᏛᏁᏗ	-9.8115
y	-9.81211
▁ᎦᎷᏯᏍᏘ	-9.81222
▁ᎬᏩᏍᏓᏩᏛᏎᎢ	-9.81222
▁ᎢᏏᎺᎵ	-9.81222
▁ᎤᎵᏗᏨ	-9.81222
ett	-9.81222
▁ᏅᏓᏳᏂᎶᏒᎯ	-9.81223
▁ᏑᎾᏙᏓᏆᏍᏗ	-9.81223
▁ᎢᏯᏅᏙ	-9.81225
▁ᏗᎬᏔᏂᏓᏍᏗ	-9.81225
▁ᎢᎦᏪᏍᏗ	-9.81227
▁ᏂᎬᏩᏪᏎᎸᎩ	-9.81227
▁ᏗᏰᏙᎳᏛᏗ	-9.8123
▁ᎠᏖᎵᏙ	-9.8123
▁ᎭᏩᏧ	-9.81235
▁ᏚᏘᏅᏎ	-9.81239
▁ᎤᎴᏂᏙᎸ	-9.81245
▁ᏕᎹᏍᎦ	-9.81254
▁ᎠᏂᎨᎾᏂ	-9.81254
▁ᎠᏫᏒᏗᏱ	-9.81254
▁ᏗᏍᏓᏓᏅᏟ	-9.81254
▁ᎦᏂᎦᏔ	-9.81257
▁ᏣᏓᎵᎢ	-9.81275
ᏩᏛᎲ	-9.81276
▁ᎠᏂᎦᏓᎭ	-9.81288
▁ᏌᎾᏱ	-9.81288
▁ᏥᏚᏙᎥ	-9.8129
▁ᎤᏁᎵᏤᎢ	-9.81298
▁ᎤᎾᏁᎳᏅᎯ	-9.81311
▁ᎠᎪᏙᏗ	-9.81312
▁ᏙᏱᏨ	-9.81322
▁ᎤᎾᏠᎾᏍᏗ	-9.81328
▁ᏗᏦᏢᏙᏗ	-9.81329
▁ᎤᎾᏰᎯᏍᏗᏳ	-9.81332
▁ᏎᎻ	-9.81346
▁ᎤᏏᏩ	-9.81404
▁ᎤᏬᏚᏨ	-9.8142
▁ᏁᎲᎾ	-9.81429
▁ᎮᎦ	-9.81432
▁ᏂᎦᎵᏍᏓ	-9.81455
▁ᏱᏂᎦᎵᏍᏓ	-9.81458
▁ᎠᎩᏰᎸᎭ	-9.81472
▁ᎤᏂᎯᏍᏗᏱ	-9.81482
▁ᎠᏍᎪᎯᏁ	-9.81499
▁ᎤᏟᏍᏓ	-9.81519
▁ᎢᎬᏓ	-9.8152
▁ᎤᎷᎯᏍᏗᏱ	-9.81527
▁ᏈᎳ	-9.81528
▁ᎾᏂᏪᏍᎬᎩ	-9.81539
▁ᎢᎬᏒ	-9.81706
▁ᎠᎱᏍᏕ	-9.81712
▁ᏗᏂᏅᏌᏗ	-9.81715
▁ᎠᏁᎩ	-9.81853
▁ᏫᏗ	-9.81882
▁ᏄᎾᏛᏅᎢ	-9.81933
ᎨᏳᏎᏍᏗ	-9.81939
▁ᎢᎾ	-9.8202
▁ᏓᏁᏩᏗᏒᎢ	-9.82031
▁ᏕᎭᎷᎨᎢ	-9.82081
Ꮰ	-9.8243
▁ᏙᎩ	-9.82505
▁ᎦᏂ	-9.82736
▁ᎡᏗ	-9.82755
▁ᏕᎦᏛ	-9.82856
▁ᏣᏉ	-9.82922
ᏃᎮᎭ	-9.83052
▁ᎨᏴᎢ	-9.83482
ᎥᏍᎬ	-9.83614
ᏩᏛᏗ	-9.83752
▁ᏓᎾᏓ	-9.83757
ᎥᎢ	-9.83766
ᎳᏅᎯ	-9.8382
ᎪᎵᏰᏍᎩ	-9.83821
▁ᎠᏙ	-9.84086
▁ᎠᎩᎵᏲᎢᏍᏗ	-9.84117
Ꮡ	-9.84196
▁ᎯᎳ	-9.84198
▁ᏧᏅ	-9.84204
▁ᏗᏤ	-9.84588
▁ᎤᏂᏁ	-9.84615
▁ᎤᏂᏠᏱ	-9.84713
,)	-9.84793
▁ᎠᏗ	-9.8517
▁ᏕᏣᏓ	-9.85283
▁ᎤᎾᏙᎴᎰᏒ	-9.85305
▁ᎤᏇᏓᎸ	-9.85593
ᏉᏰᏃ	-9.859
ᎦᏛ	-9.86063
▁ᏗᏗ	-9.8611
▁ᎦᏥᏯ	-9.8616
▁ᎢᎨ	-9.86269
ᎡᎭ	-9.86343
▁ᏧᎾᏓ	-9.86426
ᏅᏟ	-9.86527
▁ᏔᎵᏁᎢ	-9.86552
▁ᏚᎸᏫᏍᏓᏁᎸ	-9.8659
▁ᏯᎾ	-9.86628
Ꮏ	-9.86639
▁ᎤᏛ	-9.86655
▁ᎦᏁᎲ	-9.86699
▁ᏁᎳᎩ	-9.86711
▁ᏄᏂ	-9.86835
ᎸᎾ	-9.86919
▁ᎤᏚᎵᏍᎨ	-9.86925
ᎵᏱ	-9.86952
▁ᏕᏥᎸᏫᏍᏓᏁᎲ	-9.87125
▁ᏭᏴᎴ	-9.87161
▁ᏙᏓᎸ	-9.87227
▁ᏄᎾᏛᏅ	-9.87237
▁ᎡᎮ	-9.873
▁ᏗᏁᎲ	-9.87398
ᏯᏖᏅ	-9.87414
ᎲᏍᎬ	-9.87421
▁ᏅᏗᎦᎵᏍᏙᏗ	-9.87496
ᎵᏍᏆᏗᏍᎩ	-9.87499
▁ᎤᏁᎸ	-9.8756
Ꮁ	-9.87603
▁ᎤᏛᏁᎢ	-9.87707
▁ᎡᎩ	-9.87715
ᏛᏅ	-9.87861
▁ᎠᎾᏓᎾᏏᏂᏙᎯ	-9.87888
▁ᏯᎦᏔᎮ	-9.87889
▁ᎠᎵᏰᎾ	-9.8789
▁ᎦᏣᏄᎳ	-9.87891
▁ᎠᏨᏍᏙᏗ	-9.87893
▁ᏧᎦᏒᏍᏗ	-9.87896
▁ᎢᎬᏩᎵᏍᏙᏗ	-9.87904
▁ᎠᏒᎬ	-9.87907
▁ᎢᏣᎵᏍᏙᏗᏱ	-9.87909
▁ᏗᏥᏲᎵ	-9.87914
▁ᏗᏂᏏᏗ	-9.87916
▁ᎠᏤᎷᎩ	-9.87918
▁ᎠᏂᎩᎷᏫ	-9.87928
▁ᏧᎳᏏᏕᏂ	-9.87933
▁ᏥᏄᏪᏎᎢ	-9.87946
▁ᏫᎦᎷᎩ	-9.87956
▁ᏥᏍᏚ	-9.87961
▁ᏗᏂᏰᎸ	-9.87974
▁ᎤᎾᎳᏅᎯ	-9.87974
▁ᏄᎾᏓᎴᏒ	-9.87981
▁ᎫᎫ	-9.87996
ᎵᏰᎢᎶᎯᏍᏗ	-9.88077
ᏯᏅᏛ	-9.88086
▁ᎤᏲᎱᎯᏍᏗᏱ	-9.88087
▁ᎤᎵᏍᎨᏛ	-9.881
▁ᏏᏲ	-9.88117
▁ᎭᏫᏂᏨ	-9.88128
▁ᎢᏳᏍᏘ	-9.88153
▁ᎧᏃᎮᏗ	-9.88154
▁ᎠᎾᏓᏅᏖᏍᎬ	-9.88162
▁ᏚᎾᏓ	-9.88166
▁ᎫᎴ	-9.88179
▁ᎤᏲᏨ	-9.88225
▁ᏭᏂᎶᏎᎢ	-9.8823
▁ᎤᏂᏣᏛᎩ	-9.88232
▁ᏗᎩᏏ	-9.88245
ᎦᏙᏃ	-9.88252
▁ᎠᎪᏩᏛᏗ	-9.88258
▁ᎠᏆᏚᎵᎭ	-9.88264
▁ᏂᎪᎯᎸᎾᏉ	-9.88327
ᏴᏫ	-9.88352
▁ᏥᎨᏳᎢ	-9.88358
▁ᏱᎨᏐᎢ	-9.88393
▁ᏂᎦᎵᏍᏙᏗ	-9.88466
▁ᏙᎦ	-9.88543
▁ᎨᎵᎠ	-9.88571
▁ᎡᎮᏍᏗ	-9.88604
ᎳᎻ	-9.88618
▁ᏚᎸᏫᏍᏓᏁᎸᎢ	-9.88658
▁ᎠᏁ	-9.88685
▁ᎠᏁᏙᎲᎢ	-9.88706
▁ᎢᎦᏤᎵᎦ	-9.88719
▁ᎡᏙᎲᎢ	-9.8879
▁ᎪᎨ	-9.88805
▁ᏗᏁᎲᎢ	-9.88823
▁ᎤᏓᏅᏅ	-9.88925
▁ᎠᏓᏁᏗ	-9.89137
▁ᎡᎾ	-9.89307
▁Ꮠ	-9.89359
▁ᏂᏙᏓᏳ	-9.89818
▁ᏂᎪᎯᎸᎾ	-9.89903
▁ᎤᏂᎷᏤᎢ	-9.9005
▁ᏂᏥᎥᎢ	-9.90089
▁ᏍᎩᏯ	-9.90315
ᎦᏗᏓ	-9.90316
▁ᎠᏂᏐ	-9.90654
▁ᏕᎬᏩ	-9.90713
▁ᏣᏚ	-9.90851
▁ᎠᏋᏒᏉ	-9.90921
▁Ꮜ	-9.91049
▁ᏤᏣ	-9.91075
ᏧᏈᏍᏗ	-9.91124
;]	-9.9125
ᎲᏍᎨᏍᏗ	-9.91772
▁ᎪᎯᏍᎩᏂ	-9.91979
ᏢᏙᏗ	-9.92208
ᏙᎴᎰᎯᏍᏗ	-9.92226
ᎳᏗ	-9.92689
▁ᎣᏣ	-9.93757
ᏂᎸ	-9.9382
▁ᏚᏪ	-9.93861
▁ᏧᎾᏄᏬ	-9.93967
▁Ꮞ	-9.94057
Ꮉ	-9.94091
▁ᏎᎳ	-9.94135
ᎦᎶᏁᏛ	-9.94167
▁ᎠᏆᏛᎦᏅ	-9.94182
▁ᎡᎳᏪ	-9.94211
▁ᎢᏳᏪ	-9.9427
▁ᏓᏫᏒ	-9.94283
▁ᏯᏂ	-9.94416
ᎵᏍᎦᏍᏙᏛ	-9.94439
▁ᏭᏂᎷᏨ	-9.94512
ᏩᎬᏘ	-9.9462
▁ᏚᏁᎴ	-9.94628
▁ᏄᏛᏅ	-9.94682
▁ᎤᏴ	-9.94725
▁ᎡᏝᏪ	-9.94734
▁ᏗᎧᏃᎩᏍᏗ	-9.94783
▁ᎤᏓᏅᏛ	-9.94808
▁ᎠᏛᎪᏗ	-9.94863
▁ᏥᏥ	-9.94971
▁ᎠᏗᏆᎸᏕᏲ	-9.95031
▁ᎬᏍᎦᎢᏍᏓᎩ	-9.95031
▁ᏂᎦᏅᎯᏎᏍᏗ	-9.95031
▁ᎠᏂᏌᏚᏏ	-9.95031
▁ᏄᏜᏏᏛᏒᎾ	-9.95031
▁ᏌᏯᏂ	-9.95031
▁ᎤᎵᎪᎲᏍᏗ	-9.95031
▁ᏗᏁᎶᏙᏗ	-9.95031
▁ᏧᏃᏑᎶᏨᎯ	-9.95032
▁ᏥᏔᎦ	-9.95033
▁ᎤᎶᏒᏍᏔᏅᎯ	-9.95034
▁ᏧᎾᏦᎯᏍᏗ	-9.95038
▁ᎢᏨᏔᏲᏎᎭ	-9.95038
▁ᏧᎾᎳᏏᏕᏂ	-9.9504
▁ᎳᏏᎳ	-9.95041
▁ᎢᏳᏓᎨᏛ	-9.95043
▁ᎢᎩᏍᏕᎵᏍᎩ	-9.95047
▁ᎢᏣᏓᏙᎵᏍᏗᏍᎨᏍᏗ	-9.95049
▁ᎾᏛᏁᎮᏍᏗ	-9.9505
▁ᎤᏚᏫᏛ	-9.95052
▁ᏫᏂᎦᎵᏍᏓ	-9.95053
▁ᏫᏄᏒᎸ	-9.95054
▁ᎣᎦᏁᎳᏅᎯ	-9.95063
▁ᎤᏴᏣ	-9.95063
▁ᎣᏌᏂ	-9.95064
▁ᎤᎾᎴᏅᎮ	-9.95065
▁ᎦᏰᏌᏗ	-9.95069
▁ᏤᏈ	-9.9507
▁ᎠᎦᏘᏯ	-9.95082
▁ᎠᏂᎦᏔᎿᎢ	-9.95086
▁ᎬᎪᏩᏛᏗ	-9.95086
▁ᎠᎵᎮᎵᏍᏗ	-9.95094
▁ᏗᏯᏖᎾ	-9.95094
▁ᎢᎦᏪᏛ	-9.95095
▁ᎤᎵᏑᏫᏓ	-9.95116
▁ᎤᎦᏃᏩ	-9.95161
▁ᏧᎾᏓᎵᎢ	-9.95176
ᏛᏳᎨᏗ	-9.95233
▁ᎢᎾᏓ	-9.95234
▁ᎢᏳᏅᏁᏗᏱ	-9.95235
▁ᎪᎨᏱ	-9.95277
▁ᎤᎴᏫᏍᏔᏅ	-9.95288
▁ᎤᏬᏢᏅᎯ	-9.95289
ᏔᏲᏎᎴ	-9.95301
▁ᎠᏓᏅᏖᏗ	-9.95315
▁ᏣᏁᎮᎢ	-9.95341
▁ᏧᎸᏫᏍᏓᏁᏗᏱ	-9.95399
▁ᎢᏍᏗ	-9.95404
▁ᏗᎦᎵᎠᏅᎯᏛ	-9.95466
▁ᏄᎾᏛᏁᎸᎩ	-9.95483
▁ᎠᏓᏰᏍ	-9.95485
▁ᏚᏳᎪᏗ	-9.95507
▁ᎤᎾᏄᎪᏫᏎᎢ	-9.9559
▁ᎠᏥᎸᎠᏁᎶᎯ	-9.95609
▁ᎤᏔᎷᎩᏍᎩ	-9.95649
▁ᎬᏩᏛᏛᏁ	-9.95699
▁ᏭᎶᏒᎩ	-9.95751
▁ᎠᎦᏔᎭ	-9.95784
ᎭᏗ	-9.95788
▁ᎤᎵᏍᎨ	-9.95826
▁ᏧᎵᎢ	-9.95867
▁ᎾᎥᏂᏳ	-9.9587
▁ᎧᏁᎢᏍᏗ	-9.95876
▁ᏓᏠᎯᏍᏛᎢ	-9.95919
▁ᏚᎸᏫᏍᏓᏁᎲ	-9.95955
▁ᏕᎨᏌᏗᏒᎢ	-9.95966
▁ᎤᏂᎵ	-9.9608
▁ᎭᏓᏅᏖᏍᎬ	-9.96109
▁ᏍᎪᎯ	-9.96207
ᏌᏘ	-9.96253
ᏗᏍᎨ	-9.96263
▁ᎤᏁᏤᎸᎩ	-9.96306
▁ᎤᏣᏛ	-9.96398
an	-9.96398
▁ᏑᏓᎵᏁ	-9.96412
ᎦᏘᏍᏙᏗ	-9.96423
▁ᏙᏳ	-9.96625
▁ᏗᎨᏥ	-9.96745
ᎵᏏ	-9.96849
▁ᏥᏯ	-9.96868
▁ᎬᏗᏍᎬᎢ	-9.9692
ᏃᎯᏎᎸ	-9.97133
▁ᏳᏂ	-9.97175
▁ᎤᎴᏅ	-9.97209
▁ᏗᏣᏓ	-9.97352
▁ᏚᏅ	-9.97382
▁ᏴᎬ	-9.97395
▁ᏳᏩ	-9.97456
▁ᎠᏰᎸᏗ	-9.97522
ᏣᏘ	-9.97812
▁ᎤᏰᎸᏛᎢ	-9.97837
ᏍᏔᏅᎩ	-9.97949
ᏅᎭ	-9.98066
.]	-9.98094
▁ᎤᏕ	-9.98169
ᎯᎭ	-9.98359
▁ᏤᎩ	-9.98553
▁ᎤᏲᏉ	-9.98642
Ꭻ	-9.98953
▁ᏍᎩᏃ	-9.99067
▁ᎪᎯᏛ	-9.99172
ᎵᏍᏔᏅ	-9.99239
▁ᎠᏓᏅᏙᏍᎩᏂ	-9.99298
ᏟᏍᏗ	-9.99353
▁ᎤᏬ	-9.99423
▁ᎯᎦᏔᎭ	-9.9948
▁---	-9.99685
▁ᏱᎨ	-9.99803
▁Ꮼ	-9.99811
ᏂᏗᏳ	-9.99837
▁ᎢᏅᎯ	-9.99926
▁ᎤᎫᏴᏗ	-9.99968
▁ᏙᏓᎦ	-10.0008
▁ᏑᎾᎴᏃ	-10.0048
▁ᏩᏁ	-10.0068
▁ᏥᏅᏏᏓᏍᏗ	-10.0078
▁ᏗᎬᏩᏂ	-10.0084
▁ᏄᏍᏛᎾ	-10.0097
▁ᎾᏑᏴ	-10.0101
▁ᏧᎵ	-10.0109
▁ᎤᎪ	-10.0125
▁ᏛᎾ	-10.014
▁Ꮲ	-10.0164
ᏁᎲᎢ	-10.0167
▁ᎠᏁᏙᎮ	-10.017
▁ᏓᏅᏅ	-10.0178
▁ᎯᏆ	-10.0182
▁ᏕᎨᏴ	-10.0185
▁ᏚᎾᏓᏡᏩᏗᏒ	-10.0196
ᎪᏩᏛᏗ	-10.0206
▁ᎤᏄᎪᏨ	-10.022
▁ᏚᎪᎲ	-10.0227
▁ᏅᏃ	-10.0228
▁ᎦᏅᎬ	-10.0231
▁ᎤᏪᏙᎸ	-10.0239
▁ᎤᏪᏅᏍᏗ	-10.0257
▁ᎠᏒᎨ	-10.0259
▁ᎠᎩᎾᏫ	-10.0261
▁ᎤᏲᎱᎯᏍᏗ	-10.0262
▁ᏥᎬ	-10.0266
▁ᎠᏇ	-10.0267
ᏄᎮᏛ	-10.0272
▁ᏑᏓᎴᎩ	-10.0272
▁ᏀᎾ	-10.0272
▁ᏅᏬᏘ	-10.0272
▁ᏍᏏᏉᏯ	-10.0272
▁ᏗᎦᏙᏌᏗᏍᏗᏱ	-10.0272
▁ᏗᏂᎨᏫ	-10.0272
▁ᎦᏃᏍᎩᏍᎩ	-10.0273
▁ᏌᏙᏂ	-10.0273
▁ᏧᎾᏦᏴᏍᏗ	-10.0273
▁ᎾᎦᎥ	-10.0273
▁ᎮᎳᏂ	-10.0273
▁ᏗᎪᏒᏔᏅ	-10.0273
▁ᎨᏣᏍᎦᎩ	-10.0273
▁ᎠᏉᏰᏂ	-10.0273
▁ᎦᏚᎢᏗᏢ	-10.0273
▁ᏇᏍᏓ	-10.0274
▁ᏗᏂᎰᎵ	-10.0274
▁ᏍᏗᏫ	-10.0274
▁ᏌᏊ	-10.0274
▁ᏚᏑᎬ	-10.0274
▁ᏁᏂᏏ	-10.0274
▁ᎤᎧᏲᏛᎯ	-10.0274
▁ᎨᎦᏑᏰᏛ	-10.0274
▁ᎠᏂᎦᏔᎾᎢ	-10.0274
▁ᏚᎦᏒᏍᏛ	-10.0275
▁ᏗᏍᏆᎾᎳᏗᏍᏗ	-10.0275
▁ᏗᎳᏑᎶ	-10.0275
▁ᏄᏍᏗᏓᏅ	-10.0275
▁ᎢᏳᏓᏅᎯᏓ	-10.0275
▁ᎬᎩᏍᎦᎩ	-10.0275
▁ᎣᏥᎦᏔᎭ	-10.0276
▁ᎤᏕᎶᎰᏎ	-10.0276
▁ᏩᏛᎬᎦ	-10.0277
▁ᎤᏓᏅᏖᎸ	-10.0277
▁ᎢᏥᏯᏫᏍᎨᏍᏗ	-10.0278
▁ᎣᎭᏂ	-10.0278
▁ᎠᏂᎩᏏᏙᎯ	-10.0278
▁ᎨᏆᏂ	-10.0278
ᎪᏣᎴᏛ	-10.0278
▁ᏗᏥᎶᏍᏔᏅ	-10.0279
▁ᎢᏥᏅᏟ	-10.0279
▁ᎤᏤ	-10.0279
▁ᎠᏂᎦᏔᎯ	-10.028
▁ᏥᎮᎾ	-10.028
▁ᎠᏍᎦᏰᎬᏍᏔ	-10.0281
▁ᏫᎶᎯ	-10.0284
▁ᎤᏙᎴᎰᏎ	-10.0285
▁ᏄᏕᏘᏴᎮᎢ	-10.0288
▁ᎤᏪᎷᏅᎩ	-10.0288
▁ᏓᏳᎶᏒ	-10.0289
▁ᏂᎦᏚ	-10.0291
▁ᏚᎧᎾᏁ	-10.0297
▁ᎤᏁᎷᏁᎢ	-10.03
▁ᎢᏥᏍᎦᏅᏨᎢ	-10.0301
▁ᎤᏛᏐᏅᎯ	-10.0301
▁ᎤᎵᏍᏕᎸᏙᏗ	-10.0305
▁ᎪᏢᏅᎯ	-10.0306
▁ᎤᏓᏅᏒᎩ	-10.0306
▁ᎠᏧᏏ	-10.0311
ᎠᏎᏃ	-10.0313
▁ᏕᎦᎶᏗᎯ	-10.0315
▁ᎠᎩᎪᎲᎩ	-10.0315
▁ᎤᏓᏔᏅᎯ	-10.0316
▁ᏓᎧᏅᎢ	-10.0319
ᏌᏂ	-10.0319
▁ᎬᏩᎷᏤᎸᎩ	-10.0322
▁ᎪᏢᏒᎢ	-10.0325
▁ᎤᏄᎪᏤ	-10.0327
▁ᎡᎳᏗᏣ	-10.0329
▁ᎢᏧᏩᏁ	-10.0329
▁ᎡᏙᎯ	-10.0335
▁ᎠᏥᎸᎨᎶᎯ	-10.0339
▁ᏓᎬᎾ	-10.0342
▁ᎨᎾᏂᏱ	-10.0346
▁ᎠᏁᎳ	-10.0346
ᎶᎢ	-10.0347
Ꮾ	-10.035
▁ᏚᎾᏓᏡᏩᏗᏒᎢ	-10.0351
▁ᎤᏂᏍᎦᏅᏨᎯ	-10.0358
▁ᎤᏁᎳᏅᎯᏱ	-10.0359
▁ᎤᎾᏓᏑᏴ	-10.0361
▁ᎪᏣᎴᏛ	-10.0363
▁ᎮᏗ	-10.0365
▁ᎤᏍᏘᏰᎬ	-10.0366
▁ᏥᎪᎨ	-10.0373
ᏖᎸᏗ	-10.0383
▁ᏣᏂᏃ	-10.0392
ᏙᏓ	-10.0393
▁ᏚᏂᎸᏫᏍᏓᏁᎲᎢ	-10.0399
▁ᎠᏔᎴᏒᎢ	-10.0405
ᎿᎨ	-10.0419
▁ᏂᎦᏪᏍᎬᎩ	-10.0428
ᎵᏓᏍᏗ	-10.0432
ᎸᏗ	-10.0438
▁ᏱᎦᎩ	-10.0444
▁ᎤᎪᎮᎢ	-10.0448
▁ᏡᎬᎢ	-10.046
ᏕᎩ	-10.0492
▁ᎤᏣ	-10.0528
▁ᎤᎴ	-10.0545
▁ᎡᎳ	-10.055
▁ᎠᏍᎦ	-10.0553
▁ᏙᏗ	-10.0561
▁ᎤᏲᎱᏒᎢ	-10.0574
▁Ꮋ	-10.0619
;)	-10.0622
▁ᏓᏰ	-10.064
ᎵᏍᎪᎸᏓᏁᎸᎯ	-10.0647
ᏓᏅ	-10.068
▁ᎤᏩᏛᏗ	-10.0682
▁ᏥᏴ	-10.0689
▁ᏥᏓᏂ	-10.0697
ᏚᎦ	-10.0705
▁ᎠᏂᏂ	-10.0722
ᎴᎭ	-10.0742
▁ᎤᏂᏁᏨ	-10.0754
▁ᎤᏄᏬ	-10.0755
ᎷᏥᏏ	-10.0762
ᏖᏍᏗ	-10.0763
▁ᎦᎾ	-10.0772
ᎥᎾ	-10.0778
ᏅᏎ	-10.0805
ᏓᏑᏯ	-10.0806
ᏁᏥ	-10.0806
ᏓᏥ	-10.0828
ᏗᏍᎪᎢ	-10.0843
ᏓᏂᎸᏨᎯ	-10.0854
▁ᏱᎬᏩ	-10.0883
▁ᎢᏍ	-10.0884
▁ᎤᏦ	-10.0896
▁ᎦᏁ	-10.0897
ᏗᏣ	-10.0904
▁ᎦᏛ	-10.0913
▁ᏏᎻᏯᏂ	-10.0914
ᏎᎸ	-10.0915
▁ᎪᎯᏳᏗᏍᎩ	-10.0916
ᏤᎵ	-10.0924
▁ᎠᎯᏗ	-10.0927
ᏁᎶᏗ	-10.0948
▁ᎣᎦᏤᎵ	-10.0951
▁ᏂᎬᏁ	-10.097
▁ᏓᎬᏩ	-10.0972
▁ᎧᏃᎮᏍᎬ	-10.0974
▁ᏄᎾᏛᏁᎸ	-10.0977
ᏒᏅ	-10.0978
ᏣᏓ	-10.0994
▁ᎠᏍᏓ	-10.1003
▁ᎠᏅᏗᏍᎬ	-10.1022
▁ᎤᏜᏅᏛ	-10.1022
▁ᎤᎿᏥ	-10.1024
▁ᏓᏓ	-10.1028
▁ᏫᏚᏯᏅᎮ	-10.1032
▁ᎪᏱᏁ	-10.1032
▁ᎠᏨᏯ	-10.104
▁ᎠᏂᏁᎬ	-10.1045
▁ᎤᎾᏚᎵᏍᎬ	-10.1051
▁ᎤᏂᎩᏎ	-10.1054
ᎥᎯᏍᏗ	-10.1055
▁ᎢᏨᏯ	-10.1056
▁ᏚᎸᏌᏛ	-10.1056
▁ᎠᏇᎵᏒ	-10.1056
▁ᏂᏚᏩᏁᎸ	-10.1057
▁ᎤᏪᏅᏒ	-10.106
ᎬᎭᎷᏴ	-10.1061
▁ᏥᏁᎬ	-10.1063
▁ᎠᏴᏫᏯ	-10.1065
ᎸᏌᏛ	-10.1074
▁ᏱᏥᎦᏔ	-10.1074
ᎶᏒ	-10.1078
▁ᎢᏯᏆᏛᏁᏗ	-10.1083
▁ᏂᏨᏁᎸ	-10.1084
▁ᎤᏁᏓᏍᏗ	-10.1085
▁ᏗᎦᎪᏗ	-10.1088
▁ᎤᏩᏅ	-10.1088
▁ᎠᏁᎵᏍᎨ	-10.1093
▁ᎡᎳᏂᎬ	-10.1096
▁ᏫᎬ	-10.1102
▁ᎤᏩᏛᎲ	-10.1103
▁ᎤᎵᏬᏨ	-10.1104
▁ᎠᏂᏩᏥᏂ	-10.1106
▁ᎦᎳᎱᏂ	-10.1106
▁ᏕᎦᎳᏫᎥ	-10.1106
▁ᏧᏓᎿᏩᏛ	-10.1106
▁ᎢᏆᎶᏂ	-10.1106
▁ᎾᎪᏔᏅᎾ	-10.1106
▁ᏚᎾᎧᏛ	-10.1106
▁ᏗᏂᏬᏂᏍᎩ	-10.1106
▁ᏣᏔᎦ	-10.1106
▁ᎤᏙᎴᎰᎯᏍᏗᏱ	-10.1106
▁ᏚᏃᏢᏔᏅᎩ	-10.1106
▁ᎢᏕᎯ	-10.1106
▁ᏄᏓᎵᏓᏍᏛᎾ	-10.1106
▁ᏗᎨᏥᎤᏍᏕᏎᎸᎯ	-10.1106
▁ᏅᏓᎦᎵᏍᏙᏓ	-10.1106
▁ᏗᏂᏍᎪᎵ	-10.1106
▁ᏂᎦᎵᏍᏔᏂᏙᎲ	-10.1107
▁ᎦᏂᏓᏛ	-10.1107
▁ᏍᎪᏯ	-10.1107
▁ᏧᏆᎶᎬ	-10.1107
▁ᏂᏣᏛᏁᎮᏍᏗ	-10.1107
▁ᎾᎵᏍᏆᏗᏍᎬᎾ	-10.1107
▁ᎢᏥᏰᎸᏎᏍᏗ	-10.1107
▁ᎢᏣᏅᏖᏍᏗ	-10.1107
▁ᎤᏬᏑᎶᏨᎯ	-10.1107
▁ᎥᎩᏅᏏᏛ	-10.1108
▁ᏚᎾᎴᏁ	-10.1108
▁ᎠᏂᏃᏍᎩᏍᎩ	-10.1108
▁ᏗᏓᏬᏍᎩ	-10.1108
▁ᎢᏳᏕᏘᏴᏓ	-10.1109
▁ᎢᏧᎳᏗᏢ	-10.1109
▁ᎯᏍᎦᏯ	-10.1109
▁ᎢᏥᎦᏔᎮᏍᏗ	-10.1109
▁ᎡᏂᏗ	-10.1109
▁ᏂᏚᎾᏓᏪᏎᎴᎢ	-10.1109
▁ᎠᏌᏅᏙᏗ	-10.111
▁ᏗᏑᏢᏛ	-10.111
▁ᎣᏂᏗᏢ	-10.111
▁ᏅᏓᎦᎵᏍᏙᏔᏂ	-10.111
▁ᎠᎵᏥᏙᎲᏍᎩ	-10.111
▁ᎢᏯᏍᏘ	-10.111
▁ᎡᏈᎵ	-10.1111
▁ᎢᏥᎦᏙᎥᎯᏍᏗᏱ	-10.1111
▁ᏧᎾᎵᏂᎩᏛ	-10.1112
▁ᎠᎦᏯᎷᏗ	-10.1112
▁ᎪᎯᏳᎲᏍᎩ	-10.1112
▁ᎠᏥᎤᏍᏕᏎᎸᎯ	-10.1112
▁ᏂᎬᏪᏎᎭ	-10.1113
▁ᏣᏓᏅᏙ	-10.1114
▁ᏧᏍᎪᎵ	-10.1115
▁ᎦᎾᏍᏓ	-10.1115
▁ᏂᎦᎵᏍᏔᏅᎭ	-10.1117
▁ᏅᏧᎵᏍᏙᏔᏅ	-10.1118
▁ᏍᎩᏙᎵᎩ	-10.1121
▁ᎤᏕᎵᏒ	-10.1121
▁ᎢᏳᎵᏍᏔᏅᎯ	-10.1123
▁ᎭᎻ	-10.1124
▁ᎤᎵᏍᏗᏳ	-10.1125
▁ᏧᏂᎳᏫᎢᏍᏗᏱ	-10.1125
▁ᎢᏕᎾ	-10.1126
▁ᏓᏓᏏ	-10.1126
▁ᎠᎦᏔᎿᎢ	-10.1127
▁ᏚᏠᏱᎴᎢ	-10.1127
▁ᎠᏆᎵᏏ	-10.1127
▁ᎤᏍᏆᏛ	-10.1127
▁ᎢᏯᏆᏛᏁᏗᏱ	-10.1129
▁ᎢᏓᎵ	-10.1132
▁ᎹᏗ	-10.1135
▁ᎤᏪᏗᏱ	-10.1138
▁ᎨᎥᎢ	-10.1142
▁ᎤᏟᏂᎩᏓ	-10.1143
▁ᎤᏂᎩᏒᎩ	-10.1147
▁ᎡᏘᏴ	-10.115
▁ᏘᎵ	-10.1153
▁ᎤᎾᏛᏁᎢ	-10.1155
▁ᎹᎩ	-10.1157
ᎷᏤᏗᏱ	-10.1158
▁ᏂᏚᏩᏁᎸᎩ	-10.1159
▁ᏫᏚᏂ	-10.116
▁ᏧᏂᎾᏫᏱ	-10.1162
▁ᏄᎾᏍᏗ	-10.1162
▁ᏧᏓᏅᏛᎢ	-10.1167
▁ᎬᏩᎪᎲ	-10.1171
▁ᎨᏙᎲ	-10.1177
▁ᏭᏂᎷᏤᎢ	-10.1178
▁ᏂᏙ	-10.1185
▁ᎨᏂᏗ	-10.1186
ᏢᏗ	-10.1197
▁ᎠᏆᎵ	-10.1198
ᏓᏡᎬ	-10.1215
ᏓᏏ	-10.1216
▁ᏂᏫ	-10.1218
▁ᏯᏆᏚᎵ	-10.1227
▁ᎤᏣᏖ	-10.1231
▁ᎭᎵ	-10.1239
ᏐᏅ	-10.1239
ᏃᏁᎸᎩ	-10.1239
▁ᏱᎰ	-10.1244
▁Ꮘ	-10.1244
▁ᎯᎸᎯ	-10.1244
▁ᎦᏛᎬᎢ	-10.1245
ᏁᏍᎨ	-10.1247
▁ᎤᎪᎲᎯ	-10.1263
▁ᎤᏁᎢᏍᏗ	-10.1271
▁ᎤᎭᎨ	-10.1278
▁ᏄᏛᏁᎸᎢ	-10.128
ᏙᎥ	-10.1284
▁ᎨᏓᎵ	-10.1291
ᏃᎲᏏ	-10.13
ᏙᎵᏍᏗ	-10.1303
ᎫᏴᏙᏗ	-10.1304
▁ᎤᏩᎨᏫ	-10.1308
ᎡᏍᏗ	-10.131
ᏍᏆᏂᎪᏗ	-10.1312
ᏪᏨᎯ	-10.1329
▁ᎤᎴᏅᎲ	-10.1334
▁ᏧᏪᏘ	-10.134
▁ᎤᏯ	-10.1351
▁ᏗᎬᏙᏗ	-10.1365
▁ᎠᎩᎭ	-10.1416
▁ᎠᎦᏛ	-10.143
▁ᎯᎾ	-10.1436
▁ᏓᏥᏯ	-10.1474
▁ᎤᏔᏅ	-10.1485
ᏩᏛᎮ	-10.1495
ᎠᏯᏗ	-10.1497
▁ᎤᏙᏓᏃ	-10.1513
ᏂᏒ	-10.1518
ᏅᏏᏙᎯ	-10.152
ᏓᎵ	-10.1531
ᏍᏕᏍᏗ	-10.1555
▁ᎤᏛᏅᎩ	-10.1597
ᏴᏓ	-10.1611
▁ᎨᎶᎯ	-10.1612
▁ᏭᏂᎷᏤ	-10.163
ᏁᎸᏔᏅ	-10.1656
▁ᏄᏓ	-10.1685
▁ᏂᏣᏛᏅᎢ	-10.1711
ᎤᏙᎯᏳ	-10.1712
ᏧᏏ	-10.1732
ᏴᎭ	-10.1771
ᎥᏝ	-10.1772
ᏓᏅᎦᎸᏛ	-10.1782
ᏙᎵ	-10.1784
▁ᎠᏂᏁ	-10.1842
▁ᎠᏍᎦᏅᏨ	-10.1844
ᏓᎶᏂᎨ	-10.187
▁ᎾᏆᏛᏁᎸ	-10.1881
ᏔᎷᎩᏍᎩ	-10.1884
ᎨᎳᏍᏗ	-10.1887
▁ᎠᎩᏁᏨ	-10.1897
ᏚᎵ	-10.19
ᎩᏍᎨᏍᏗ	-10.191
▁ᎠᏓᏅᏖᏍᎨ	-10.1913
▁ᎡᎵᏍᎨ	-10.1917
▁ᏫᎦᏅᏅ	-10.1921
▁ᎠᏓᏯ	-10.1921
▁ᎠᏂᏨᏯ	-10.1922
▁ᎤᎩᏨᏅ	-10.1925
▁ᏕᎦᏅᏅ	-10.1926
▁ᎤᎵᏂᎬᎬ	-10.1926
▁ᏗᏤᎲ	-10.193
▁ᎥᏓᎸ	-10.193
▁ᎤᏂᏃᎮᎸ	-10.1932
ᎢᏳᎾᏍᏗ	-10.1932
▁ᏣᎧᏛ	-10.1935
▁ᎦᏰᏌᏛ	-10.1936
▁ᎬᏩᎷᏤᎴ	-10.1936
▁ᏗᏓᏁᎸ	-10.1942
▁ᏂᏣᏛᏅ	-10.1945
▁ᎤᏰᎸᏁ	-10.1948
▁ᎤᎿᎥ	-10.1951
ᏎᏗ	-10.1954
▁ᏗᏥᏰᎸ	-10.196
▁ᏥᏙᎬ	-10.1961
▁ᏫᏚᏯᏅᎲ	-10.1963
▁ᎠᏍᏚᎲ	-10.1969
▁ᎬᏩᎷᏤᎸ	-10.1976
ᏍᏗᏍᎨᏍᏗ	-10.1979
ᏅᏓ	-10.1985
ᏓᏁᎸ	-10.1988
▁ᎠᏂᏃᎯᎵᏙ	-10.1988
▁ᏂᎪ	-10.1988
▁ᏗᏄᎪᏗᏍᎩ	-10.1991
▁ᎢᎬᏩᏁᏗ	-10.1991
▁ᎠᏥᎢᏍᏗ	-10.1993
ᎩᎯ	-10.1996
▁ᎠᏁᎵᏍᎬ	-10.1998
▁ᏱᏙ	-10.2
▁ᎠᏰᎲ	-10.2006
▁ᏚᏅᏎ	-10.2006
ᏔᏅᎢ	-10.2013
▁Chap	-10.2015
▁ᎡᎩᎵᏈ	-10.2015
▁ᎢᏗᏍᏓᏓᎳ	-10.2015
▁ᎢᏯᎬᏁᎸᎯ	-10.2015
▁ᏂᏓᎪᏔᏅᎾ	-10.2015
▁ᏌᏬᏚ	-10.2015
▁ᎠᏂᏈᎵᏍᏗ	-10.2015
▁ᏌᏱᎳ	-10.2015
▁ᎠᏰᎳᏍᏘ	-10.2015
▁ᏚᎧᏔᏍᏔᏁᎢ	-10.2015
▁ᏣᎦᏟᎶᏍᏔᏅᎯ	-10.2015
▁ᏥᏍᎪᏴ	-10.2015
▁ᏅᏓᎦᏥᏴᏁᎵ	-10.2015
▁ᏧᏓᏕᏍᏗᏱ	-10.2015
▁ᎠᏗᏒᏍᏗ	-10.2015
▁ᎮᎼ	-10.2015
▁ᎤᏲᏍᏛᏉ	-10.2015
▁ᎢᏆᎻ	-10.2015
▁ᎠᏕᏒᎲᏍᎩ	-10.2015
▁ᏗᏥᎦᏙᎵ	-10.2016
▁ᏧᎾᏓᏅᏙ	-10.2016
▁ᎤᏂᏁᎫᏥᏛ	-10.2016
▁ᏥᏂᏣᏛᏅ	-10.2017
▁ᎤᎳᎨᏯᏛᏤᎢ	-10.2017
▁ᎤᎩᏓᏟᏅᏯ	-10.2017
▁ᏌᏚ	-10.2017
▁ᎢᏳᏛᏁᎸᎯ	-10.2017
▁ᎠᎹᏳᎸᏓ	-10.2017
▁ᏱᏥᏍᎦᎢᎮᏍᏗ	-10.2018
▁ᎠᎩᎬᏫᏳᎯ	-10.2018
▁ᏣᏤᎵᎪᎯ	-10.2018
▁ᏏᎵᏱ	-10.2018
▁ᎤᏍᏚᎢᏒ	-10.2019
▁ᏤᏙᎲ	-10.2019
▁ᎦᎫᏍᏛᏗ	-10.2019
▁ᎤᏣᏔ	-10.202
▁ᏇᏕᎵ	-10.202
▁ᏭᎷᏣ	-10.202
▁ᏗᎨᏥᎾᏌᎢ	-10.202
▁ᎧᏁᏍᎪ	-10.2021
▁ᎠᏂᏃᎮᏍᎩ	-10.2021
▁ᏥᏲᏎᎸ	-10.2021
▁ᎠᎦᏔᎾᎢ	-10.2021
▁ᎤᎾᏗᏍᎦᎶᏗ	-10.2021
▁ᎠᏉᎳ	-10.2022
▁ᏓᎬᏔᏂ	-10.2022
▁ᎬᏩᏍᏓᏩᏛᏒᎩ	-10.2023
▁ᎣᎩᏙᏓ	-10.2023
▁ᏗᎦᏅᏍᎨᏂ	-10.2023
▁ᎬᎵᏍᏆᏗᏍᎩ	-10.2023
▁ᏗᎬᏩᎸᏌᏛ	-10.2024
▁ᏓᎨᏏ	-10.2024
▁ᏥᏥᎦᏔᎭ	-10.2024
▁ᎢᏳᏩᏁᎯ	-10.2024
▁ᎠᎵᏍᎪᎸᏓᏁᏗ	-10.2024
▁ᏚᏃᎡᎢ	-10.2024
▁ᏯᎦᏔᎭ	-10.2025
▁ᎠᏃᏍᏛ	-10.2027
▁ᎾᏥᎾᏝᎥᎾ	-10.2027
▁ᎤᏁᏢᏔᏅᎯ	-10.2027
▁ᏦᎳᏂ	-10.2029
ᎬᏫᏳᏒ	-10.2029
▁ᏧᏂᎦᏴᎵᎨ	-10.2029
▁ᏭᎶᎯᏍᏗᏱ	-10.203
▁ᏳᏩᏁᎦ	-10.2031
▁ᎢᏣᏠᎾᏍᏗ	-10.2031
▁ᎠᏂᏅᎢ	-10.2031
▁ᎪᏪᎳᏅᎯ	-10.2033
▁ᏦᏈ	-10.2035
▁ᎬᏂᎨᏒᎢᏳ	-10.2037
▁ᏦᎳ	-10.2037
▁ᏥᏂᎦᏪᎭ	-10.2038
ᎦᏅᎯᏓ	-10.204
▁ᎠᏥᏃᎮᏍᎬᎢ	-10.2042
▁ᏧᏁᎬ	-10.2047
▁ᏂᎦᏅᎯᏒᎩ	-10.2047
▁ᎾᎨ	-10.2049
▁ᏂᏚᏍᏛ	-10.205
ᎸᏉᏗ	-10.2055
▁ᎢᏳᏩ	-10.2055
▁ᎤᏬᏢᏅᎩ	-10.2058
▁ᎤᏢᎩ	-10.2059
▁ᏕᏍᎩ	-10.206
▁ᎤᏅᏏᏙᎯ	-10.2063
▁ᎡᏉᏗᏱ	-10.2063
▁ᎤᏓᏅᏖᎸᎯ	-10.2065
ᎾᏰᏍᎬᎾ	-10.2072
▁ᎤᏕᏁᎸᎯ	-10.2072
▁ᎡᎳᏗᏢ	-10.2084
▁ᏓᏂᏁᎸᎢ	-10.2085
▁ᎠᎢᏒᎢ	-10.2088
ᎧᎵᎢ	-10.2089
▁ᎬᏂᏳ	-10.2096
ᏏᏗᏒ	-10.2098
▁ᎤᏍᎦᏅᏨᎯ	-10.2099
▁ᎤᏄᏢ	-10.2102
▁ᏧᏬᏚᎯ	-10.2105
▁ᎦᏅᎯᏓ	-10.2105
ᎨᏳᏗ	-10.2113
▁ᎤᎿᎥᎢ	-10.2117
▁ᎠᎩᏍᏗᏱ	-10.2118
▁ᎨᎳᏍᏗ	-10.2121
▁ᏤᏆ	-10.2127
ᏑᏰᏛ	-10.213
▁ᏕᏡᎬᎢ	-10.2141
▁ᎤᎾᏛ	-10.2152
ᏒᏃ	-10.2154
ᏳᎯ	-10.2163
▁ᎤᎾᏛᎦᏅᎯ	-10.2167
▁ᎾᏆ	-10.2172
▁ᏥᎨ	-10.218
▁ᏫᏍᎩ	-10.2183
▁ᏕᏂ	-10.2186
ᏁᏃ	-10.2191
▁ᎠᎩᏰᎸ	-10.2197
▁ᎠᏆᏓᏅᏙᎩ	-10.2203
ᎡᎸᎯ	-10.2203
▁ᎦᏙᎬᎩ	-10.2206
▁ᏂᎬᏁᎲ	-10.2216
ᏄᎪᏫᏒᎩ	-10.2217
▁ᎾᏛᏁᎲ	-10.2219
ᏙᏓᏆᏓ	-10.2226
ᏕᎶᎰᎯᏍᏗ	-10.2236
▁ᎤᏂᏍᎦᏅᏨᎢ	-10.2237
▁ᎤᎷᏤᎢ	-10.2254
ᏔᏅᎾ	-10.2255
ᏰᎯ	-10.2257
▁ᎤᏚ	-10.2261
▁ᏚᎦ	-10.2262
ᏙᏢᏅ	-10.2267
▁ᎤᏯᏅ	-10.2273
▁ᏅᏗᎦᎵᏍᏙᏗᏍᎬᎢ	-10.2273
ᏂᏓᏍᏗᏱ	-10.2282
▁ᏕᎬ	-10.2285
▁ᎢᏒ	-10.2297
▁ᎠᏒᎩ	-10.232
ᏗᏍᎬᎢ	-10.2324
▁ᎬᏯ	-10.2324
ᎦᏙ	-10.2331
ᏔᏲᏏ	-10.2332
ᏅᏗ	-10.234
ᏦᏢᏗ	-10.2342
▁ᏦᎯᏳᏒ	-10.2343
▁ᏗᏨ	-10.2347
ᏤᎸ	-10.2351
ᏁᏤᎴ	-10.2352
id	-10.2353
▁ᎠᎭ	-10.2364
ᏂᎩᏛ	-10.2368
▁ᎠᎩᎪᎲ	-10.2368
ᎴᏅ	-10.2369
▁ᎤᏂᎲ	-10.2391
ᏉᏗ	-10.2392
ᏙᎴᎰᏏ	-10.2424
▁ᎭᏩ	-10.2445
ᏌᏁ	-10.2445
ᎵᏏᏱ	-10.2446
▁ᏥᏙ	-10.245
▁ᏫᎩ	-10.2453
▁ᎦᏲᎵ	-10.2457
ᏍᏔᏅᎯ	-10.2482
▁ᎢᏥᏰᎸ	-10.2491
l	-10.2499
ᎩᎳ	-10.2551
▁ᎠᏂᏫᎾ	-10.2556
▁ᎠᏰ	-10.2578
ᏲᎯᏍᏗ	-10.2603
▁ᎢᏏᎵᏱ	-10.2613
ᏅᏓᏓ	-10.2625
ᏁᏤᏗ	-10.2655
▁ᎠᎾᎵ	-10.2662
ᎪᎵᏰᏗ	-10.2665
▁ᎠᎢᏒ	-10.2703
ᏄᎦ	-10.2707
ᎶᏨ	-10.2711
▁ᎯᏍᎩᏁ	-10.2714
▁Ꮗ	-10.2718
▁ᎠᎦᏔ	-10.2718
▁ᏥᏄ	-10.2727
ᎩᏓ	-10.2728
▁ᎠᏋ	-10.2736
▁ᏂᎨ	-10.2757
ᏥᏲᏏ	-10.2762
ᎬᎿ	-10.2787
ᏛᏂ	-10.2795
▁ᎯᎦᏘᏏ	-10.2805
▁ᎭᎴ	-10.2815
ᏁᎮ	-10.2817
ᏗᏢ	-10.2832
ᎪᏩᏘᎭ	-10.2846
ᏕᏅ	-10.2851
ᏬᏂᎯᏍᏗ	-10.2853
▁ᏚᎧᎿᏅ	-10.287
▁ᎤᏂᏣᏛ	-10.2877
▁ᎣᎩᎾ	-10.2917
▁ᎠᏉ	-10.2918
▁ᎠᏔᎴᎦᏒ	-10.2918
▁ᎤᏃᏁᎴ	-10.2921
ᎯᏫ	-10.2925
▁ᏕᎦᏚᏩᏗᏒ	-10.2931
▁ᏧᏩᎫᏔᏅᏒ	-10.2935
▁ᏓᏕᏲᎲᏍᎬ	-10.2938
▁ᏱᎨᏐ	-10.2941
▁ᎤᏂᎷᏤᏗ	-10.2943
▁ᏚᏬᎡ	-10.2948
▁ᎠᎦᏍᎦᏂ	-10.2949
▁ᎠᏚᎢᏍᏛ	-10.295
▁ᎤᏰᎸᏅ	-10.295
▁ᎦᎸᏉ	-10.2955
▁ᏓᏂᏁᎸ	-10.2956
▁ᎠᏓᏙᎵᏍᏗ	-10.2962
ᎾᏄᎪᏫᏏ	-10.2963
▁ᎤᎦᏔᎲᏒ	-10.2964
▁ᎾᎩ	-10.2966
▁ᎣᎵᏩ	-10.297
▁ᎤᏬᏚ	-10.2977
▁ᎤᎷᏤᎴ	-10.2978
▁ᏕᎪᏪᎸ	-10.2981
▁ᏤᎮ	-10.2981
▁ᎤᏛᏐᏅ	-10.2981
ᏲᎯᏍᏔᏅ	-10.2997
▁ᎦᎴᏂ	-10.3
ᏯᏅᎲ	-10.3008
▁ᎦᏁᏥ	-10.3008
ᏓᎴᏅᏛ	-10.3011
▁ᎤᏅᏎ	-10.3012
ᎰᎲᏍᏗ	-10.3015
▁ᎡᏂᎾᏯ	-10.3015
▁ᎢᏍᎦᎳᏗ	-10.3015
▁ᎥᏘᎣᎩ	-10.3015
▁ᎦᏌᏆᎸ	-10.3015
▁ᏑᏓᎳᏍᎪᎯ	-10.3015
▁ᏗᎫᏓᎸᏗᏱ	-10.3015
▁ᏤᎦᎳᏯ	-10.3015
▁ᎡᎹᏂᏓ	-10.3015
▁ᏧᏯᏖᏃᎯ	-10.3015
▁ᏧᏙᏓᏋᏓ	-10.3015
▁ᏯᏃᎩᏳ	-10.3015
▁ᎤᏯᏖᏃᎯ	-10.3015
▁ᏫᏚᎧᎿᏁ	-10.3015
▁ᏗᏍᏆᎨᏂ	-10.3015
▁ᎢᏤᎳᏗᏙᎮᏍᏗ	-10.3015
▁ᎬᏉᏎᎰ	-10.3015
▁ᏕᎨᏥᏰᎸᏔᏅᎩ	-10.3015
▁ᎤᎾᏢᏉᏗ	-10.3015
▁ᎻᎾᏌ	-10.3015
▁ᏂᏣᏪᏒ	-10.3015
▁ᎢᏳᏩᏂᏌᏅᎯ	-10.3015
▁ᏑᎾᏓᎴᎩ	-10.3015
▁ᎦᎶᎯᏍᏗᏳᎶᏗ	-10.3015
▁ᎡᏥᎸᏉᏓ	-10.3016
▁ᎤᏂᏃᎮᎴ	-10.3016
▁ᏅᏓᏳᎵᏍᏙᏗᏱ	-10.3016
▁ᎨᏣᏍᏓᏩᏗᏙᎯ	-10.3016
▁ᏗᎧᎾᏩᏛᏍᏗ	-10.3016
▁ᎠᎦᎵᏍᎬ	-10.3016
▁ᏄᎵᏍᏔᎾ	-10.3016
▁ᏍᎩᏄᏍᏛ	-10.3016
▁ᎢᏲᏍᏛ	-10.3016
▁ᎦᏌᎾᎵ	-10.3017
▁ᏅᏓᎬᏁᎵ	-10.3017
▁ᏱᏅᎦᎵᏍᏓ	-10.3017
▁ᎪᏌᏂ	-10.3017
▁ᎢᏳᏩᏂᎸ	-10.3017
▁ᏭᏴᎸ	-10.3017
▁ᎤᎵᏍᏔᏴᏗ	-10.3018
▁ᎠᏂᏈᎷ	-10.3018
▁ᎤᏰᎸᎮ	-10.3018
▁ᏑᏕᏘᏴᏛ	-10.3018
▁ᏄᎾᎵᏍᏔᏁ	-10.3019
▁ᏗᏓᎴᎲᏍᎦ	-10.3019
▁ᎯᎨᏴ	-10.3019
▁ᎢᏳᏛᎿᏕᎩ	-10.302
ᏍᎦᎢᎲᎾ	-10.302
▁ᎢᎧᏁᏨᎯ	-10.302
▁ᏗᏓᏂᏐᏗᏱ	-10.3021
▁ᏓᏓᎶᏂ	-10.3021
▁ᏫᏨᎷᏤᏗᏱ	-10.3021
ᎸᏉᏕᏍᏗ	-10.3021
▁ᎤᏂᎷᎯᏍᏗᏱ	-10.3022
▁ᎤᎵᏠᏯᏍᏕᏍᏗ	-10.3022
▁ᏛᏍᏆᎸᎯ	-10.3023
▁ᎠᏂᏦᎢ	-10.3023
▁ᎢᏣᎵᏍᏕᎸᏙᏗ	-10.3024
▁ᏗᎦᎴᏂ	-10.3025
▁ᎢᏣᏛᎦᏅᎯ	-10.3025
▁ᎠᏙᎴᎰᎯᏍᏙᏗ	-10.3025
▁ᎤᏛᎪᏗᏱ	-10.3026
▁ᎢᏳᏩᏁᎸᎯ	-10.3027
▁ᎤᏂᎩᏍᏗ	-10.3027
▁ᎠᎩᏅᏏᏛ	-10.3027
▁ᏭᏂᎶᎯᏍᏗᏱ	-10.3027
▁ᎤᏓᏙᎵᏍᏓᏁᎴᎢ	-10.3027
▁ᎤᏪᎵᏍᏗ	-10.3027
▁ᎢᏣᏓᏡᎬ	-10.3027
▁ᎾᏂᎦᏔᎲᎾ	-10.3028
▁ᎤᏁᎷᏅᎩ	-10.3029
▁ᎧᏃᎮᏓ	-10.3029
▁ᎤᏁᏍᏓᎳ	-10.3029
▁ᎤᏓᏙᎵᏣᏘᏳ	-10.3029
▁ᏦᏓᎸ	-10.303
▁ᎤᏪᏙᎵᏍᏗ	-10.3031
▁ᎬᏩᏔᏲᏎᎴ	-10.3032
▁ᎢᎨᎬᏁᏗ	-10.3032
▁ᏙᏓᏳ	-10.3034
▁ᎾᎩᏪᏒᎩ	-10.3035
▁ᏂᎦᎵᏍᏗᏍᎨᏍᏗ	-10.3035
▁ᏩᎩ	-10.3036
▁ᎤᏂᏇᏓᎸᎢ	-10.3036
▁ᎪᏢᏅ	-10.3037
▁ᎠᎦᏍᎬ	-10.3039
▁ᏥᏍᏆᏯ	-10.3039
▁ᎤᏂᏁᎫ	-10.3042
▁ᏗᎦᎶᏗ	-10.3043
ᎦᏴᎵᎨ	-10.3047
▁ᏙᎩᎾ	-10.3049
▁ᎤᎾᏕᏅᎯ	-10.3052
▁ᏱᏚᏂ	-10.3052
▁ᎤᏂᏃᎮᎸᎯ	-10.3054
▁ᏂᎬᏁᎭ	-10.3055
▁ᏴᎨᏥ	-10.3056
▁ᎦᏁᎳ	-10.3056
▁ᎤᎵᏬᏨᎯ	-10.3057
▁ᏚᏂᏅᏎ	-10.3059
▁ᎠᏂᏁᎵ	-10.3059
▁ᏙᏧᎾᏓᏅᏛᎢ	-10.306
▁ᏚᏁᏤᎸᎩ	-10.306
▁ᎢᏳᏛᏁᏗᏱ	-10.3061
▁ᎤᏪᏅᏍᏗᏱ	-10.3062
▁ᎤᏓᎴᏅᏛ	-10.3065
▁ᎤᏓᏑᏯ	-10.3066
▁ᎤᏰᎸᎯ	-10.3067
▁ᎤᎾᎵᏍᏓᏴᏗᏱ	-10.3068
▁ᏤᎲᎩ	-10.3069
▁ᏄᎾᏛᏁᎴᎢ	-10.3069
▁ᎠᏆᏓᏅᏛ	-10.3069
ᏁᏤᎸᎯ	-10.3073
▁ᏫᏚᏯᏅᎲᎩ	-10.3074
▁ᎣᎬᏒ	-10.3076
▁ᎾᎦᏔᎲᎾ	-10.3079
▁ᎤᏪᏅᏒᎩ	-10.3082
▁ᏚᏌᎳᏓᏁ	-10.3083
▁ᎤᏪᏙᎸᎩ	-10.3085
▁ᎾᏂᏪᏍᎬᎢ	-10.3085
▁ᏩᎾ	-10.3085
▁ᎠᏥᎸᎨᎳᏍᏗᏱ	-10.3088
▁ᏓᏕᏲᎲᏍᎬᎢ	-10.3092
▁ᎨᎦᎫᏴᎡ	-10.3093
▁ᏧᏒᎯ	-10.3093
▁ᏕᎳ	-10.3094
▁ᎧᏅᏑᎸ	-10.3099
ᎦᏔᎯ	-10.3101
ᏏᏅᏓ	-10.3102
▁ᎢᎾᎩ	-10.3102
▁ᎤᏄᎪᏨᎩ	-10.3104
▁ᎠᏎᏍᎩᏂᏃᏅ	-10.3107
▁ᎤᏰᎸᏁᎢ	-10.3108
▁ᎠᏨᏯᎢ	-10.3109
▁ᎤᏂᏰ	-10.3115
ᏄᎪᏩ	-10.3142
▁ᎤᏂᏰᎸᏁ	-10.3149
▁ᎠᏫᏍᎩ	-10.3155
▁ᎧᎪ	-10.3158
▁ᎠᏤᎵᏍᏛᎢ	-10.3166
ᏓᏂ	-10.318
ᏍᏔᏁ	-10.3192
▁ᎤᏥᎸᏒ	-10.3202
▁ᏧᏙ	-10.3207
ᏁᎸᎾ	-10.3222
ᏍᏛᎾ	-10.3228
▁ᏄᏩᏁᎴᎢ	-10.3234
ᏅᏍᏗᏱ	-10.3234
▁ᎦᏬᏂᏍᎬᎢ	-10.3242
▁ᎤᎶᎩᎸᎢ	-10.325
ᎦᏓᏁ	-10.3251
ᏓᏱᎵ	-10.3264
▁ᎣᎬ	-10.327
▁ᎾᏋᏁᎸ	-10.328
▁ᏗᎦᏅᏌᏗ	-10.3286
ᏲᎯ	-10.3288
▁ᎦᏰᏥ	-10.3288
▁ᏗᎪᏪᎶᏗ	-10.3303
▁ᏧᏬ	-10.3303
▁ᎤᎴᏁ	-10.3304
ᎨᏛ	-10.3316
ᏅᏃ	-10.3316
ᎢᏴ	-10.3335
ᏆᎵ	-10.3337
▁ᏱᏏ	-10.3345
▁ᏕᎭ	-10.3349
ᏅᏏᏓᏍᏗ	-10.3357
▁ᎤᎧᏛᎢ	-10.3374
▁ᏕᎪ	-10.3377
ᏓᎳ	-10.3394
ᎰᎵ	-10.34
ᏍᏓᏴ	-10.34
ᎦᏔᎰ	-10.3413
ᏁᏆ	-10.3421
▁ᎤᎲᎢ	-10.3429
▁ᏂᏕᎬᏁ	-10.343
ᏏᏆ	-10.3458
ᏫᏍᏗ	-10.349
ᏣᏛᏁᎯ	-10.3491
▁ᎩᎶᎢ	-10.3493
▁ᎢᎯ	-10.35
ᏂᏌᏁ	-10.3514
ᎾᎥ	-10.3524
ᏛᏙᏗ	-10.3527
▁ᏄᎵᏍᏔᏁᎮ	-10.3536
ᏤᎵᎦ	-10.3546
▁ᏰᎵᏍᎨ	-10.3551
▁ᏱᏙᎦ	-10.3552
ᎡᎸᎩ	-10.3559
ᎠᏈ	-10.356
▁ᎦᏃ	-10.3567
ᏥᎪᏩᏛ	-10.3569
ᏍᏆᏙᏅ	-10.357
▁ᎢᏣᏓᏅᏘ	-10.3581
▁ᎣᎩᏂ	-10.3599
▁ᎤᎲ	-10.3617
▁ᎢᎬᏁ	-10.3622
▁ᎠᏲ	-10.363
ᎵᏯ	-10.3632
ᏁᎮᎢ	-10.3642
ᏗᏏ	-10.3643
ᏙᎮᏍᏗ	-10.3647
ᎦᏐᎯ	-10.3652
ᎸᏉᏙᏗᏱ	-10.3667
▁ᎩᎳᎯ	-10.3676
ᎾᏄᎪᏨᎯ	-10.3699
ᎷᏣ	-10.3701
▁ᎤᎾᏛᎦᏁ	-10.3704
▁ᎡᏥᏁᏗ	-10.372
▁ᎢᎳ	-10.3725
ᎵᎪ	-10.3726
ᎪᎵᏰᎡ	-10.3734
ᏍᏓᏩᏗᏙᎯ	-10.3737
▁ᎦᏅ	-10.3751
▁ᎤᎶᏒ	-10.3756
▁Ꮾ	-10.3758
▁ᎤᏲᎱᏎ	-10.3766
▁Ꮉ	-10.3771
▁ᎤᎶ	-10.3776
ᎵᏍᏔᏁ	-10.3787
ᏙᎸ	-10.3788
ᏍᎦᎩ	-10.3807
ᏰᏂ	-10.3814
▁ᏥᏂ	-10.3815
▁ᏲᎩ	-10.3818
ᏅᏓᏗᏍᏙᏗ	-10.3831
▁ᏗᎾᏓ	-10.3839
▁ᏥᎾ	-10.3852
ᏍᏔᏱ	-10.3862
▁ᎠᏂᏐᎢᏃ	-10.389
▁ᏥᏂᎦᏪ	-10.3902
▁ᏄᏪ	-10.3908
▁ᎠᏓᏅᏖᎵᏙ	-10.3925
▁ᏫᏓᏂ	-10.3969
ᎩᎡᎸ	-10.3973
▁ᎠᏍᎪᎯᏃ	-10.3977
ᎡᎴᎢ	-10.399
▁ᏄᏂᏪᏒ	-10.3991
ᎠᏎ	-10.3993
▁ᎪᏢᏒ	-10.3995
▁ᏱᏗᎦ	-10.3999
ᏠᏱ	-10.4002
▁ᎾᎬᏁᎸ	-10.4004
▁ᏥᏁᎸ	-10.4006
▁ᎾᏂᏪᏍᎬ	-10.4007
▁ᎾᎿᏉ	-10.4008
ᏍᏕ	-10.4011
▁ᏂᎦᎵᏍᏗᏍᎨ	-10.4023
ᏰᎭ	-10.4025
ᏗᏂᏅᏌᏗ	-10.4029
▁ᎣᏓᏅᏛ	-10.4031
▁ᏣᏓ	-10.4031
ᎭᏕᏬ	-10.4031
ᎨᏂ	-10.4033
▁ᎤᏲᎯᏍᏔᏁ	-10.4036
ᏗᏒ	-10.4037
ᎨᎵᎠ	-10.404
ᎪᎱᏍᏗ	-10.4041
ᎠᏕᎸ	-10.4043
▁ᎯᏰᎸ	-10.4046
ᏗᎦᏘᏯ	-10.4051
ᎠᎩᎾ	-10.4051
ᏎᎴ	-10.4054
▁ᎡᏙᎮ	-10.4055
▁ᏧᎾᎴᎯᏐ	-10.4056
▁ᏧᏓᏅᏛ	-10.4056
▁ᏕᎤᎴᏔᏅ	-10.4056
ᎧᎵᏨᎯ	-10.4057
▁ᏚᏂᎸᏫᏍᏓᏁᎸ	-10.4059
▁ᎤᏁᎦᎸ	-10.4077
▁ᎠᏓᏁᏣᏍᏚᎶ	-10.4078
ᏠᎠᏏ	-10.4078
ᏍᏆᏂᎪᏙᏗᏱ	-10.4082
ᎶᏐᏅ	-10.4096
▁ᎤᎾᎵᎮᎵᏤ	-10.4097
▁ᎢᏙᎻ	-10.4099
▁ᏏᏓᏁᎸ	-10.4101
▁ᏅᏲ	-10.4103
▁ᏧᏂᎳᏫᎢᏍᏗ	-10.4103
▁ᎠᏥᏍᏕᎸᏗ	-10.4104
▁ᎠᏲᎱᏒ	-10.4106
ᎵᏍᏗᏱ	-10.4109
▁ᏣᎾᏫ	-10.4109
ᎶᎯᏍᏗᏱ	-10.411
▁ᎤᎾᏕᏅ	-10.4112
▁ᏱᏓᏂ	-10.4116
ᏲᎢᏴ	-10.4123
▁ᏗᎪᏪᎵ	-10.4123
ᎭᏄᎸᎯ	-10.4124
rs	-10.4125
▁ᏥᏕᎦ	-10.4126
▁Philadelphia	-10.4126
▁ᎠᏓᏪᎳᎩᏍᎩ	-10.4126
▁ᏐᎵᎹᏅ	-10.4126
▁ᏕᏦᎯᏳᏎᏍᏗ	-10.4126
▁ᏚᏍᏆᎸᏔᏁ	-10.4126
▁ᏱᏄᎵᏍᏔᎾ	-10.4126
▁ᎧᏂᎵᏯ	-10.4126
▁ᏆᎳᏆ	-10.4126
▁ᏗᎦᏒᏍᏔᏅ	-10.4126
▁ᎢᏦᎯᏳᎯ	-10.4126
▁ᏇᏚᎡᎵ	-10.4126
▁ᎤᏣᎴᏓ	-10.4126
▁ᏗᎾᏕᏲᎲᏍᎩ	-10.4126
▁ᏗᏇᏅᏒ	-10.4126
▁ᏧᎴᎯᏌᏅᎯ	-10.4126
▁ᏧᏴᏨ	-10.4126
▁ᎤᏬᏓᎸ	-10.4126
▁ᏚᎧᎿᏁ	-10.4126
▁ᏓᏳᏂᎶᏒ	-10.4126
▁ᎠᏚᎸᏗ	-10.4126
▁ᎡᏅᏍᏗ	-10.4126
▁ᎤᏓᏅᎵᏰᎥ	-10.4126
▁ᎢᏗᏅᏁ	-10.4127
▁ᏱᏣᏓᏅᏖᏗᏍᎨᏍᏗ	-10.4127
▁ᎢᏥᏆᎵᏏ	-10.4127
▁ᎬᏩᏠᏯᏍᏗ	-10.4127
▁ᎢᏧᎾᏓᎳ	-10.4127
▁ᏗᏥᎸᏫᏍᏓᏁᏗᏱ	-10.4127
▁ᏗᎦᎸᏫᏍᏓᏁᎸᎯ	-10.4127
▁ᎤᏓᏑᏱ	-10.4127
▁ᏚᏛᏛᏁ	-10.4127
▁ᎨᏅᎢᏍᏗ	-10.4127
▁ᎡᏣᏂᎵ	-10.4127
▁ᏕᎪᏪᎵᏍᎬ	-10.4127
▁ᏗᏛᏓᏅᎯ	-10.4127
▁ᏗᎨᏥᎾᏝᎢ	-10.4127
▁ᎤᏒᎯᏰᏱ	-10.4127
▁ᎦᏓᎷᏯᏛ	-10.4128
▁ᎠᎾᏛᎩᏍᎩ	-10.4128
▁ᏗᎬᎪᏩᏛᏗ	-10.4128
▁ᎠᎩᎷᏥᎸ	-10.4128
▁ᏱᎪᎵᎦ	-10.4129
▁ᎠᏂᎴᏴᏍᎩ	-10.4129
▁ᎠᏍᏆᏚᎸ	-10.4129
▁ᎠᎵᎮᎵᎬ	-10.4129
▁ᎤᏂᎪᎮ	-10.4129
▁ᏧᏓᎴᏅᎲ	-10.4129
▁ᎤᎾᏓᏓᏍᎬ	-10.4129
▁ᏂᏣᏛᎦ	-10.4129
▁ᎬᏩᏲᎱᎯᏍᏗ	-10.413
▁ᎦᏣᏃᏍ	-10.413
▁ᎾᏯᏛᎡᏍᏗ	-10.413
▁ᎠᏄᎦᎸ	-10.413
▁ᎧᏴᏐᎵ	-10.413
▁ᏚᏃᏢᏅᎩ	-10.413
▁ᏗᎪᏑᎴᏗᏱ	-10.413
▁ᏧᏴᏢ	-10.413
▁ᏧᎴᏔᏅᎯ	-10.413
▁ᎤᏓᎴᏨ	-10.413
▁ᎤᏄᎪᎢᏍᏗ	-10.4131
▁ᏥᎣᎵ	-10.4131
▁ᎬᏆᏛᏁᏗᏱ	-10.4131
▁ᎠᏓᏍᏓᏩᏗᏙᎯ	-10.4131
▁ᏂᏥᎦᏔᎲᎾ	-10.4132
▁ᏀᎢᏳ	-10.4132
▁ᎥᏥᎪᎥᎩ	-10.4132
ᎳᏏᏕᎾ	-10.4132
▁ᎤᎾᎵᏗᎩᏛ	-10.4133
ᏍᏕᎸᎯ	-10.4133
▁ᏚᎷᏫᏍᏔᏁᎲ	-10.4133
▁ᎤᏬᏪᎳᏅᎯ	-10.4133
ᎥᎩ	-10.4133
▁ᎢᏧᏕᏘᏴᏛ	-10.4134
▁ᎤᏗᏔᎲ	-10.4134
▁ᎠᎹᎴᎩ	-10.4134
▁ᏔᎸᏗ	-10.4134
▁ᎢᎩᏅᏟ	-10.4134
ᏛᏅᎢᏍᏙᏗᏱ	-10.4134
▁ᏍᎩᎾᏝᎢ	-10.4135
▁ᎤᎬᏫᏳᏎᏍᏗ	-10.4136
▁ᎦᏅᏙᏗ	-10.4136
▁ᏧᎾᏄᏩᎢ	-10.4136
▁ᏄᏩᏅ	-10.4137
▁ᎾᏁᎲᎾ	-10.4137
▁ᎤᏕᏁᎢ	-10.4138
▁ᎤᏂᏰᎸᏒᎩ	-10.4138
▁ᎠᎩᏰᎸᎲ	-10.414
▁ᎤᎧᎭᏛ	-10.414
▁ᎢᏳᏓᎵᎭ	-10.414
▁ᏭᏂᏴᎴᎢ	-10.4141
▁ᏩᎩᎷᏨ	-10.4143
▁ᎤᎴᏫᏍᏔᏁ	-10.4143
ᏥᎯᏍᏗ	-10.4144
▁ᎠᎵᏥᏙᎲᏍᎨ	-10.4145
▁ᎤᎾᏗᏅᏗ	-10.4146
▁ᎡᏙᎭ	-10.4146
▁ᎤᏌᎳᏓᏅ	-10.4149
▁ᎨᏥᏁᎸᎯ	-10.415
ᏉᏍᎪ	-10.415
▁ᎥᎩᏙᏉ	-10.4151
▁ᎤᏬᎯᏳ	-10.4151
▁ᎠᏟᏍᏛᎢ	-10.4152
▁ᏅᏓᎬ	-10.4153
▁ᏭᏂᎶᏒᎩ	-10.4154
▁ᎤᏪᎧᏅᎩ	-10.4154
▁ᏗᏂᎦᏘᏯ	-10.4155
▁ᎤᏅᏙᏗᏱ	-10.4155
▁ᎤᏕᏗᏱ	-10.4156
▁ᎾᏍᎦᎢᎲᎾ	-10.4158
▁ᏄᏂᏪᏎᎸᎩ	-10.4159
▁ᏧᏬᎸ	-10.4159
▁ᎾᏂᎡᎢ	-10.416
▁ᎤᎵᏏᏂ	-10.4161
▁ᎢᏗᎦᏪᏍ	-10.4161
▁ᎠᎧᎵᏬᎯ	-10.4163
▁ᎤᏨᏉᏗ	-10.4164
ᏁᎬ	-10.4169
▁ᎤᏪᏁᎢ	-10.4169
▁ᏗᏟᏍᏗ	-10.4169
▁ᏗᎦᎵᏍᏙᏗᎭ	-10.417
▁ᎤᎪᏩᏛᏗ	-10.4171
▁ᎤᏔᎾ	-10.4171
ᎾᏄᎪᎢᏍᏗ	-10.4172
ᏏᏁ	-10.4173
ᏲᎯᏎᎸᎩ	-10.4173
▁ᏐᏓᎻᏱ	-10.4174
▁ᎢᎩᏁᎸᎯ	-10.4176
▁ᏧᏁᎳ	-10.4177
ᏗᏍᎪᏂᎯ	-10.4177
▁ᏓᏳᏓᎴᏅᏓ	-10.4185
▁ᏯᎩᎭ	-10.4188
▁ᎢᎦᏁᎳᏅᎯ	-10.4195
▁ᎢᏯᎬᏁᏗ	-10.4196
▁ᎤᏯᏅᎯ	-10.4199
▁ᎦᏁᏌᎢᎯ	-10.4203
▁ᏚᏂᎸᏫᏍᏓᏁᎸᎢ	-10.4204
▁ᏗᏐᎢ	-10.4204
ᏃᎮᏍᎬᎢ	-10.4205
▁ᎡᏙᎮᎢ	-10.4205
▁ᏥᎨᏥ	-10.4206
ᏳᎵ	-10.4207
▁ᎭᎾᏂ	-10.4209
▁ᎤᏩᏛᎮᎢ	-10.421
▁ᎤᎾᏛᎦᏁᎢ	-10.4211
▁ᏓᏈ	-10.4215
▁ᏍᎩᎨᏳ	-10.4218
▁ᎤᏎᎵᏔᏅ	-10.4225
▁ᎧᎸ	-10.4225
▁ᏗᏍᎩ	-10.4229
▁ᎤᏯᎢ	-10.4235
▁ᏭᎷᏨᎩ	-10.4235
▁ᎡᎵᏍᎨᎢ	-10.4237
ᎭᏲᎲ	-10.4239
▁ᎥᎵ	-10.424
▁ᎠᏒᎭ	-10.4241
ᎳᏁᎢ	-10.4248
ᎡᏗ	-10.4249
▁ᎤᏓᏅᏖᎸᎢ	-10.4249
on	-10.4251
▁ᏕᏥᎸᏫᏍᏓᏁᎲᎢ	-10.426
▁ᎬᏙᏗᏱ	-10.4262
ᎪᎵᏯ	-10.4263
▁ᎤᏃᎮᎴ	-10.4267
▁ᎤᏓᏅᏛᎢ	-10.4268
▁ᏇᎵᏥ	-10.427
▁ᎤᏓᏅᏎᎢ	-10.4275
▁ᏚᏁᎴᎢ	-10.4285
▁ᏗᎬᏗ	-10.4286
▁ᎾᎾᏛᏁᎲᎢ	-10.4289
ᏓᏍᏗ	-10.429
▁ᎢᏦᎯᏳᏒᎢ	-10.4299
▁ᎦᏓᏅᏖᏍᎬᎢ	-10.4315
▁ᎢᏦ	-10.4315
ᏁᎰᎢ	-10.4325
▁ᎤᏲᎴ	-10.4325
▁ᎠᏍᎦᎾᎢ	-10.4328
▁ᏦᎾ	-10.433
▁ᎠᏁᎰ	-10.433
ᎦᏨ	-10.4334
▁ᏚᏁᏤᎴᎢ	-10.4339
▁ᎡᎲᎩ	-10.4346
▁ᎡᎵᎩ	-10.435
▁ᏌᎵ	-10.4354
▁ᎤᏢ	-10.4354
ᏲᎰᏎᎸ	-10.4355
▁ᎤᏅᏅ	-10.4361
ᏍᏛᏱ	-10.4364
ᎿᎢ	-10.4366
▁ᎤᏪᏅᏎᎢ	-10.439
▁ᏧᎾᏄᎪᏫᏎᏗ	-10.4395
▁ᎠᏍᏛᎢ	-10.4402
▁ᏅᏓᏳᎾᎵᏍᎪᎸᏔ	-10.4405
▁ᎤᏩᏂ	-10.4413
▁ᏗᎬᏩᏓᏂᎸᎢᏍ	-10.4416
▁ᎩᎵ	-10.4429
ᏍᎪᏃ	-10.4429
▁ᎪᏍᏔ	-10.4442
▁ᎠᏓᏅᏖᏍᎬᎢ	-10.4455
▁ᎤᎾᏄᎪᏫᏒ	-10.4455
▁ᎤᎪᎲᎩ	-10.4456
▁ᏗᏂᏩᎾᎦᎳ	-10.4464
▁ᎤᏪᎷᏁᎢ	-10.4465
▁ᎢᏯᏂᎢ	-10.4499
▁ᎤᎾᏙᏓᏆᏍᎬᎢ	-10.4502
▁ᏛᏂ	-10.4512
▁ᎢᏣᏓ	-10.4513
▁ᎦᏨ	-10.4515
▁ᎤᏂᎬ	-10.4528
▁ᏗᏂᏃ	-10.4543
ᏙᎢ	-10.4544
ᎴᏅᎯ	-10.4545
▁ᏅᏗᎦᎵᏍᏙᏗᏍᎨᎢ	-10.4553
ᏎᎭ	-10.4555
▁ᎠᏆᏓᏅᏖᏗ	-10.4562
▁ᎤᎬ	-10.4566
▁ᎦᏚᏱ	-10.4571
▁ᏫᏚᎾ	-10.4572
ᏓᏁᏟᏴᏛ	-10.4589
▁ᎤᎩᎸ	-10.4593
ᎲᏍᎦ	-10.4597
ᎱᏍᏗ	-10.46
▁ᏚᏙ	-10.4606
ᏂᏫ	-10.4613
▁ᎤᏂᏩᏛᏗ	-10.4642
▁ᏙᏘ	-10.4646
ᎳᏏ	-10.4648
ᎦᏯ	-10.4665
▁Ꮮ	-10.4668
▁ᎠᏫᎾ	-10.4691
▁ᏦᎦ	-10.4692
ᏁᏤᎵ	-10.4693
ᏍᏆᏂᎪᏕᏍᏗ	-10.4694
▁ᎬᏗᎭ	-10.4694
ᏥᏩᏛᎲ	-10.4714
ᏢᏅ	-10.4719
▁ᏗᏨᏂᏗ	-10.4726
▁ᏣᏁ	-10.4727
▁ᎤᎾᏄᎪᏫᏎ	-10.4731
ᏏᏳ	-10.474
▁ᏄᏅ	-10.4747
▁ᎦᏅᎨ	-10.4755
▁ᏂᎦᎵᏍᏙᏗᏍᎨ	-10.4758
▁ᏧᏂᎵ	-10.4762
▁ᎤᎵᎮᎵᏤ	-10.4767
ᏟᎶᏍᏙᏗ	-10.4771
▁ᏚᏁᎸ	-10.4771
▁ᎠᎦᏕ	-10.4773
ᎾᏄᎪᏫᏒᎯ	-10.4781
ᎵᏍᎬ	-10.479
▁ᏗᎨᏣ	-10.4799
ᎵᏍᏕᎸᏙᏗ	-10.4801
▁ᎧᏁᏉ	-10.4807
ᏗᏍᎬᎾ	-10.4811
▁ᎢᏥᎩᏍᏗ	-10.4831
▁ᎠᎦᏘᏰ	-10.4843
▁ᎠᏋᎭ	-10.4844
▁ᎤᏁᎴ	-10.4854
ᎤᏅᏓᏕ	-10.4883
ᎦᏙᎥᎯᏍᏗᏱ	-10.4887
▁ᏛᎩ	-10.4891
ᎩᏍᎪ	-10.4896
▁ᎥᏍᎩ	-10.4897
▁ᎡᏣᎫᏴ	-10.49
ᏍᏕᎵᎭ	-10.4903
▁ᎾᎦᏛ	-10.4908
▁Ꮏ	-10.4923
▁ᎤᏥᏃ	-10.4926
ᏎᎸᎩ	-10.4949
▁ᎢᏥᎲ	-10.4975
ᎨᏍᏗᏗ	-10.4985
▁ᎤᏂᎸᏉᏗ	-10.4987
▁ᎠᏲᎱᏍ	-10.5
ᎢᏍᏔᏂ	-10.5003
▁ᏧᎴ	-10.5011
▁ᏂᎯᏍᎪ	-10.5018
▁ᎡᎳᏪᏱ	-10.5029
▁ᏂᎬᏩ	-10.5038
ᏚᎬ	-10.505
ᏦᏅ	-10.5107
▁ᏱᏫ	-10.5109
▁ᎠᏗᏍᎬ	-10.512
▁ᏣᏆ	-10.5122
▁ᏣᎩ	-10.5126
ᏁᏍᏗ	-10.513
ᏂᎬᎦ	-10.5139
ᎬᏫᏳᎯ	-10.5142
ᏁᏟᏴᏍᏗ	-10.5142
▁ᎤᎧᏔ	-10.5142
ᏲᎪ	-10.516
ᏇᏓᎵ	-10.5161
ᎷᏨ	-10.517
▁ᎤᏂᏗ	-10.5176
▁ᎦᏗ	-10.5178
▁ᏁᎵᏍᎬ	-10.518
ᏎᎸᎯ	-10.5208
h	-10.5209
▁ᎣᏍᏗ	-10.5212
ᎥᎦ	-10.523
▁ᎤᏬᏂᏒ	-10.5237
ᎴᏅᏛ	-10.5239
ᏰᏌᏛ	-10.524
ᎪᏩᏛ	-10.5245
▁ᏂᏚᏪᏎᎸ	-10.5245
▁ᎠᏕ	-10.5247
▁ᎠᏲᏟ	-10.5274
▁ᏓᎵᏍᏗᎳᏁᎬ	-10.528
▁ᎾᏍ	-10.528
ᎦᏔ	-10.5288
▁ᏗᎦᏅᏬ	-10.5289
▁ᎤᏬᎴ	-10.5289
▁ᎤᏁᎵᏎ	-10.529
r	-10.529
ᏥᎨᏳᎢ	-10.529
▁ᎧᎸᎬ	-10.5291
▁ᎢᏕᎲ	-10.5293
ᏘᏰ	-10.5293
▁ᏓᏂᎳᏫᎥ	-10.5296
▁ᏗᏥᎦᏴᎵᎨ	-10.5296
▁ᏓᏟᎶᏍᏛ	-10.5297
▁ᎤᏗᏛᎮ	-10.5297
▁ᎤᏚᎢᏍᏔᏅ	-10.5299
▁ᎢᎩᏍᎦᏅᏨ	-10.5299
▁ᎤᏬᏎᎴ	-10.5299
▁ᎤᏍᏓᎦᎸ	-10.53
ᎠᎹ	-10.5302
▁ᎠᏂᏙᎾᎡ	-10.5304
▁ᏚᎴᎯᏌᏅ	-10.5306
▁ᏱᎾ	-10.5309
▁ᎤᏪᎧᏁᎴ	-10.5309
ᏔᎾ	-10.5313
▁ᎠᏂᎦᏴᎵᎨ	-10.5315
▁ᏓᏂᎧᏅ	-10.5315
▁ᏧᎦᏴᎵᎨ	-10.5318
▁ᎤᏂᎦᏙᎥᏒ	-10.532
ᎵᏬᏨ	-10.5321
ᏂᎦᏓ	-10.5322
ᎤᏍᏆᏂᎩᏗ	-10.5323
ᎬᏫᏳᏌᏕᎩ	-10.5323
.)	-10.5327
▁ᏚᏁᏤᎸ	-10.5332
ᎧᎵᏬᎯ	-10.5334
▁ᎤᏂᏴ	-10.5337
▁ᎤᏂᎩᏒ	-10.5339
ᏟᏂᎩᏓ	-10.5342
▁ᎠᏁᎮ	-10.5343
▁ᎢᏣᏚᎵ	-10.5343
▁ᎤᎾᏅᏅ	-10.5352
▁ᎤᏂᏍᏆᏂᎪᏙᏗ	-10.5353
▁ᎪᎹᎵ	-10.5353
▁ᏚᎷᏫᏍᏔᏁ	-10.5354
▁ᎢᏥᏍᏆᏂᎪᏙᏗ	-10.5357
▁ᏣᎨ	-10.5359
▁ᎢᏳᏅᏁᏗ	-10.5362
▁ᎤᎾᏅᏗ	-10.5362
ᏔᏲᏎᎸᎩ	-10.5363
ᎴᎯᏌᏅ	-10.5363
▁ᎨᏥᏁᏗ	-10.5364
▁ᎤᏩᏛᎮ	-10.5365
ᏴᏐᎵ	-10.5373
ᎾᏓᎴᎩ	-10.5375
▁ᎡᏉᏄᎶᏗ	-10.5376
▁ᎤᎭᎸᏂᎯ	-10.5376
▁ᎤᏂᏚᏯᏍᏗ	-10.5376
▁ᎤᏓᏏᏂᏕᎾ	-10.5376
▁ᎤᏪᏲᏓᏛ	-10.5376
▁ᏅᏓᎬᏴᏁᎵ	-10.5376
▁ᏈᏯᏏᏆ	-10.5376
▁ᏕᎨᎦᏨᏍᏗᏍᎬ	-10.5376
▁ᏗᎾᏙᏂᏍᎩ	-10.5376
▁ᏦᎩᎸᏫᏍᏓᏁᎯ	-10.5376
ᎦᏌᏯᏍᏕᏍᏗ	-10.5376
▁ᎢᏰᏆ	-10.5376
▁ᎦᎵᏦᏙᏙᏗ	-10.5376
▁ᏆᎻᏆᏂ	-10.5376
▁ᏚᏩᏂᎦᏢ	-10.5376
▁ᎠᏣᏪᏐᎸᏍᏙᏗᏱ	-10.5376
▁ᏧᏣᏲᏍ	-10.5376
▁ᎯᎦᏙᎵ	-10.5376
▁ᎯᎧᏅᎭ	-10.5376
▁ᎠᎵᎮᎵᎨ	-10.5376
▁ᎤᏓᏛᏛᏁ	-10.5376
▁ᏂᏚᎾᏓᏪᏎᎸᎩ	-10.5376
▁ᏧᎦᏃᏮ	-10.5376
▁ᏫᏂᎦᎵᏍᏙᏓ	-10.5376
▁ᏗᏉᏰᏂ	-10.5376
▁ᏗᎾᏓᏂᏱᏍᎩ	-10.5376
▁ᏗᎦᏃᏣᏟ	-10.5376
▁ᎾᏂᎳᏍᏓᎸ	-10.5376
▁ᏧᏙᎢᏓ	-10.5376
▁ᏗᏆᎳᏏᏕᏂ	-10.5376
▁ᏄᏬᎯᏳᏒᎾ	-10.5376
▁ᏅᏓᎪᎯᏥ	-10.5376
▁ᏅᏃᎱᎶᏗ	-10.5376
▁ᏅᏩᏙᎯ	-10.5376
ᏍᎦᎣᏅ	-10.5376
▁ᎤᏬᏞ	-10.5376
▁ᎤᏪᏚᎲ	-10.5376
▁ᏧᏩᏂᎦᏝᏅ	-10.5376
▁ᏕᏥᏲᎵᎸᎭ	-10.5377
▁ᎦᏣᏄᎸ	-10.5377
▁ᎬᏩᏕᏁᎸᎯ	-10.5377
▁ᎪᏒᏔᏅ	-10.5377
▁ᏌᎶᎵ	-10.5377
▁ᎤᏂᎬᎥᏍᎩ	-10.5377
▁ᏱᏄᎵᏍᏔᏅ	-10.5377
▁ᎤᏂᎸᏉᏔᏁ	-10.5377
▁ᎲᏗᏍᎨᏍᏗ	-10.5377
▁ᎰᏪᎸᎦ	-10.5377
▁ᏧᏓᏘᎾᎢ	-10.5377
▁ᏗᎧᏁᎢᏍᏗ	-10.5377
▁ᎢᎬᏪᏅᏛ	-10.5378
▁ᎥᎩᏅᏟ	-10.5378
▁ᎤᎾᏓᏑᏰᏛ	-10.5378
▁ᎢᏨᏍᏗᏰᏗᎭ	-10.5378
▁ᎦᏯᎴᏍᏗ	-10.5378
▁ᎠᏓᏍᏓᏴᏗ	-10.5378
▁ᎪᏢᏗ	-10.5378
▁ᏕᎪᏢᏩᏗᏒ	-10.5378
▁ᏧᏃᏩ	-10.5378
▁ᏅᏓᏳᏓᎴᏅᏛ	-10.5378
▁ᏂᏚᏅᏏᏴ	-10.5379
▁ᏄᏂᎲᎾ	-10.5379
▁ᏗᎩᏅᏒ	-10.5379
▁ᎠᏂᏯᎢ	-10.5379
▁ᎤᏍᏗᎩᏛ	-10.5379
▁ᏗᏁᏙᎲ	-10.5379
▁ᎠᏂᎾᏁᏍᎬ	-10.5379
▁ᏄᏠᎾᏍᏛᎾ	-10.5379
▁ᎢᎠ	-10.538
▁ᎤᏢᏉᏗ	-10.538
▁ᏌᏈ	-10.538
▁ᏚᎦᏌᏛ	-10.538
▁ᎠᏆᎵᏍᏓᏴᏗ	-10.5381
▁ᎠᏓᏠᏍᏗ	-10.5381
▁ᎠᎹᏳᎶᏗ	-10.5381
▁ᎢᏥᏪᏍᏗᏱ	-10.5381
▁ᎡᏣᎸᏉᏗᏳ	-10.5381
▁ᎤᏂᏑᎸᏓ	-10.5381
▁ᎬᏩᏓᏍᏕᎸᏗ	-10.5381
▁ᎠᏂᏙᎾᎢ	-10.5382
▁ᏙᏗᏣᏓᏅᏛᎢ	-10.5382
ᏅᎪᏤ	-10.5382
▁ᏫᎨᏥᏲᎵᎭ	-10.5382
▁ᎠᏁᏢᏔᏅᎯ	-10.5382
▁ᎬᏁᏍᏗ	-10.5382
▁ᏓᎭᏃᏫ	-10.5382
▁ᏚᏦᎯᏍᏛ	-10.5383
▁ᎡᏃᏱ	-10.5383
▁ᎤᏘᏴᎯ	-10.5383
ᎿᏕᎩ	-10.5383
▁ᎠᎾᏓᏙᎵᏍᏓᏁᎯ	-10.5383
▁ᎠᏂᎯᏗ	-10.5384
▁ᎠᏯᏖᎾ	-10.5384
▁ᏧᏙᏓᏆᏛ	-10.5384
▁ᎠᏆᏓᎵᎢ	-10.5385
▁ᎠᎬᎭᎸᏛ	-10.5385
▁ᎠᏓᏪᎳᎩᏍᎬ	-10.5385
▁ᎢᎧᏁᎢᏍᏗ	-10.5385
▁ᎯᏬᏂᏍᎬ	-10.5385
▁ᏫᎦᎶᎯᏍᏗ	-10.5385
▁ᎤᎶᎯᏍᏗ	-10.5385
▁ᎦᏆᏘ	-10.5385
▁ᎤᏃᏍᏛ	-10.5385
▁ᎤᎩᎵᏲᏨ	-10.5386
▁ᎤᏂᎵᏦᏩᏛ	-10.5386
▁ᏥᏅᏗᎦᎵᏍᏙᏗᎭ	-10.5386
▁ᏓᎬᏁᎵ	-10.5386
▁ᏱᏍᎦᎢᎮᏍᏗ	-10.5386
▁ᎤᎾᏛᏁᎸᏗ	-10.5386
▁ᎤᏂᏍᏆᏂᎪᏒᎩ	-10.5387
ᎦᏃᎱᎩᏍᎬ	-10.5387
▁ᎤᏰᎸᏎ	-10.5387
▁ᏗᏓᏬᏍᏗ	-10.539
▁ᎠᎪᏎᎮᏍᏗ	-10.539
▁ᎬᏩᏃᏁᎴ	-10.539
▁ᎦᎵᎡᎵᎦ	-10.539
▁ᎹᎾ	-10.539
ᎳᎩᏒ	-10.5392
▁ᎢᎪᎯ	-10.5393
▁ᏕᎬᏗᏍᎬ	-10.5393
▁ᎤᏛᏅᎢᏍᏔᏁ	-10.5393
▁ᎢᏥᏁᏍᏗ	-10.5394
▁ᎮᏂᎵ	-10.5395
▁ᎠᏓᏰᎨᏍᏗ	-10.5396
▁ᎠᏴᏤᏂ	-10.5396
▁ᎠᎪᏔᏅᎯ	-10.5396
▁ᎤᏃᎯᏳᏗᏱ	-10.5396
▁ᎠᎦᎸᏓ	-10.5396
▁ᎠᏥᏅᏏᏛ	-10.5397
▁ᏧᎾᏄᎪᏫᏒᎯ	-10.5398
▁ᏳᏚᎵ	-10.5398
▁ᎩᎾᎵᎢ	-10.5399
▁ᎭᏂᏣ	-10.54
▁ᏕᎧᏁᏤ	-10.54
▁ᏮᏛ	-10.5402
▁ᎤᎾᎦᏙᏍᏕᎢ	-10.5404
▁ᏯᏗᎭ	-10.5404
ᎲᏍᎬᎾ	-10.5405
▁ᎧᏃᎩᏍᏗ	-10.5406
▁ᏄᎾᎵᏍᏓᏁᎸ	-10.5406
▁ᏮᏓ	-10.5406
▁ᎤᎾᏕᏗᏱ	-10.5407
▁ᎠᏲᏙᏗ	-10.5407
▁ᏗᎵᏍᎪᎸᏓᏁᎸᎯ	-10.5408
▁ᎤᏂᏩᏛᎮ	-10.541
▁ᎠᏇᏅᏍᏗ	-10.541
ᎤᏲ	-10.541
▁ᎠᏥᎳ	-10.5411
ᏰᎢᎵᏓᏍᏗ	-10.5413
▁ᏥᏍᎪᎵ	-10.5414
▁ᏕᏥᏁᎸ	-10.5416
▁ᎤᏂᏁᎬ	-10.5418
▁ᎤᏂᎩᏍᏗᏱ	-10.5419
ᏓᏅᏖᏗ	-10.542
ᏛᏁᎲ	-10.5421
▁ᎤᏗᏗᏢ	-10.5422
▁ᏬᎩᎷᏨᎩ	-10.5422
▁ᎤᏡᏗᏍᎩ	-10.5423
▁ᎠᎬᏗᏍᎬᎢ	-10.5424
▁ᎧᏫ	-10.5425
▁ᎡᎮᎾ	-10.5426
ᏓᏴᎳᏛ	-10.5427
▁ᎠᏓᎴᏂᏍᎬ	-10.5428
▁ᎠᏂᎩᏍᎬ	-10.5431
▁ᏗᏥᎾᏫᏱ	-10.5431
▁ᎦᏟᎮ	-10.5431
▁ᎤᏪᏅᎩ	-10.5432
▁ᎠᎪᎵᏰᏗ	-10.5432
▁ᏧᏁᏤᎢ	-10.5433
▁ᎤᏰᎸᎭ	-10.5433
ᏲᎾ	-10.5434
ᏓᏁᎮ	-10.5435
ᏯᏔᎮᏍᏗ	-10.544
▁ᏗᎧᏂᎨ	-10.5441
▁ᏓᏍᏛᎢ	-10.5443
▁ᏕᏣᎧ	-10.5444
▁ᎤᏌᎯᎸᎢ	-10.5444
ᏍᏛᎢ	-10.5446
▁ᏄᏛᏅᎢ	-10.5446
▁ᏗᏁᎯ	-10.5447
▁ᎾᏆᏍᏛ	-10.5448
▁ᏎᏉ	-10.5449
ᏂᏯ	-10.545
▁ᏙᏥ	-10.545
▁ᎠᏥᏛᏙᏗ	-10.5451
▁ᎯᎠᏉ	-10.5451
▁ᏓᏆᎧᎾᏅ	-10.5453
▁ᎠᎴᏂᏍᎩ	-10.5453
▁ᎠᏯᎥ	-10.5455
ᎩᏍᏗᏱ	-10.5456
▁ᎢᎩᏍᎦᏅᏨᎢ	-10.5457
▁ᎦᏓᏍᎬᎢ	-10.5462
▁ᎤᏂᏁᏨᎩ	-10.5462
▁ᎤᎾᏓᏅᏎ	-10.5463
▁ᎤᎴᏅᎩ	-10.5474
▁ᏓᏤᎸ	-10.5481
▁ᏙᏯ	-10.5485
▁ᎦᏁᏟᏴᏍᏗ	-10.5492
ᏃᎴ	-10.5492
ᏯᏅ	-10.5493
▁ᎦᏄᎸᏒ	-10.5496
▁ᏗᎪᏢ	-10.5498
▁ᎠᎵᏍᏆᏗᏍ	-10.5503
▁ᏅᎵᏌᎵᏉ	-10.5506
▁ᎮᏓ	-10.5507
▁ᎤᏂᎩᏎᎢ	-10.5508
ᏂᏍᏙᏗ	-10.5514
▁ᎤᏂᎪᎲᎯ	-10.5517
▁ᎤᏩᏔᏅ	-10.5517
▁ᎣᏒ	-10.552
▁ᎬᎨᏳᎢ	-10.5524
▁ᏏᎳ	-10.553
▁ᏣᏚᎵᏍᎬ	-10.5531
▁Ꮺ	-10.5532
ᎠᏆ	-10.5538
ᏐᏉ	-10.5543
ᏃᎮᎸ	-10.5543
ᏕᏯᏙᏔᏅᎩ	-10.5544
▁ᎦᎬᏩ	-10.5546
▁ᎤᏍᏉᏟ	-10.5551
▁ᎠᏍᏘ	-10.5551
▁ᏗᎦᏅ	-10.5557
ᏔᏂᏓ	-10.5559
▁ᎤᏁᎳ	-10.556
▁ᎤᏁᏒ	-10.5563
▁ᎦᏅᏅᎢ	-10.5564
▁ᎪᏪᎸᎩ	-10.5567
▁ᎠᎦᏙ	-10.5578
▁ᎤᎦᏃ	-10.5579
ᏥᎶᏏ	-10.5587
▁ᏚᏩᏛᎮ	-10.5588
▁ᏓᎶᏂᎨᎢ	-10.5594
ᎥᏏ	-10.5597
▁ᏨᏗ	-10.5603
▁ᏄᏓᎴᎯ	-10.5617
▁ᎤᏬᎸᎢ	-10.5618
▁ᎡᎦ	-10.5618
ᎯᏯ	-10.562
▁ᎡᏍᎦᏂ	-10.5622
ᎧᏏ	-10.5624
▁ᏅᏗ	-10.5633
▁ᎤᏭ	-10.5642
ᏙᎳ	-10.5652
▁ᎠᏂᏲ	-10.5658
ᏦᏩᏛ	-10.566
ᏙᎵᏨ	-10.5664
▁ᎠᏂᏍᎦᎾᎢ	-10.5666
ᎪᎲ	-10.5666
ᎸᏉᏛᎾ	-10.5668
▁ᏄᏍᏕᎢ	-10.5668
ᎯᏳᎲᏍᎦ	-10.567
ᎡᎵᏍᏗ	-10.5672
▁ᎠᏓᏙᎵᏍᏙᏗ	-10.5679
▁ᎮᎯ	-10.568
▁ᎤᏁᏤᎸᎢ	-10.5684
▁ᎤᎦᏛ	-10.5687
▁ᏄᎵᏍᏔᏂᏙᎸᎢ	-10.5688
▁ᏅᏩᏍᏛ	-10.5699
▁ᎤᎾᏛᎦᏅᎩ	-10.5699
▁ᎥᏣ	-10.5702
ᎵᎹ	-10.5703
▁ᏚᏬ	-10.5704
ᏍᎦᏃᎳ	-10.5709
ᎬᎾᎨ	-10.571
▁ᏲᏥ	-10.5719
▁ᎵᏏ	-10.5719
ᏍᏚᎢᏒ	-10.572
ᎧᏅ	-10.5722
▁ᎲᎦ	-10.5727
ᏍᏙᏗᏱ	-10.5734
▁ᏕᏅ	-10.5736
▁...	-10.5744
▁ᎢᏥᎩ	-10.5748
▁ᎧᎵ	-10.5756
ss	-10.5756
▁ᎤᏍᎪ	-10.5769
ᏦᏰᏂ	-10.5779
▁ᎤᏩᏁ	-10.5779
▁ᎯᏁᎸ	-10.5799
ᏯᏅᎲᎩ	-10.5801
s	-10.5804
▁ᎢᏣᏟᏂᎬᏁ	-10.582
Ꮮ	-10.5822
▁ᎠᏂᏔᎵᎭ	-10.5835
▁ᏥᎪᎥ	-10.5836
ᏯᎠ	-10.5848
ᏫᏒ	-10.5858
▁ᎬᏩᏍᏓᏩᏗ	-10.587
▁ᎤᎵᏍᏚᎢ	-10.5875
▁ᎤᏗᏔᏍᏗ	-10.5881
ᏥᏃᎮᏍᎩ	-10.5882
▁ᏗᎲ	-10.5884
▁ᎾᏕᏘᏴ	-10.5886
ᎾᏉ	-10.5894
ᏕᏗ	-10.5896
ᏬᏂᏍᎬ	-10.5899
ᏓᏅᏖᎴ	-10.5912
▁ᎤᏂᎷᏤᎸ	-10.5923
▁ᏱᏕ	-10.5925
▁ᏙᏉ	-10.5935
ᏘᏃᎮᎸᎩ	-10.5958
ᏦᏢᏙᏗ	-10.5959
▁ᏓᏲ	-10.596
ᏰᎸᎲ	-10.596
ᎴᏃ	-10.5972
▁ᎠᎩᏰᎸᏅ	-10.5979
▁ᎠᏌ	-10.5987
ᎶᏏ	-10.6012
ᏰᎸᏗ	-10.6014
▁ᏓᏂᎸ	-10.6018
▁ᎢᏣᎵᎮᎵ	-10.6037
ᏏᎾᏌᏂ	-10.604
▁ᏑᎾᎴᏉ	-10.6058
ᏴᎵ	-10.6061
▁ᏥᏁ	-10.6064
▁ᏍᎦ	-10.6072
ᏣᎵᏍᏙ	-10.6074
▁ᎤᏪᏅᏎᏃ	-10.6088
▁ᎬᏩᎪᏩᏛ	-10.61
▁ᏗᎫ	-10.6102
▁ᎤᏁᏅ	-10.6112
▁ᎠᏁᎶᎯ	-10.6123
ᎦᏘᏴ	-10.6128
▁ᏧᏄᏬ	-10.613
ᏍᏔᏅᎭ	-10.6131
▁ᎠᎦᏔᎮ	-10.6134
▁ᏳᏫ	-10.6136
▁ᏕᎦᏅ	-10.6142
ᏁᏎᎢ	-10.6164
ᎷᏤᎸ	-10.6167
▁ᏱᏂᎬ	-10.6174
▁ᏚᏂᏲ	-10.6187
ᎯᏓ	-10.6202
▁ᎤᏂᏅ	-10.6205
▁ᏗᎩᎦ	-10.6207
ᏍᏖ	-10.6213
ᏕᎬ	-10.6217
ᎾᏄᎪᏩ	-10.6219
ᎳᏕ	-10.6226
▁ᎬᎾ	-10.6226
ᎤᏍᏗ	-10.6235
▁ᎤᎦ	-10.6236
ᏛᏁᎵ	-10.6239
ᏁᎸᎭ	-10.6262
▁ᎤᏂᎶᏒ	-10.6275
▁ᏗᎩᏲᎯ	-10.6305
Ꮽ	-10.6315
ᏏᎳ	-10.6316
▁ᎯᏍᎩᎦᏚ	-10.6338
Ꮶ	-10.6339
ᏣᎵ	-10.6353
ᏅᏓᏗᏍᏗ	-10.6369
ᏛᏔᏂ	-10.637
▁ᎾᏓ	-10.6378
▁ᎤᏍᏆᏂᎪᏙᏗ	-10.6381
ᏣᏅᎩ	-10.6382
▁ᏄᏬ	-10.6415
▁ᏫᏨᏲᏪᎳ	-10.6415
▁ᎤᏩᏒᏍᎩᏂ	-10.6419
▁ᎠᏓᏅ	-10.6422
▁ᎤᏰ	-10.6428
ᎢᏍᏙᏗ	-10.643
▁ᏓᎨᏣ	-10.6433
▁ᎤᎾᏕ	-10.6436
▁ᎦᏂᏏ	-10.6437
▁ᏣᏛ	-10.6439
Ꮛ	-10.6444
ᏩᏛ	-10.6445
ᏢᎢ	-10.6451
ᏲᏍᏔᏂ	-10.6453
▁ᏂᏨ	-10.6458
ᏙᎬ	-10.6462
▁ᏚᏂᎧᎵ	-10.6475
ᎾᏄᎪᏫᏎᎸ	-10.6479
▁ᏱᏍᎩ	-10.6486
ᏍᏓᏱ	-10.6488
▁ᏂᎦᎥᎩ	-10.6494
▁ᎢᏍᏓ	-10.6506
▁ᏈᎵ	-10.6508
ᏩᏒ	-10.6508
ᏇᏅ	-10.6513
▁Ꮝ	-10.6523
ᏠᏍᏗ	-10.6526
ᎵᏙᎴ	-10.6532
ᏆᏏ	-10.6534
▁ᏕᏨ	-10.6554
▁ᏥᏚᏂ	-10.6555
ᏘᏃᎸ	-10.6558
ᏥᎪᏩᏛᏗᏱ	-10.6561
ᏁᏨ	-10.6597
ᎥᏍᎨᏍᏗ	-10.6597
▁ᎤᎾᎩᎸ	-10.66
ᏴᏗ	-10.6602
ᎸᏛ	-10.661
ᏨᏗ	-10.6641
ᏍᏗᏍᎩ	-10.6652
▁ᏥᏗ	-10.6653
▁ᎤᎭ	-10.6657
▁ᎢᏥᏠ	-10.666
ᎪᏛ	-10.666
▁ᏗᏛ	-10.6662
▁ᎤᏍᏗᏉ	-10.6664
▁ᎤᏃᎮᎸ	-10.6665
ᏍᏚ	-10.6665
ᎴᎣ	-10.6674
▁ᎬᏩᏓ	-10.6685
▁ᎤᎵᎮᎵᏨ	-10.669
ᏍᏆᏂᎪᏔᏂ	-10.669
ᏬᎥ	-10.6696
▁ᏂᏣᏛᏁᎲ	-10.67
d	-10.6707
▁ᏚᎾᏄᎪᏫᏎᎴ	-10.6711
▁ᎤᏂᏙ	-10.6715
▁ᎦᎦᎶ	-10.6715
▁ᏓᏂᏙᎨ	-10.6716
▁ᏙᏓᏆᏍᎬ	-10.6717
ᏧᏍᏆᏴᏍᏗ	-10.6718
▁ᏤᎲ	-10.672
ᏗᎦᎵᎠᏅᎯᏛ	-10.672
▁ᏕᎦᎶᎨᏒ	-10.6721
ᏑᎾᎴ	-10.6723
▁ᎤᏦᏱᎴ	-10.6726
▁ᏭᏂᎶᏎ	-10.6729
▁ᎤᏌᎯᎸ	-10.6731
ᎬᏁᎵ	-10.6731
▁ᏕᏣᏓᏅᏛ	-10.6731
▁ᎧᏁᏌ	-10.6733
▁ᎠᏍᏆᎵᏍᎬ	-10.6734
▁ᎤᏓᏑᏴ	-10.6734
▁ᏗᏧ	-10.6736
▁ᎤᎾᏄᎪᏫᏎᎴ	-10.6736
▁ᏄᎾᏛᏁᎴ	-10.6739
ᎢᎦ	-10.674
▁ᏙᏓᎬ	-10.674
▁ᎠᏂᏍᎦᎢᎲ	-10.6741
ᎤᏙᎯᏳᎯ	-10.6742
ᏔᏲᏍᏗ	-10.6743
▁ᎤᏂᏴᎮ	-10.6745
▁ᏂᎨᏎ	-10.6745
▁ᎤᏪᏴ	-10.6745
ᏓᎴᏂᏍᎬ	-10.6747
▁ᏧᎵᏏ	-10.6747
ᏍᏈᏯ	-10.6748
ᏠᏨ	-10.6748
ᎳᏁ	-10.675
▁ᏬᎩᎷᏨ	-10.6751
▁ᏂᎦᏅᎯᏒ	-10.6754
▁ᎦᎢᏒ	-10.6754
▁ᎠᎫ	-10.6757
▁ᎡᎵᏍᎬ	-10.676
▁ᎾᏯᏛᎥ	-10.6761
▁ᏕᎦᎧᎲ	-10.6766
▁ᎤᏁᏝᏅ	-10.6769
▁ᏓᎩᎸᏫᏍᏓᏁᎲ	-10.6772
▁ᏚᏩᏂᎦᎸ	-10.6773
ᏓᏂᎸᎢᏍᏗ	-10.6774
▁ᎤᏁᎢᏍᏔᏅ	-10.6774
ᎸᏫᏍᏓᏁᏗ	-10.6776
▁ᏧᏭᎪᏙᏗ	-10.6778
ᎦᎵᎷᎨᏍᏗ	-10.6786
▁ᎥᏞ	-10.6788
▁ᏂᎦᏛᏁᎲ	-10.6789
▁ᎤᎾᏂᎩᏒ	-10.6794
▁ᎪᎵᏍᏗ	-10.6797
ᎦᏘᏕᎯ	-10.6798
▁ᏧᏂᎸᏫᏍᏓᏁᏗ	-10.68
▁ᎠᏩᎾᎦᎳ	-10.6803
▁ᏚᏃᎸ	-10.6803
▁ᏥᎦᏘᏏ	-10.6804
▁ᎠᎵᏏᎾᎯᏍᏔᏅᎯ	-10.6804
▁ᎠᏂᏰᎪᎩ	-10.6804
▁ᎠᏲᏓᏌᎲ	-10.6804
▁ᎤᎾᏗᏍᎦᏟ	-10.6804
▁ᎤᏩᎭᏂᎴ	-10.6804
▁ᏂᎩᏪᏎᎸᎭ	-10.6804
▁ᏅᏧᏓᎴᏅᎲᎾ	-10.6804
▁ᏅᏛᏆᏓᎴᏅᎯ	-10.6804
▁ᏗᏦᏪᎵᏍᎩ	-10.6804
▁ᎠᏐᎥᏍᏙᏗ	-10.6804
▁ᏏᎵᏆ	-10.6804
▁ᏣᏓᏲᏁᎸᎩ	-10.6804
▁ᎠᎾᏓᏍᎦᎶᎩ	-10.6805
▁ᎦᏅᏃᏩ	-10.6805
▁ᏅᏥᏪᏎᎸᎩ	-10.6805
▁ᎤᏚᏓᎴᏛ	-10.6805
▁ᎠᏓᏪᎯ	-10.6805
▁ᎤᏪᏐᏅᏴ	-10.6805
▁ᏄᎾᏓᎡᏍᏗ	-10.6805
▁ᏦᏑᏫ	-10.6805
▁ᎤᎿᎷᏒᎩ	-10.6805
▁ᎤᏛᎴᎮ	-10.6805
▁ᎠᎪᏕᏍᎩ	-10.6805
▁ᎢᏣᏛᏓᏍᏓ	-10.6805
▁ᎢᎳᎩᏳ	-10.6805
▁ᏧᏁᎿᎢ	-10.6805
▁ᏤᏆᎳᏂ	-10.6805
▁ᎠᏍᎩᏓᏍᎬ	-10.6805
▁ᎤᏁᏉᏨ	-10.6805
▁ᏧᏁᎵᏁ	-10.6805
▁ᎤᎵᏏᏂᏕᏅ	-10.6805
▁ᎨᎴᏏᏱ	-10.6805
▁ᎤᎵᏲᏗ	-10.6805
▁ᏗᎧᏃᎩᏍᏙᏗ	-10.6805
▁ᎢᎪᏪᎳ	-10.6805
▁ᏕᏥᏃᎩᏍᎨᏍᏗ	-10.6805
▁ᎾᎨᎢᏴ	-10.6805
▁ᎠᎾᏓᏍᏓᏩᏗᏙᎯ	-10.6805
▁ᎠᎾᎵᏍᏕᎵᏍᎩ	-10.6805
▁ᏓᏲᏤᏏ	-10.6805
▁ᎤᏂᎩᎵᏲᎢᏍᏗ	-10.6805
▁ᏔᏘᏄᎦ	-10.6805
▁ᏱᏂᎬᏁᎭ	-10.6805
▁ᎠᏓᏅᏖᏍᎪ	-10.6805
▁ᏚᎨᏓᎵᏴ	-10.6805
▁ᏂᎩᏪᏏ	-10.6806
▁ᎠᎾᏓᏤᎵ	-10.6806
▁ᏓᎭᏏ	-10.6806
▁ᎠᏦᎳᏅ	-10.6806
▁ᏕᏥᎧᎿᏩᏗᏙᎮᏍᏗ	-10.6806
▁ᏚᏍᏓᎦᎸ	-10.6806
▁ᏗᎾᎢᏒ	-10.6806
▁ᏱᏤᎵᎯᏍᎨᏍᏗ	-10.6806
▁ᏗᎦᎶᏔᏅ	-10.6806
▁ᏚᎭᏄᏮ	-10.6806
▁ᏧᎾᎬᏩᎶᏗ	-10.6806
▁ᎤᏭᏢᏔᏅᎩ	-10.6806
ᏘᏯᏍᏓᏁ	-10.6806
▁ᏕᎪᏪᎴᏍᏗ	-10.6806
▁ᏫᏗᎶᎯ	-10.6806
▁ᏓᎦᏛᏁᎵ	-10.6806
▁ᏄᏪᎲᎾ	-10.6806
▁ᎢᏦᎯᏳᏗᏱ	-10.6807
▁ᎤᏛᎦᏍᏕ	-10.6807
▁ᏓᏱᎾ	-10.6807
▁ᎮᎵᎠ	-10.6807
▁ᎠᏓᏲᏁᎮᏍᏗ	-10.6807
ᏲᎦ	-10.6807
▁ᎨᏥᏍᏕᎸᏗ	-10.6808
▁ᎡᏥᏅᏏᏓᏍᏗ	-10.6808
▁ᎢᎬᏛᏁᏗ	-10.6808
▁ᎣᎦᏚᎵᎭ	-10.6808
▁ᏥᏚᏳᎪᏗ	-10.6808
▁ᏧᏂᎶᎸᏗ	-10.6808
▁ᎠᎫᏩᏌ	-10.6808
▁ᎦᏂᎩᎸ	-10.6808
▁ᎢᏯᏥᎸᏉᏗ	-10.6808
▁ᎤᎬᎥᏍᎩ	-10.6808
▁ᏰᏙᎭ	-10.6809
▁ᎠᏂᎪᎲᎭ	-10.6809
▁ᎿᏛᎦ	-10.6809
▁ᎬᏬᎯᏳᏅᎩ	-10.6809
▁ᏣᎦᏨᏍ	-10.681
▁ᏧᏂᏁᏟᏴᏍᏗ	-10.681
▁ᎤᎴᏴᏒ	-10.681
▁ᎲᏓ	-10.681
▁ᎠᏍᏕᏯᏓ	-10.681
▁ᎢᏳᏪᏎᎸᎯ	-10.681
▁ᏍᎩᏍᏓᏩᏚᎦ	-10.681
▁ᎤᏂᎪᏩᏛᏗᏱ	-10.681
▁ᎯᎸᏉᏓ	-10.681
▁ᏣᏙᎳᏅᏍᏗ	-10.681
▁ᎤᏍᏆ	-10.6811
▁ᎤᏕᎶᎰᏒ	-10.6811
▁ᎭᏓᏅᎾ	-10.6811
▁ᏗᎫᎪᏗᏍᎩ	-10.6811
▁ᎤᎶᏗᏢ	-10.6811
▁ᏂᏴᏁᎸ	-10.6811
▁ᏂᏣᏛᎿᏕᎬᎢ	-10.6811
▁ᏗᎪᏢᏅᎯ	-10.6811
▁ᏑᏓᎵᏍᎪᎯ	-10.6812
▁ᎢᎩᏁᎸ	-10.6812
▁ᎠᏍᎩᏗᏍᎨᎢ	-10.6812
▁ᎢᏣᏚᎵᏍᎨᏍᏗ	-10.6812
▁ᎢᏥᏯᎡᏍᏗ	-10.6812
▁ᏚᏯᏪᎨ	-10.6812
▁ᏍᏈᏍᏔ	-10.6812
▁ᏗᏣᎧᏅᎦ	-10.6813
▁ᎢᏣᎵᎮᎵᎨᏍᏗ	-10.6813
▁ᏫᏥᎷᏨᎭ	-10.6813
▁ᎨᏥᏅᏒᎯ	-10.6813
▁ᏥᏣᏛᎩᎭ	-10.6813
▁ᏇᏗᏂᏱ	-10.6814
▁ᏗᎩᎸᏫᏍᏓᏁᏗᏱ	-10.6814
▁ᎡᏥᏯᏅᏛ	-10.6814
▁ᎶᎻ	-10.6814
▁ᎠᏠᏗᏱ	-10.6815
▁ᏎᏘ	-10.6815
▁ᏧᎳᏍᎩ	-10.6815
▁ᎤᎾᏛᏅᎩ	-10.6815
▁ᎠᏂᎦᏲᏟ	-10.6815
▁ᏧᎷᏫᏍᏔᏁᏗ	-10.6815
▁ᏗᏣᏓᎴᏅᏛ	-10.6816
▁ᏍᎪᏁ	-10.6816
▁ᏈᎵᏏ	-10.6817
▁ᎠᎩᎵᎨᏂ	-10.6817
▁ᎠᏂᏴᎩ	-10.6818
▁ᎤᎾᏓᏙᎵᏍᏓᏁᎸᎩ	-10.6818
▁ᎦᏃᏙᏗᏱ	-10.6819
▁ᎪᎯᎢᏴ	-10.682
▁ᎢᎦᎵᏍᏙᏗᏱ	-10.6821
▁ᎢᏨᏃᎮᎮᎸ	-10.6821
▁ᎤᏁᎯ	-10.6821
▁ᏂᏨᎦ	-10.6823
▁ᎪᎰᏍ	-10.6824
▁ᎢᎦᎦᏓ	-10.6824
ᏔᎵ	-10.6825
▁ᎤᏓᏙᎵᏣᏛ	-10.6825
▁ᎠᏨᏍᏛ	-10.6826
▁ᎹᎦ	-10.6826
▁ᏄᏩᏁᎰ	-10.6826
▁ᏓᎾᏕᏲᎲᏍᎬ	-10.6826
▁ᎤᎦᏔᏔᏅᎯ	-10.6827
▁ᎤᏃᎯᏳᏅᎯ	-10.683
▁ᎠᏓᏁᏣᏍᏚᎶᎩᎯ	-10.683
▁ᎠᏍᎫᏕᏍᏗᏱ	-10.6831
▁ᎤᏰᏨ	-10.6832
▁ᏯᏂᎦᏔᎮ	-10.6832
▁ᏥᏁᎦ	-10.6833
▁ᎢᏍᏕᎾ	-10.6834
▁ᎤᏛᏒᎯ	-10.6834
ᎧᏁᎸ	-10.6834
▁ᎠᏰᏟ	-10.6834
▁ᏗᏘᏲᎯ	-10.6834
▁ᏃᎩᏪᏎᎸ	-10.6834
▁ᏧᏓᎴ	-10.6835
▁ᎠᎦᏔᎯᏳ	-10.6835
▁ᎤᏓᏴᏎᎢ	-10.6835
▁ᏥᏙᎦ	-10.6837
▁ᎬᏩᏛᏗ	-10.6837
▁ᎤᏪᎧᏁᎢ	-10.6837
▁ᎤᎾᏕᏗ	-10.6838
▁ᏥᎪᏩᏘᏍᎬ	-10.6839
▁ᎤᎾᏄᎪᎢᏍᏗ	-10.684
▁ᎩᎳᎯᏳ	-10.684
▁ᏓᎧᏅ	-10.684
ᎡᎸ	-10.684
▁ᎤᏁᏉᏨᎯ	-10.684
▁ᎪᏪᎴ	-10.6841
▁ᎤᏂᎾᏫ	-10.6841
▁ᏇᎵᎩ	-10.6841
▁ᏓᏨᏁᎵ	-10.6842
▁ᎤᏃᎯᏳᏅᎩ	-10.6842
▁ᏗᎦᏥ	-10.6844
▁ᎤᎪᏩᏛᏗᏱ	-10.6844
▁ᏥᏯᎵᎡᎵᏤ	-10.6845
▁ᎨᎵᏍᎩ	-10.6845
ᏁᏉᏥ	-10.6846
▁ᎤᎾᏛᎪᏗᏱ	-10.6847
▁ᎤᏪᏍᎩᎸᎢ	-10.6847
▁ᏫᏥᎦᏛᎢ	-10.6847
▁ᎡᏓᏍᏗ	-10.6848
▁ᏧᏓᎵᎢ	-10.6849
▁ᏂᏚᏩᏁᎴᎢ	-10.6849
▁ᎤᏍᏆᏂᎪᏛ	-10.6849
▁ᎤᎩᏒᎩ	-10.6849
▁ᎠᏂᏃᎮᎭ	-10.685
▁ᎢᎪ	-10.6851
▁ᎻᎳ	-10.6856
ᏍᎦᏎᏗ	-10.6857
▁ᎢᎦᎵᎢ	-10.6858
▁ᎾᏯᏛᎥᎩ	-10.6858
▁ᎤᏓᏙᎵᏍᏔᏁᎢ	-10.6859
▁ᏗᎾᏓᎪᎾᏗᏍᎬᎢ	-10.6859
▁ᎠᎾᏓᎪᎾᏗᏍᎬᎢ	-10.686
▁ᎦᏓᏙᎵᏍᏗᏍᎬᎢ	-10.6861
▁ᎤᎾᏂᎩᏒᎩ	-10.6861
▁ᎢᏳᏒᎯ	-10.6863
▁ᎠᎦᏍᎩ	-10.6864
ᏅᏬᏗᏱ	-10.6867
▁ᏥᏰᎸᎢ	-10.6868
▁ᎣᎵᏩᏲ	-10.6869
ᎦᎸ	-10.6872
ᏓᏛᏍᎩ	-10.6873
▁ᎤᎾᏓᏅᏖᎴ	-10.6873
▁ᎤᎾᏂᎩᏎᎢ	-10.6873
▁ᎤᏩᏔᏅᎩ	-10.6874
▁ᎤᏂᏣᏖᏍᏗ	-10.6876
▁ᎠᏆᏣ	-10.6879
▁ᎤᏇᏓᎵᏉ	-10.6881
▁ᎤᎩᏎᎢ	-10.6881
ᏓᏂᎸᎩ	-10.6883
▁ᎤᏬᏢᏅ	-10.6883
▁ᎤᎵᏍᏆᏛ	-10.6883
▁ᏚᏩᏂᎦᎸᎢ	-10.6884
▁ᎤᏦᏱᎴᎢ	-10.6884
▁ᎦᏯᎸ	-10.6884
▁ᎤᎾᏓᏅᏖᎸ	-10.6885
▁ᎠᎢᏒᎩ	-10.6889
ᏰᏛ	-10.689
▁ᏥᏄᏍᏕ	-10.6891
▁ᏣᏗᎭ	-10.6897
▁ᎤᏍᎪᏒ	-10.6898
▁ᎤᏗᏛᎮᎢ	-10.69
▁ᎢᏣᏓᏅᏖᏍᎬ	-10.6902
▁ᎤᏲᎢᏴ	-10.6904
▁ᏭᏂᎷᏨᎩ	-10.6917
ᏯᎥᎢ	-10.6919
▁ᎠᏓᎯᎯ	-10.692
▁ᏫᎦᎷᎬ	-10.6922
▁ᏝᎨ	-10.6922
▁ᎤᏁᏍᏔ	-10.6923
ᏗᏂᏍᎪᏂᎯ	-10.6925
▁ᎠᎩᏁᏨᎢ	-10.6933
▁ᎢᏗᎬᏁ	-10.6934
ᏃᎯᏎᎴ	-10.6935
▁ᏧᏁᎦ	-10.6935
▁ᎫᎦ	-10.6937
ᏚᎢᏍᏓᏁᎴ	-10.6937
▁ᏫᏚᏯᏅᎮᎢ	-10.6945
▁ᏪᏣ	-10.6949
▁ᎢᏨᏗᏍᎬ	-10.6949
▁ᏍᎩᏍᏕᎸ	-10.6951
▁ᎤᏄᎪᏤᎢ	-10.6952
▁ᏗᏐᏴ	-10.6952
▁ᏂᏕᎬᏁᎲ	-10.6954
▁ᎢᏔ	-10.6955
ᎦᏛᎦ	-10.6956
▁ᎤᏅᏎᎢ	-10.6957
▁ᎠᏁᎮᏍᏗ	-10.6959
▁ᎯᎦᏔᎲ	-10.6961
ᏔᏁᏍᏗ	-10.6967
▁ᎤᎪᎵᏰᎥ	-10.6969
ᏞᏍᏗ	-10.6969
▁ᎤᏬᏨ	-10.6969
▁ᎭᏗ	-10.6972
▁ᏧᏁᏗᏱ	-10.6973
▁ᎤᎷᏤᎴᎢ	-10.6974
▁ᎤᏩᏔᏁ	-10.6978
▁ᎤᏁᏍᎩᎸ	-10.698
▁ᏗᎬᏩᎾ	-10.698
▁ᎡᎾᎢ	-10.6981
▁ᎤᏬᏂᏎ	-10.6986
▁ᎤᎾᏛᏁ	-10.6988
▁ᏧᏁᏤᎴ	-10.6988
ᏛᏁᏗᏱ	-10.6992
▁ᏚᏙᏍᏛ	-10.6993
▁ᏄᏩᏁᎸᎩ	-10.7002
ᏍᏗᏍᎨᎢ	-10.7004
ᎳᏅᎩ	-10.7004
ᏓᏁᎯ	-10.7009
ᎨᏎᎢ	-10.7009
▁ᎠᎾᎵᎮᎵᎨ	-10.7012
ᏟᏌᏂ	-10.7014
▁ᎤᎪᏗ	-10.7017
ᎵᏍᏓᏴᎲᏍᎦ	-10.7017
▁ᎤᏤᎸ	-10.7028
▁ᏙᏓᎨ	-10.703
▁ᏂᏥᏪᏎᎸ	-10.703
ᏏᏐᏗ	-10.7033
ᏂᏗ	-10.7037
ᎫᏩ	-10.7038
ᏅᎦ	-10.7046
▁ᏱᏓᎩ	-10.7047
▁ᏗᎬᎩ	-10.7047
▁ᎤᏂᎪᎲᎩ	-10.7052
▁ᏓᎬᎩ	-10.7053
▁ᏗᎩᎦᏴᎵᎨᎢ	-10.7056
ᎵᏍᎪᎸᏓᏁᏗᏱ	-10.7061
▁ᏂᏚᎩᏨᏂᏒᎢ	-10.7068
ᏄᎪᏫᏏ	-10.7069
ᏖᎵ	-10.7071
▁ᏧᎾᏦ	-10.7078
▁ᎠᏦᏴᎢ	-10.7081
ᏢᎾᏁᏗ	-10.7081
ᎲᏍᎪᎢ	-10.7082
▁ᎤᏍᎦᏅᏨᎢ	-10.7083
▁ᎤᏁᏅᏍᏗ	-10.709
▁ᏃᏳ	-10.7094
▁ᎪᎦ	-10.7095
▁ᏕᎬᏩᏂ	-10.7095
▁ᏣᎪ	-10.7098
ᏨᎾ	-10.7105
▁ᏕᏣᏙᎥᎢ	-10.7106
ᏅᏗᏍᎨᏍᏗ	-10.7109
ᏪᏎᏗ	-10.7113
ᏙᎲᎢ	-10.7113
▁ᎤᏓᏅᏙᎩ	-10.7113
▁ᏗᏍᏆ	-10.7119
ᏓᏁᎮᏍᏗ	-10.7122
ᏇᎵ	-10.7123
ᏏᏩ	-10.7129
ᏏᎳᏛᏗ	-10.7131
▁ᎤᏍᏓᏱᏕ	-10.7137
ᎩᏍᎬ	-10.7137
▁ᎤᎵᏍᏆᏕ	-10.7139
ᏟᏯ	-10.714
▁ᏃᎩ	-10.7143
ᎳᏚ	-10.7144
▁ᎤᎧᎵᎸ	-10.7144
ᏳᏍᏗ	-10.7153
ᏌᎳᏓᏁ	-10.7161
ᎬᏂᎨ	-10.7163
▁ᎤᏙᎯᏳᎭ	-10.7168
▁ᏗᎨᎦ	-10.7172
▁ᎠᏂᏁᎸ	-10.7172
▁ᏂᎬᏁᎸ	-10.7174
ᎦᏔᎲ	-10.7181
▁ᏦᏥ	-10.7182
▁ᎠᏃᎵ	-10.7204
▁ᎤᏓᏅᏒ	-10.7213
▁ᏄᏪᏎᎸᎢ	-10.7216
▁ᎠᏉᏢ	-10.7218
ᏅᎦᎸᏛ	-10.722
ᎪᏅ	-10.7225
ᏂᏌᏂ	-10.7228
▁ᎤᏍᏆᎸ	-10.7231
ᎪᎵᏂᏗ	-10.7236
ᎦᏙᎥᏎ	-10.7247
ᏏᏗ	-10.7257
▁ᎤᎧᎵ	-10.7258
▁ᎬᏒ	-10.727
▁ᏃᏒ	-10.7273
▁ᎤᏁᏅᏎᏃ	-10.7274
▁ᏚᎸ	-10.7275
ᏧᏂᏲᎯᏍᏗᏱ	-10.7277
ᏕᎦ	-10.7283
▁ᎤᏃᏴᎵ	-10.7285
▁ᏳᎪ	-10.7286
▁ᎠᏰᎵᏒ	-10.7287
ᏍᎦᎢᎮᏍᏗ	-10.7287
▁ᎤᏁᏤᎢ	-10.7292
ᎯᎲᎢ	-10.7294
▁ᎤᏙᎯ	-10.73
ᏲᏏ	-10.7304
▁ᎤᏙᏳ	-10.7306
ᎤᏩᏂᎦᎸ	-10.7306
ᏁᎢᏍᏓᏁᏗ	-10.7307
▁ᎤᏁᏤᎴᎢ	-10.7314
ᏂᏙᎸ	-10.7321
ᏣᏗ	-10.7336
▁ᏦᏏ	-10.735
ᏗᏯ	-10.7363
▁ᎠᏂᎸᏉᏗᏍᎨ	-10.7366
▁ᎤᏅᏁ	-10.7369
▁ᏓᏔᎴᏒᎢ	-10.7369
▁ᎾᏂᎥᎩ	-10.7371
▁ᏦᏒ	-10.7386
▁ᏙᏓᏣ	-10.7403
ᏡᏗᏍᎩ	-10.7418
▁ᏤᎳᏗ	-10.7421
▁ᎡᏍᏗ	-10.7423
▁ᏲᎦ	-10.7435
▁ᎦᏲᎦ	-10.7436
▁ᎠᎹᏂ	-10.7441
ᎵᏍᏓᏴᏗ	-10.7442
▁ᏚᏃ	-10.7457
▁ᎤᎳ	-10.7459
▁ᎠᎫᏴᏗ	-10.7466
▁ᎤᏂᏏᏗ	-10.7473
ᏛᏃᎯ	-10.7478
ᎦᏚ	-10.748
▁ᏚᏁᏤᎴᏃ	-10.7482
▁ᏥᏕᏣ	-10.7482
ᏤᎭ	-10.7484
ᎳᏛ	-10.7493
▁ᎠᎩᏍᎦᏅᏨ	-10.7493
▁ᏓᎦᏥ	-10.7495
▁ᎢᎬᏱᏱᏉ	-10.7504
ᎩᏒ	-10.7506
▁ᏱᏥᏰᎸ	-10.7511
ᏁᏅ	-10.7511
ᏘᏍᏗᏍᎩ	-10.7514
ᏍᏓᏩᏕᎩ	-10.7514
▁ᎠᏥᏁᎸ	-10.7523
ᎧᎯᏯᏍᏗ	-10.7527
▁ᎤᏂᏴᎸ	-10.753
ᏍᏓᏁ	-10.7538
▁ᎦᎾᏄᎪ	-10.7539
ᏥᏧᏣ	-10.7539
▁ᏥᏳᎪ	-10.7553
ᏢᏅᎯ	-10.7559
ᏗᏍᏔᏁ	-10.757
▁ᎨᎢ	-10.7571
ᎬᏅ	-10.7598
ᏗᏔᏍᎬ	-10.7598
▁ᏩᏴ	-10.7603
ᏒᏗ	-10.7613
▁ᏗᎧ	-10.7619
ᏄᎵ	-10.762
ᏲᎭ	-10.7621
▁ᏂᏛ	-10.7638
ᏂᏴ	-10.7654
▁ᎠᎾᏗᏍᎨ	-10.7661
ᏍᏆᎵ	-10.7665
▁ᎪᏛ	-10.767
▁ᎤᏂᏄᎪᏨ	-10.7688
▁ᏥᎦᏔ	-10.7688
ᏪᏎᎴᎢ	-10.7692
▁ᎤᏣᏅ	-10.7694
ᎵᎢ	-10.7699
ᏘᎾᏫᏛᎲᎩ	-10.7703
▁ᎢᏳᏂ	-10.7705
...”	-10.7713
ᎶᏓ	-10.7717
ᏫᏎᎴᎢ	-10.7717
ᏂᏆᏘᎯ	-10.773
ᏓᏱ	-10.7731
ᏍᎦᏰᎬᏍᏓ	-10.7736
▁ᎤᏪᏰ	-10.7741
▁ᎠᏩᏛ	-10.7748
ᏍᏕᎵᏍᎬ	-10.7755
ᏁᏟᏴ	-10.7759
▁ᏂᎦᎥᎢ	-10.776
ᏲᏍᏗᏍᎬ	-10.7771
ᎸᏉᏗᏍᎩ	-10.7784
▁ᎤᎵᏍᏆᎸᏗᏃ	-10.7789
▁ᏕᎠ	-10.779
▁ᏚᏳ	-10.7799
▁ᎾᎯᏳᎢ	-10.7814
▁ᏕᎨᏥ	-10.7823
ᏡᏗᏍᎬᎢ	-10.7826
ᎦᎳ	-10.7828
▁ᏚᏲᏎ	-10.7834
▁ᏱᎨᏣ	-10.7848
ᏍᏗᏍᎬᎢ	-10.7849
ᏓᏎᎪᎩᏍ	-10.786
ᏂᏙᎯ	-10.789
ᏗᏍᏗᏍᎩ	-10.7892
▁ᎠᎨ	-10.7902
▁ᎤᎵᏍᏆ	-10.7902
ᏅᎪᎢᏍᏗ	-10.791
al	-10.7913
▁ᏯᏓᏅᏖ	-10.7916
▁ᎠᎵᏰᎢᎵ	-10.792
ᏳᎳ	-10.7923
ᏢᏗᏱ	-10.7934
ᏑᏰᏒ	-10.7938
▁ᎢᏨᏲᏪᎳ	-10.7942
▁ᏭᏩ	-10.7947
ᎡᎰᎢ	-10.7947
ᏰᎸᎭ	-10.7948
▁ᏕᎫ	-10.7957
▁ᎦᏯ	-10.796
ᏂᎩᏍᎬ	-10.796
▁ᎩᏯ	-10.7962
ᏰᎸᎯ	-10.7968
ᏥᏍᎦᏯ	-10.7974
▁ᏓᏳᏂ	-10.7981
ᏴᏍᏗ	-10.7984
ᎵᏳ	-10.7994
▁ᎠᏍᏆᏂᎪᏙᏗ	-10.8001
ᏍᎩᎸ	-10.8003
ᏍᏓᏩᏛᏒᎩ	-10.801
ᏓᏑᏰᏍᏗ	-10.8011
ᏛᏅᎢᏍᏓ	-10.8014
▁ᎢᏳᏍᎩᏂᏃ	-10.8019
▁ᏥᏂᎬ	-10.802
▁ᏄᏍᏛᎩ	-10.8022
▁ᏔᏯ	-10.8023
ᏍᏓᏩᏗᏒ	-10.8029
▁ᏚᏭ	-10.8036
ᎤᏍᏓᎦᏴᎯᏓ	-10.8039
▁ᏚᏁ	-10.8042
▁ᎢᏗᎦᏘ	-10.8044
ᏥᏁᎸ	-10.8045
ᏓᎵᏓᏍᏗ	-10.8051
ᏲᎵ	-10.8061
ᏅᏛ	-10.8062
ᏲᏒᎩ	-10.8067
▁ᎨᏍᏗᏗ	-10.8078
ᎦᏁᎶᏗ	-10.8079
ᎷᎯᏍᏗ	-10.8083
▁ᎤᎵᏰ	-10.8096
ᎳᏓ	-10.8097
▁ᎥᎩᎸᏉ	-10.8104
ᏍᎦᏨᎯ	-10.811
ᏓᏙᎵᏍᏗᏍᎬ	-10.8114
ᏘᏃᎯᏍᏗᏱ	-10.8125
ᎦᏘᏓ	-10.8129
ᎳᏂ	-10.8136
ᏂᎪᎲ	-10.8137
▁ᎬᏰᎸ	-10.8145
▁ᎢᏍᏛ	-10.816
▁ᎠᏢ	-10.8162
▁ᏅᏓᎬᏩ	-10.8164
ᎧᏁ	-10.8178
ᏓᏂᎸᏤᎢ	-10.8187
▁ᎤᏂᏍᏆᏂᎪᏎ	-10.8197
▁ᎤᎷ	-10.82
▁ᏗᏣᏁᎶ	-10.8209
ᏓᎩᏍᎨ	-10.821
▁ᏗᏍᏚ	-10.8211
▁ᏳᏬᎯᏳ	-10.8242
ᏙᎮ	-10.8247
ᏩᏕᎬ	-10.8255
ᎵᏍᏓᏏ	-10.8263
Ꮌ	-10.827
ᎪᎵᏰᎥᎯ	-10.8271
ᎦᏅᎦ	-10.8272
▁ᎤᏍᎦ	-10.8275
ᎶᎯᏍᏗ	-10.8275
▁ᏣᎦ	-10.8279
▁ᏄᏂᏪᏎ	-10.8281
▁ᏧᏁᏨ	-10.8291
ᏍᏕᎸᏗᏱ	-10.8297
ᎿᎥᎢ	-10.8297
ᏪᏎᎸᎩ	-10.8299
▁ᎤᎸᏉᏗ	-10.8301
▁ᎦᏟ	-10.8304
▁ᎧᏃᎮ	-10.8306
ᏪᎶᏗ	-10.8306
ᏢᏛ	-10.832
▁ᎠᏂᎦ	-10.832
ᏓᏬᏍᏗ	-10.832
▁ᎤᏁᎷᎬ	-10.833
▁ᏧᎳᏑᎶ	-10.8339
ᏦᏁ	-10.8339
ᏁᎲᎩ	-10.8341
▁ᏙᏧ	-10.8349
ᎯᏍᏔᏂ	-10.8351
ᏉᏂ	-10.8355
▁ᏕᎦᏄᎪᏫᏍ	-10.836
▁ᎢᎩᏰᎸ	-10.8365
▁ᎬᏩᎾᏕ	-10.8371
ᎢᎦᎸᏉᏗ	-10.8372
ᏍᎦᏃᎵ	-10.8373
▁ᏕᎦᏄᎪᎬ	-10.8375
▁ᏧᏁ	-10.8376
▁ᎤᏂᎯ	-10.8377
▁ᏕᎦᎳᏅᏛ	-10.8377
▁ᎤᏍᏆᏂᎪᏎ	-10.8377
ᎦᎸᎳᏗ	-10.8378
▁ᎠᏐᏴ	-10.8378
▁ᎣᎦᏛᎦᏅ	-10.8379
▁ᏚᏲ	-10.8379
ᏗᎦᏛᎯ	-10.8379
▁ᎠᏓᏪᎵᎩᏍᎬ	-10.8384
ᏫᎵᎻ	-10.8387
ᏄᏓᎴ	-10.8387
▁ᎠᎩᏇᏓᎸ	-10.8388
▁ᏂᎦᎵᏍᏗᏍᎪ	-10.8389
▁ᏕᎦᏍᎩᎸ	-10.839
▁ᎢᏣᏓᏙᎵᏍᏗᏍᎬ	-10.8391
▁ᎤᎵᏰᏔᏁ	-10.8393
▁ᏱᎨᏥ	-10.8393
▁ᏙᏧᎾᏓᏅᏛ	-10.8394
▁ᏱᏥᎦᏔᎮ	-10.8397
▁ᏄᏂᏪᏎᎴ	-10.8399
▁ᎢᏣᎵᎮᎵᎬ	-10.8399
▁ᎤᎾᏂᎩᏎ	-10.8399
▁ᏚᏓᏘᎾᎥ	-10.84
▁ᎤᎶᎨᏒ	-10.84
▁ᏱᏄᏍᏕ	-10.8405
▁ᎤᏬᎯᏳᏒ	-10.8407
▁ᏯᏛᏅ	-10.8408
▁ᎤᏄᏩᎥ	-10.8411
ᎰᏩ	-10.8411
▁ᏕᎦᏬᏁᏗᏍᎬ	-10.8416
▁ᏈᎬ	-10.8416
▁ᏄᏛᏁ	-10.8419
▁ᎾᎩᏪᏎᎸ	-10.8421
ᎪᎲᏍᏙᏗ	-10.8422
ᎣᏏ	-10.8422
▁ᏭᏯᏅᎲ	-10.8423
▁ᎠᎩᏩᏛᎲ	-10.8424
▁ᏄᏅᏁᎸ	-10.8425
ᎵᏙᎯ	-10.8426
▁ᎤᎵᏦᏛ	-10.8429
▁ᎥᎩᏙ	-10.843
ᏰᎳᏍᏗ	-10.8432
▁ᎢᎫᏩ	-10.8439
▁ᎠᏂᎪᏩᏘᏍᎬ	-10.8441
ᏬᏗᎨ	-10.8441
ᎤᎷᏨ	-10.8441
▁ᏫᏗᎦ	-10.8443
▁ᏇᏓᏁᎳᎻ	-10.8445
ᎲᏎ	-10.8446
▁ᎠᏓᎨᏗ	-10.8446
▁ᏧᏂᎧᎿᏩᏛᏍᏗ	-10.8446
ᎪᎵᏰ	-10.8447
▁ᎠᏍᎫᏕᏍᏗ	-10.8447
▁ᏂᏕᎦᏪᏎᎲ	-10.8448
▁ᎤᏬᎯᏳᏅ	-10.8449
▁ᏗᎫᏍᏙᏍᏗ	-10.8449
ᏒᏆᎶᏍᏗ	-10.845
▁ᏗᎨᎫᎪᏓᏁᏗ	-10.8452
▁ᎤᏪᏓᏍᏗ	-10.8453
ᏲᎱᎯᏎᎸᎯ	-10.8453
▁ᏤᏅᏍᏗ	-10.8455
▁ᏚᏄᎪᏫᏒ	-10.8456
▁ᎠᏥᏁᏗ	-10.8456
▁ᎤᎧ	-10.8457
▁ᏭᎷᏤᎴ	-10.8459
▁ᎤᎾᏛᎪᏗ	-10.8462
▁ᎠᏇᏓᏍᏗ	-10.8463
▁ᎠᏂᎾᏰᏍᎩ	-10.8471
▁ᎠᏂᏥᏊᏏ	-10.8471
▁ᎢᎨᎬᏁᎸᎯ	-10.8471
▁ᎢᎵᎡᏌ	-10.8471
▁ᎤᏍᏔᏲᏒ	-10.8471
▁ᎤᏖᎸᎳᏛ	-10.8471
▁ᎥᏆᎸᎢᏛ	-10.8471
▁ᎫᏫᏍᎫᏫ	-10.8471
▁ᎬᏬᎯᏳᎲᏍᎩ	-10.8471
▁ᎰᏢᏔᏅᎭ	-10.8471
▁ᎴᎣᏗᏏᏯ	-10.8471
▁ᎻᏚᏏᎳ	-10.8471
▁ᏂᏦᎵᎬᎾ	-10.8471
▁ᏇᏣᎵᎵ	-10.8471
▁ᏍᎪᏂᏗᏢ	-10.8471
▁ᏓᏇᎪᏔᏅ	-10.8471
▁ᏗᎾᏙᎴᏆᏍᎩ	-10.8471
▁ᏗᏓᎴᏅᏗᏍᎩ	-10.8471
▁ᏥᏈᎣᏂ	-10.8471
▁ᏧᏂᏦᏯᏍᏗ	-10.8471
▁ᏓᏗᎶᏂ	-10.8471
▁ᏗᎬᏩᎩᏨᏗ	-10.8471
▁ᏭᏕᎵᏤ	-10.8471
▁ᎤᏂᎵᏅᏨᎯ	-10.8471
▁ᎢᏯᏛᏁᎵᏓᏍᏗ	-10.8471
▁ᏗᏥᎨᏫ	-10.8471
▁ᏧᎾᏗᎩᏓ	-10.8471
▁ᏦᏍᏓᏓᏅᏟ	-10.8471
▁ᏥᏂᏨᏪᏎᎸᎩ	-10.8471
▁ᎤᏪᏯᎸᏤᎢ	-10.8471
▁ᎠᎵᏏᎾᎯᏍᏙᏗ	-10.8471
▁ᎠᏂᎪᏗᏳ	-10.8471
▁ᎠᏆᏗᏔᏍᏗ	-10.8471
▁ᎠᎾᎵᏖᎸᎲᏍᎩ	-10.8471
▁ᎢᎬᏆᏛᏁᏗ	-10.8471
▁ᎤᎵᏍᏛᏧᏁ	-10.8471
▁ᎠᏟᎶᎥ	-10.8471
▁ᏗᎨᏘᏂᏓᏍᏗ	-10.8471
ᏫᏂᏗᏢ	-10.8471
▁ᎠᏂᎶᏍᎩ	-10.8471
▁ᎹᎺᎵ	-10.8471
▁ᏧᎬᏩᎳᏅᎯ	-10.8471
▁ᏭᏕᎵᏨ	-10.8471
▁ᎤᏦᎠᏎᏗ	-10.8471
▁ᎪᎯᏳᎲᏍᎨᏍᏗ	-10.8471
▁ᎤᎵᏃᎯᏴᎯ	-10.8471
▁ᎤᎦᏛᎾᏨᎯ	-10.8471
▁ᏣᎦᏑᎲᎢ	-10.8471
▁ᎠᎪᎲᏍᏔᏅᎯ	-10.8471
▁ᏆᏏᎹ	-10.8471
▁ᎢᎪᏂᏯ	-10.8471
▁ᎢᏥᏁᎫ	-10.8471
▁ᏕᏥᏂᏴᏎᏍᏗ	-10.8471
▁ᏓᏲᏣᏛᏁᎵ	-10.8471
▁ᎠᏁᎸᏗᏍᎨᎢ	-10.8472
▁ᏱᏥᎪᎵᏰᎣ	-10.8472
▁ᏖᎹ	-10.8472
▁ᎬᏲᏎᎭ	-10.8472
▁ᏅᏓᏳᎾᏓᎴᏅᎯ	-10.8472
▁ᏗᎩᏲᎱᏒᎯ	-10.8472
▁ᏧᏃᏚᎯ	-10.8472
▁ᎾᏂᏍᎦᏅᎾ	-10.8472
▁ᏕᎦᏅᏙᎬ	-10.8472
▁ᎦᏗᎨᏂ	-10.8472
ᏙᎴᏋ	-10.8472
▁ᎾᏃᎯᏳᎲᏍᎬᎾ	-10.8472
▁ᏧᏈᏯ	-10.8472
▁ᏩᎩᎷᏣ	-10.8472
ᎩᏏᏕᎩ	-10.8472
▁ᎬᏩᏕᏱᏛ	-10.8472
▁ᎢᏥᏇᏓᎸ	-10.8472
▁ᏄᎾᏛᏁᎵᏙᎸ	-10.8472
▁ᎠᏙᎴᎰᏒᎯ	-10.8472
▁ᎤᎦᏃᏮ	-10.8472
▁ᏓᏓᏛᏂ	-10.8472
▁ᏳᏲᎱᏒ	-10.8472
▁ᏗᎬᏩᏂᏰᎯ	-10.8472
▁ᏗᏂᏃᎨᏂ	-10.8472
▁ᎦᎶᏣᏗ	-10.8472
▁ᎤᏴᎵᎴ	-10.8472
▁ᎢᏳᎾᏓᎳ	-10.8472
▁ᏗᏂᏐᎯ	-10.8472
▁ᏁᏆᎸ	-10.8472
▁ᎤᏆᏛᎩ	-10.8472
▁ᏘᎦᏙᎵ	-10.8472
▁Ꮇ	-10.8472
▁ᏫᏥᏲᎵᎦ	-10.8472
▁ᎢᎬᎾᏕᏅ	-10.8472
▁ᏚᏪᎧᏅᎩ	-10.8472
▁ᎶᏩᏂ	-10.8472
▁ᎦᎵᏆᏚ	-10.8473
▁ᏚᏭᏢᏔᏅᎩ	-10.8473
▁ᎠᏆᏟᏂᎬᏁᎸ	-10.8473
▁ᎠᏂᎱᏣ	-10.8473
▁ᏧᎾᎪᏅᏍᏓᎵ	-10.8473
▁ᎥᏃᏥ	-10.8473
ᏌᎳᏛᎦ	-10.8473
▁ᏧᏬᏢᏅᎯ	-10.8473
▁ᏗᎦᎾᏌᎢ	-10.8473
▁ᏧᎵᎬᏩᏟ	-10.8473
▁ᎢᏯᏓᏛᏁᎯ	-10.8473
▁ᏓᎩᏯᏪᎦ	-10.8473
▁ᏐᏁᎳ	-10.8473
▁ᏗᏟᏍᏙᏗ	-10.8473
▁ᎭᏛᏓᏍᏓ	-10.8473
ᏐᎭᏛ	-10.8473
▁ᎤᎾᏚᎵᏍᎩ	-10.8473
▁ᎠᏂᏃᎮᏍᎨ	-10.8473
▁ᏗᏣᎴᎲᎦ	-10.8473
▁ᎢᏯᏆᎵᏍᏙᏗᏱ	-10.8474
▁ᎪᎢᏳᎲᏍᎦ	-10.8474
▁ᏓᎦᏥᏁᎵ	-10.8474
▁ᏅᏁᎸᎭ	-10.8474
▁ᏗᎩᏴᏫ	-10.8474
▁ᎦᏥᏯᏁᎳᏅᎯ	-10.8474
▁ᏥᏍᎦᎢᎲ	-10.8474
▁ᏅᏓᏳᏅᏏᏛ	-10.8474
▁ᎱᎷᏣ	-10.8474
▁ᏕᎦᏰᏌᏛ	-10.8474
▁ᎤᎾᏙᎴᎰᎯᏍᏙᏗ	-10.8474
▁ᏓᏓᏂᎸᎨᏍᏗ	-10.8475
▁ᎡᏥᏲᎵᎸᎭ	-10.8475
▁ᎠᎬᏓᎨᏂ	-10.8475
▁ᏄᏓᏑᏴᎾ	-10.8475
▁ᎤᏃᎯᏳᎯ	-10.8475
▁ᏅᏓᏍᏆ	-10.8475
▁ᎠᎾᏓᎭᏲᎯ	-10.8476
▁ᏕᏅᏙᎥ	-10.8476
▁ᏗᏥᎸᏫᏍᏓᏁᎯ	-10.8476
▁ᎤᏂᏆᏘᏍᏗ	-10.8476
▁ᎠᏂᎡᎼᎵ	-10.8476
▁ᎠᏆᏕᎶᎰᏒ	-10.8476
▁ᎢᏥᎨᏴ	-10.8476
▁ᎤᎸᏉᏔᏁ	-10.8476
▁ᎠᏆᏛᏅᎢᏍᏗ	-10.8476
ᏡᏔᏂ	-10.8476
▁ᎢᏧᏖ	-10.8477
▁ᏗᏣᎳᏏ	-10.8477
▁ᏗᎭᎾᏬ	-10.8477
ᏲᎵᏍᏗᏱ	-10.8477
▁ᏫᏂᏪᏏ	-10.8477
▁ᏬᏤ	-10.8477
▁ᏦᎨᏥ	-10.8477
▁ᏚᏄᏌᏛ	-10.8477
▁ᎤᏓᏑᏰᏛ	-10.8478
▁ᏗᎦᎪᏙᏗ	-10.8478
▁ᎯᏍᎪᎵ	-10.8478
▁ᎪᏒᏅ	-10.8478
ᏫᏛ	-10.8478
▁ᏓᏂᏴᎬᎢ	-10.8478
▁ᏣᏓᎸᎩ	-10.8479
▁ᏥᎦᏚᎭ	-10.8479
▁ᏓᏂᏴᎨᏍᏗ	-10.8479
▁ᎬᏔᏲᏎᎭ	-10.8479
▁ᎤᏙᎳᏅᏍᏗ	-10.8479
▁ᏓᏂᏄᏙᎬᎢ	-10.8479
▁ᏚᏚᏓᏛᎢ	-10.8479
▁ᎠᎨᏯ	-10.8479
▁ᎢᏤᏅᏍᏗᏱ	-10.8479
▁ᏚᏕᏲᏁ	-10.8479
▁ᎠᏄᏬᎩᎯ	-10.8479
▁ᏓᏥᏁᎵ	-10.848
▁ᏗᏣᎳᏏᏕᏂ	-10.848
▁ᎤᏬᏒᏅ	-10.848
▁ᎡᏈᎳ	-10.848
▁ᏤᎵᎪ	-10.848
▁ᏙᎳᏧᎦ	-10.848
▁ᏭᎩᎶᏫᏎ	-10.848
▁ᏅᏓᏰ	-10.848
▁ᏭᎳᎩᏒ	-10.848
▁ᏧᏲᎯᏍᏗᏱ	-10.8481
▁ᏚᏬᏁᏔᏅᎩ	-10.8481
▁ᎢᏨᏲᏪᎳᏁᎭ	-10.8481
ᏍᎦᎢᏍᏗ	-10.8481
▁ᎠᏂᎩᎾ	-10.8481
▁ᎤᎵᏦᎯᏛ	-10.8481
▁ᏧᎸᏫᏍᏓᏁᎸᎯ	-10.8481
▁ᏇᎵᏏ	-10.8481
▁ᏅᏛᏛᏁᎵ	-10.8482
▁ᏕᎯᎧᏅ	-10.8482
▁ᎾᏏ	-10.8482
▁ᎤᏅᏪ	-10.8482
▁ᏧᏬᏪᎳᏅ	-10.8482
▁ᏗᎦᏁᎲ	-10.8482
▁ᏚᏘᏃᎮᎴᎢ	-10.8483
▁ᏫᏄᏪᏎᎢ	-10.8483
▁ᏣᏔᎳᏬᎯᏍᏗ	-10.8483
▁ᎢᏯᏓᏅᏖᏗ	-10.8483
▁ᎬᏯᎵᎡᎵᏤ	-10.8483
▁ᏚᏏᏔᏛ	-10.8483
▁ᎢᏥᏁᏨ	-10.8484
▁ᎠᏈᎷ	-10.8484
▁ᎠᏌᎳᏙᏗ	-10.8484
▁ᏂᏥᏪᏍᎬ	-10.8485
▁ᏧᎧᎭᏲ	-10.8485
ᏄᏍᏗ	-10.8485
▁ᎡᏍᎦᏂᏳ	-10.8485
▁ᎧᏁᏍᎬ	-10.8485
▁ᎤᎵᏨᏓᏆᏓ	-10.8486
▁ᎴᎻᎩ	-10.8486
▁ᏧᎾᏁᎳᏅᎯ	-10.8486
▁ᎢᏣᎵᏍᏓᏴᏗᏱ	-10.8487
▁ᎠᏁᏙᎭ	-10.8487
▁ᎢᏤᎵᎭ	-10.8487
▁ᏣᏓᏅᏛᎢ	-10.8487
▁ᎢᏨᏁᏗ	-10.8487
▁ᎠᏆᏛᏁᏗᏱ	-10.8487
▁ᎠᏆᏓᏅᏖᏛ	-10.8487
▁ᎤᏲᎱᏎᎮᏍᏗ	-10.8487
▁ᏑᏓᎵᏧᏈ	-10.8487
ᏓᎴᏒ	-10.8487
▁ᎤᏬᏪᎳᏅᎩ	-10.8487
▁ᎠᏓᎬᎿ	-10.8488
-“	-10.8488
▁ᎠᎦᏙᎵ	-10.8488
▁ᎦᏰᎵᏍᏗ	-10.8488
▁ᏣᏍᏆ	-10.8489
▁ᎤᏃᏪᎳᏅ	-10.849
▁ᎠᏂᏍᎦᏰᎬᏍᏓ	-10.849
▁ᎠᏫᏌᏅ	-10.849
▁ᎠᏂᎦᏘᏯ	-10.849
▁ᎠᏤᏍᏙᎩᎯ	-10.8491
▁ᎦᎪᎵᏍᏗ	-10.8491
▁ᏗᏥᎧᎿᏩᏛᏍᏗᏱ	-10.8491
▁ᎠᎺ	-10.8491
▁ᎤᏛᎦᎾ	-10.8491
▁ᏚᏭᎪᏔᏅ	-10.8491
▁ᏚᏪᏴ	-10.8492
▁ᎤᏬᎳ	-10.8492
▁ᎤᏁᏅᏒᎩ	-10.8492
▁ᏓᎾᏠᏱᎲ	-10.8493
▁ᎤᏩᏂᎦᎸᎢ	-10.8493
▁ᏳᏪᎭ	-10.8493
▁ᎤᎾᏄᎪᏥᎸ	-10.8493
ᎩᎾᏝᎢ	-10.8493
▁ᏱᏥᏏᎾ	-10.8493
▁ᎤᏍᏆᏂᎪᏔᏁᎢ	-10.8494
▁ᎤᏂᎾᎥ	-10.8494
▁ᎤᏂᏍᎦᎴᎢ	-10.8494
▁ᎦᏃᎯᎵᏙ	-10.8495
▁ᎤᏪᏙᎴᎢ	-10.8495
▁ᎠᏋᏔᏅᎯ	-10.8495
▁ᎢᏳᏩᎬᏗ	-10.8495
▁ᏗᎫᏍᏙᏍᏗᏱ	-10.8496
▁ᎤᏂᏁᏉᏤ	-10.8497
▁ᎭᏟᏂᎬᏁ	-10.8497
▁ᎾᏥᏪᏎᎴᎢ	-10.8498
▁ᎢᏣᏛᏁᏗ	-10.8498
▁ᎤᎦᎹ	-10.8498
▁ᎤᏂᏃᎮᏗᏱ	-10.8498
▁ᏱᏅᎦ	-10.8499
▁ᎢᏳᏪᏍᏗ	-10.8499
▁ᏧᎾᏛᎾ	-10.8499
▁ᏓᎧᏁ	-10.8499
▁ᏂᏨᏁᎲ	-10.85
▁ᎬᏩᏍᎦᎩ	-10.85
▁ᎾᏥᎤᏍᏕᏎᎸᎾ	-10.85
ᏥᎤᏍᏕᏎᎸᎾ	-10.85
ᏂᎴ	-10.85
▁ᏱᏂᎦᎩ	-10.8502
▁ᏗᏥᏁᏟᏴ	-10.8503
▁ᎤᏕᏔᏅᎯ	-10.8503
ᏁᏉᏣᏘ	-10.8504
▁ᎤᏛᏅᏗᎦᎳᏫᎢᏍᏗᏱ	-10.8505
ᏩᏛᎲᏍᏗᏱ	-10.8505
▁ᎤᎵᏍᎪᎸᏔᏅᎯ	-10.8505
ᏴᎵᎸ	-10.8505
▁ᏤᏣᎧᏃᏗ	-10.8505
▁ᎠᏍᏕᎵᏍᎩ	-10.8507
▁ᎤᏂᏚᎲᎢ	-10.8508
▁ᏥᏄᏍᏛ	-10.8508
▁ᎢᏨᏙᏗᏱ	-10.8509
▁ᏣᎾᏫᏱ	-10.8509
▁ᎠᎩᎷᏤᎸᎩ	-10.8509
▁ᎤᎾᏅᏗᏱ	-10.8509
▁ᎢᏥᏁᏗ	-10.851
▁ᏥᎬᏩ	-10.851
ᎵᏖᎸᏂᏍᏗ	-10.8511
▁ᎢᏣᏁᎳᏅᎯ	-10.8512
▁ᎦᏁᏥᏱ	-10.8513
▁ᎤᏂᏰᎸᎯ	-10.8513
▁ᏭᏓᏒᏍᏔᏁ	-10.8513
▁ᎤᏴᎸᎩ	-10.8513
▁ᏭᏓᎪᎾᏛᏛ	-10.8514
▁ᎤᎦᏔᎲᏎ	-10.8514
▁ᏍᎦᏰᎬᏍᏔ	-10.8515
▁ᎤᏁᏝᏅᎯ	-10.8515
▁ᎱᏂᎷᏤ	-10.8516
▁ᎤᏦᏍᏗ	-10.8516
▁ᏚᏃᏁᎴ	-10.8517
▁ᎯᏄᎪᎢ	-10.8517
▁ᎦᎬᏩᏐᏢ	-10.8518
▁ᎡᏥᏁᎸᎯ	-10.8518
▁ᎣᎨᏅᏒ	-10.8519
▁ᏂᎨᏥᏪᏎᎸ	-10.8519
▁ᏗᎪᏩᏛᏗ	-10.852
▁ᎠᏂᎩᎦᎨ	-10.852
▁ᏧᎾᏍᏗᎦ	-10.8522
▁ᎤᎾᏓᏟᏌᏅ	-10.8523
▁ᏩᎦᏛᎢ	-10.8523
▁ᎠᎾᏗᏍᎬ	-10.8526
▁ᎤᎾᏄᎪᏫᏍᏗᏱ	-10.8526
▁ᎤᎩᎵ	-10.8527
▁ᎤᏔᏪᏙᏁᎢ	-10.8527
▁ᎤᏍᏕᎸᏗᏱ	-10.8528
▁ᎠᎳᏑᎶ	-10.8529
▁ᏓᎪ	-10.8529
▁ᎢᏓᏙᎴᎰᎯᏍᏗ	-10.8529
ᏘᏁᏒᎭ	-10.853
▁ᎠᏩᏛᏗ	-10.853
▁ᎠᎦᏅᎩ	-10.8531
▁ᎤᏅᏙᏗ	-10.8531
▁ᎤᏍᎦᏤ	-10.8531
▁ᎤᏍᏚᏁ	-10.8532
▁ᏌᎻ	-10.8534
▁ᎠᎩᎪᏩᏛᏗᏱ	-10.8534
ᏬᏁᏔᏁ	-10.8535
▁ᎥᏥ	-10.8537
▁ᏧᏪᏥᏛᎯ	-10.8537
▁ᏕᎦᎧᎲᎩ	-10.8537
▁ᎹᎵ	-10.8538
▁ᎤᏬᏢᏁᎢ	-10.8538
▁ᎢᎾᏏ	-10.8538
▁ᎤᏂᏴᏗ	-10.8539
▁ᏧᏓᎴᏁᎢ	-10.854
▁ᏓᏥᏂ	-10.8541
▁ᎦᏁᎮᎢ	-10.8543
ᎴᏁᎯ	-10.8543
▁ᏥᏅᎵ	-10.8543
▁ᎤᏍᏓᏩᏗᏙᎯ	-10.8545
▁Ꮌ	-10.8545
▁ᏓᏍᏛ	-10.8546
▁ᎢᎨᏣᏛᏁᏗ	-10.8548
ᏎᏗᏱ	-10.8548
▁ᎢᏣᎴᏂᏙᎲ	-10.8549
▁ᎦᏆᎵ	-10.8553
▁ᎠᎩᏃᎮᎸ	-10.8553
▁ᎤᎵᏰᏔᏁᎢ	-10.8553
▁ᎤᏄᏬᏍᏗ	-10.8554
ᏍᏗᏰᏗᎭ	-10.8559
▁ᎤᎾᎴᏅᎲ	-10.8562
▁ᏕᎪᏪᎸᎩ	-10.8565
ᏂᏬᏂᎯᏍᏗ	-10.8566
▁ᎣᎩᎾᎵᎪ	-10.8567
▁ᏭᏴᎸᎩ	-10.8567
▁ᏂᏣᏛᏁᎲᎢ	-10.8569
▁ᏗᎦᎫᏍᏛᏗᏱ	-10.8571
▁ᎤᎶᎨᏒᎢ	-10.8574
▁ᎤᏄᎸ	-10.8575
▁ᎠᏫᏒᎯ	-10.8575
▁ᏧᎦ	-10.8576
▁ᎤᏰᎬ	-10.8577
▁ᏧᏃᎸ	-10.8578
▁ᏩᎩᎦ	-10.8578
▁ᎤᏬᏢᏅᎢ	-10.8578
▁ᏭᎷᏤᎴᎢ	-10.8578
ᏥᏁᎢᏍᏗᎭ	-10.858
▁ᏓᏟᎶᏍᏛᎢ	-10.8581
▁ᎤᏍᏓᎦᎸᎢ	-10.8581
▁ᎦᎵᎷᎨᏍᏗ	-10.8584
▁ᎠᏇᎵᏒᎩ	-10.8585
ᏕᎪᎢ	-10.8586
▁ᏥᏂᎨᎬᏁ	-10.8587
ill	-10.8587
▁ᎧᏃᎮᏍᎬᎩ	-10.8587
▁ᏂᏗᎨ	-10.8588
▁ᏱᏍᏛ	-10.8589
ᎧᎸ	-10.859
▁ᎤᏬᎭ	-10.8592
▁ᎤᏂᏴᎮᎢ	-10.8594
▁ᎤᏬᏎᎴᎢ	-10.8597
▁ᏦᎨ	-10.8598
ᎵᏓᏍᏔᏅ	-10.8602
▁ᏎᎳᎩ	-10.8606
▁ᎦᏲᏟᎨ	-10.8607
ᎶᎸᏗ	-10.8608
▁ᏧᏩᎫᏔᏅᏒᎢ	-10.861
ᏢᏂ	-10.8611
ᏓᏅᎡᎮᏍᏗ	-10.8612
ᏘᏱ	-10.8614
ᎠᎩᏏᏙᎯ	-10.8615
▁ᎤᎾᏙᎴᎰᏒᎩ	-10.8618
ᏕᎶᎰᏌ	-10.8618
ᏩᏔ	-10.8618
▁ᎭᏕᏬ	-10.8619
ᎵᏎᎲ	-10.862
ᏯᏪᎢᏍᏗ	-10.8622
▁ᎬᏩᎦ	-10.8623
▁ᏚᏂᎪᎲ	-10.8623
▁ᎯᏌ	-10.8624
▁ᏣᎧᏛᎢ	-10.8625
▁ᎾᏆᏛᏁᎸᎢ	-10.8626
▁ᎬᏩᎷᏤᎴᎢ	-10.8631
ᏚᎵᏍᎪ	-10.8632
ᏛᏛᎾ	-10.8632
▁ᎡᏙᎲᎩ	-10.8638
▁ᎨᏙᎲᎢ	-10.8642
ᎦᎶᎨᏒ	-10.8643
▁ᎠᏂᏁᎬᎢ	-10.8644
▁ᎾᏛᏁᎲᎢ	-10.8645
ᏚᏓᎴᏍᏗᏱ	-10.8646
▁ᏤᏏ	-10.8648
▁ᎦᎵᏦᏙᏗ	-10.8648
ᎳᏗᏍᎬ	-10.8649
▁ᎦᏁᎯ	-10.8652
▁ᎠᏥᎾ	-10.8653
▁ᏯᎩᏰᎸ	-10.866
▁ᏏᎦ	-10.866
▁ᎠᎩᎲ	-10.8662
▁ᎢᏌ	-10.8664
▁ᎤᏂᎾ	-10.8665
▁ᎾᏛᎦ	-10.8666
▁ᎢᏥᎲᎢ	-10.8666
▁ᎤᏪᎭ	-10.8667
▁ᏥᎳ	-10.867
▁ᏓᏫᏒᎢ	-10.8672
▁ᏧᎾᏗᏔᏍᏗ	-10.8675
▁ᏣᏍᎦᏅᏨ	-10.8676
ᎵᏍᎪᎸᏙᏗ	-10.8677
▁ᎢᏢ	-10.8678
▁ᎠᎢᏎ	-10.8685
ᏙᎡᏍᏗ	-10.8685
▁ᏚᎷᎬ	-10.8686
▁ᎡᎳᏂᎬᎢ	-10.8686
ᎩᏳᏍᏈᏛ	-10.8689
ᏍᏚᏟᏍᏗ	-10.8691
▁ᏙᏓᎸᎢ	-10.8694
▁ᎤᏄᏪ	-10.8694
ha	-10.8698
▁ᏕᎨᏒ	-10.8705
▁ᏕᎯᏁᎸ	-10.8709
▁ᏥᎩᎵᏲᎬ	-10.8722
▁ᎤᏚᎸᎲ	-10.8724
▁ᎠᎾᎢᏒᎢ	-10.8728
▁ᎠᎦᎵᏍᎪᎸᏓᏁᎸ	-10.8729
▁ᏁᏣ	-10.8735
ᏱᏆ	-10.8737
▁ᎤᏕᎸ	-10.8739
ᏌᏛᏗ	-10.874
▁ᎤᏁᎳᏅ	-10.8744
▁ᏄᎳ	-10.8745
ᏴᎮᎢ	-10.8746
ᎵᏍᏗᏍᎩ	-10.8746
▁ᏗᏟ	-10.8746
▁ᏗᏍᎩᎧᏁ	-10.8747
ᏫᏍᎩ	-10.8757
ᎧᎾ	-10.876
▁ᏓᏓᏁᎸᎢ	-10.876
ᏌᏛᎥᏍᎩ	-10.8767
▁ᏕᎦᏚᎲᎢ	-10.8773
▁ᎦᎳᎨᏴᎢ	-10.8773
▁ᏂᏣᏛᏁᎸᎢ	-10.8773
▁ᎠᏣ	-10.8774
▁ᎤᎷᏨᎯ	-10.8776
▁ᎡᏏ	-10.878
▁ᏂᎩ	-10.8781
▁ᏙᎤ	-10.8781
▁ᏓᏆᏙᎥᎢ	-10.8788
▁ᎢᏥᏍᏆ	-10.8789
ᎤᏣ	-10.879
ᏓᎴᎾᏍᏗ	-10.8792
▁ᏅᎩᏃ	-10.8794
▁ᎵᏍᏗ	-10.8797
▁ᎩᏓ	-10.8799
▁ᎤᏓᏅᏖᎢ	-10.8799
ᏬᎭ	-10.8802
▁ᎤᏃᏢᏅ	-10.8807
▁ᏂᏣᏍᏛ	-10.8811
▁ᎭᏗᏔ	-10.8812
▁ᎬᏩᏛᏛ	-10.8813
▁ᎦᎸᏍᏗ	-10.8816
ᏂᏲᏏᏍᎩ	-10.8819
ᎵᎭ	-10.882
ᎵᏦᏩᏛ	-10.8821
▁ᎤᏓᎨᏳ	-10.8835
ᏏᎳᏛ	-10.8838
▁ᏔᎵᏍᎪ	-10.8844
ᏓᎾᏫᏛᎮ	-10.8849
▁ᎤᏕᎵ	-10.8859
ᏰᎸ	-10.886
▁ᏥᏂᎦ	-10.8862
▁ᎠᏂᏬᏂᏍᎬᎢ	-10.8862
▁ᎠᏍᎩ	-10.8869
▁ᏣᎬ	-10.887
▁ᎢᏆ	-10.8884
▁ᏏᏆᏏ	-10.8885
▁ᏱᏣᏓᏅᏖ	-10.889
▁ᏇᎳ	-10.8899
▁ᎠᏑ	-10.8901
▁ᎠᎵᏍᏓᏴᏗᏱ	-10.8902
ᏙᎴ	-10.8902
▁ᏥᏫ	-10.8904
▁ᎠᎾᏛᎩᏍᎨ	-10.8904
▁ᎤᏛᎦᏁᎢ	-10.891
ᏏᏂ	-10.8918
ᏂᏍᏆᏂᎪ	-10.892
▁ᎦᎬ	-10.8928
ᎾᏄᎪᏫᏍᎨᏍᏗ	-10.8933
ᎵᏱᎶᎯᏍᏗ	-10.8935
ᏛᏁᎲᎢ	-10.8936
▁ᏥᏰᎸ	-10.8938
▁ᎦᏳ	-10.8939
▁ᎠᏏᎾ	-10.8953
ᏰᎲ	-10.8959
▁ᏂᏚᏓᎴ	-10.8965
ᏙᎵᎩ	-10.8971
▁ᏃᏉᏗ	-10.8981
▁ᎤᎶᏎ	-10.8985
ᎩᏯ	-10.8985
ᎯᏗᏳ	-10.8986
▁ᏄᏅᏁ	-10.8996
ᏓᏅᏖᏙᏗ	-10.8997
ᏯᎡᏍᏗ	-10.8999
ᎵᏍᎪᎸᏓᏏ	-10.9004
ᏝᎡ	-10.901
ᏏᏏ	-10.901
▁ᏱᏂᏣᏛᏁ	-10.9016
▁ᏚᏂᎸ	-10.9017
▁ᎢᏥᎷᏤᎸ	-10.9024
ᏏᏔᏛ	-10.9027
ᏯᏔᏬ	-10.9028
▁ᏳᏰᎸ	-10.9029
▁ᎨᏍ	-10.9031
▁ᎠᎾᏓᏙᎵᏍᏗᏍᎨ	-10.9035
▁ᏕᏗ	-10.9039
ᏅᏁᎮᏍᏗ	-10.9042
▁ᎢᏍᏕ	-10.9045
▁ᏥᎦᏔᎲ	-10.905
ᎦᏍᎪ	-10.9052
ᏟᏂᎬᎬ	-10.9066
ᏰᎵᏉ	-10.9067
▁ᎠᏍᏆᏂᎪᏗᏍᎨ	-10.9088
ᏕᏘᏱ	-10.9089
▁ᏂᎬᏁᎮ	-10.9096
▁ᎢᎸ	-10.9111
ᎰᎸ	-10.9113
▁ᎯᏴ	-10.9116
▁ᎤᎩᏒ	-10.9124
▁ᎤᏭᏢ	-10.9127
▁ᎤᏂᎬᏫᏳ	-10.9144
ᏍᏗᎭ	-10.9144
ᎷᏤ	-10.915
ᏗᎦᏅᎯᏛ	-10.9166
▁ᏍᎩᏰᎸᏗ	-10.9169
▁ᏍᎩᏳ	-10.9181
▁ᏧᏲᎯᏎᏗ	-10.9181
▁ᏭᏍᏗ	-10.9182
▁ᏣᎵᏍᎪᎸᏙᏗ	-10.9193
ᏰᎵᏎ	-10.9194
▁ᏂᏚᏅ	-10.9199
▁ᏧᏁᏤ	-10.9208
▁ᎡᏙ	-10.9209
▁ᎣᏍ	-10.9213
▁ᎠᏆᏓ	-10.9217
▁ᎢᎡ	-10.9217
ᎵᏍᎦᏍᏙᏗ	-10.9228
ᏥᎾᏄᎪᏫᏏ	-10.923
ᏂᎲ	-10.9237
ᏛᏅᎩ	-10.924
ᏅᏍᏓᏕᎸᎩ	-10.9247
▁ᎾᏛᏁᎰ	-10.927
▁ᎠᏁᎲᎩ	-10.927
▁ᎾᏥ	-10.9278
▁ᎠᏂᏤ	-10.9287
▁ᎤᏆ	-10.9294
ᏘᏃᎦ	-10.9294
▁ᎤᏍᏆᎸᎯᏗ	-10.9308
▁ᏰᎵᎦ	-10.9321
ᎾᏗ	-10.9324
ᏓᏎᎪᎩ	-10.9332
▁ᎠᎪᎢ	-10.9336
ᏤᎴ	-10.9337
ᏚᏃᏴᎬ	-10.9338
▁Ꮢ	-10.9339
ᎸᏍᏗᏱ	-10.9344
▁ᎠᏓᏲᏁ	-10.9356
ᎬᏓ	-10.9357
ᏓᏁᎸᎯ	-10.9361
ᏐᏁ	-10.9362
ᏐᏗ	-10.9363
▁ᎢᏗᎦ	-10.9365
▁ᎢᏥᎭ	-10.9368
ᏒᎲᏍᏗ	-10.9372
▁ᎪᏢ	-10.9372
ᎾᎲ	-10.9377
ᎸᏓ	-10.9383
ᏬᎢ	-10.9384
▁ᏚᏓ	-10.9385
▁ᎣᏤ	-10.9387
▁ᏣᏁᎩ	-10.9392
ᎳᏗᏍᏗ	-10.941
ᏲᎯᏎᏗᏱ	-10.9418
▁ᎠᏫᏃ	-10.943
ᏗᏅᏓ	-10.9432
▁ᎾᏯ	-10.9433
▁ᏦᎢᎭ	-10.9439
ᏍᏗᏍᎨ	-10.9462
ᏩᏗᏒᎢ	-10.9463
ᏓᏬᎯᎳ	-10.9472
ᏙᏂ	-10.9476
▁ᎤᎵᏏᏅ	-10.948
▁ᏆᎾ	-10.9497
▁ᎤᎵᎢ	-10.9504
ᎦᏕ	-10.9506
▁ᏫᏱ	-10.9519
ᎨᎯᏓᏍᏗ	-10.952
ᏥᎦᏔᎲᎾ	-10.9525
ᎲᏍᎨᎢ	-10.9526
ᏁᎰ	-10.9527
ᎪᎦ	-10.9528
ᎯᎮᏍᏗ	-10.9531
ᎩᎨᏳᎯᏳ	-10.9533
ᏢᏅᎩ	-10.9549
▁ᏓᏌ	-10.9565
▁ᎢᏲ	-10.9566
ᎮᎾ	-10.9567
ᏍᏇᏚ	-10.9572
ᎾᏛᎦ	-10.958
ᎩᎵ	-10.9585
ᎪᎩ	-10.9587
ᏤᏗ	-10.9595
ᏓᏁᏗᏱ	-10.9596
ᏌᏕ	-10.9596
ᏴᏔᏁᎢ	-10.9598
ᎵᏓᏍᏗᏱ	-10.9605
ᎾᏔ	-10.9607
▁ᏙᏣ	-10.9613
ᏥᎦᏔᎭ	-10.962
▁ᎢᏥᏍᏆᏂᎪ	-10.9622
ᏰᎸᏍᎬ	-10.9623
ᏍᏕᎾ	-10.9625
ᎳᎩᏍᏗ	-10.9638
▁ᎤᏪᏅ	-10.9641
ᏛᏁᎭ	-10.9642
▁ᏣᏓᏰ	-10.9645
▁ᏰᏣ	-10.9646
▁ᎦᏘ	-10.966
ᏦᎯ	-10.9697
▁ᎯᏃ	-10.9698
▁ᎠᎾᏘ	-10.9705
ᎩᏏ	-10.9706
ᏅᏤᎢ	-10.9707
ᎸᏅᎯ	-10.9708
ᏤᎷᎯᏒ	-10.972
ᏘᏅᏒᎩ	-10.9724
ᏡᎬ	-10.9738
ᏌᏅ	-10.9749
ᏛᏂᏏ	-10.9755
▁ᎠᏏᏴᏫᏉ	-10.9756
▁ᏥᏕᏥ	-10.9763
▁ᎬᎾᏬ	-10.9763
▁ᏱᏙᎩ	-10.977
ᏅᏔ	-10.9773
▁ᎦᎶᏁᏛᏰᏃ	-10.978
ᎵᏍᎪᎸᏙᏗᏱ	-10.9788
ᎦᏬᏂᎯᏍᏗ	-10.9788
ᏥᏁᏤᎸ	-10.979
▁ᎤᏪᏯ	-10.9792
ᎪᎳ	-10.9795
▁ᎠᏂᏉ	-10.9803
ᏰᏍᏗ	-10.9806
ᏕᏅᎯ	-10.9807
▁ᏱᏣᏓ	-10.9823
ᏎᎮᏍᏗ	-10.983
ᎦᏎᏍᏕᏍᏗ	-10.9839
ᏛᏁ	-10.9845
ᏍᏆᏂᎩᏗ	-10.9847
ᏬᏣ	-10.9855
ᏑᏫᏓ	-10.9863
▁ᎠᏚᎢᏍ	-10.9867
▁ᏂᎦᏪ	-10.987
▁ᎠᎵᏥᏙ	-10.9876
ᏂᏴᏛ	-10.9895
▁ᏚᏂᏍᏚ	-10.9896
ᎧᏯ	-10.9901
ᏁᎳᎩ	-10.9902
ᎪᏩᏘᏍᎬᎾ	-10.9905
ᏕᎰ	-10.9908
▁ᏘᏅ	-10.9911
▁ᎤᏰᎸ	-10.9913
▁ᎢᎤ	-10.9917
▁ᏳᏓ	-10.9924
▁ᎩᏂ	-10.9928
ᎻᏂ	-10.9933
ᎦᏅᏓᏗᏍᏙᏗ	-10.9945
▁ᏂᏯ	-10.9945
ᏯᏙ	-10.9952
▁ᎠᏂᏧᏏᏃ	-10.9957
ᏄᎪ	-10.9957
▁ᎦᎵᏦ	-10.9958
ᏍᏗᏉ	-10.9959
ᏂᎯ	-10.9959
▁ᎤᏩᏗ	-10.9959
▁ᏥᏍ	-10.9969
ᏍᎦᎳᏁᎸ	-10.9974
▁ᎠᎦᏓ	-10.9985
ᏞᎢ	-10.9991
ᏙᎭ	-10.9993
▁ᏓᏥᏲ	-10.9995
ᎪᏎᎭ	-11.0003
ᏤᎦᏈᏃ	-11.0004
▁ᎦᎶᏗ	-11.0013
ᎵᏍᏕᎵᏍᎬ	-11.0025
ᏛᏁᎯ	-11.0027
ᎾᎵ	-11.0029
ᏯᏅᏗ	-11.003
▁ᎤᏓᏁ	-11.0037
ᏓᎾ	-11.0041
▁ᏣᎫ	-11.0063
ᏍᏔᎾ	-11.0068
▁ᏱᏂᎪ	-11.0073
▁ᎠᎩᏁ	-11.0077
▁ᏧᏂᏅ	-11.0079
▁ᏚᏂᏁ	-11.0079
▁ᎢᏣᏓᏅᏖ	-11.0089
ᎦᏔᏁᎢ	-11.0092
▁ᏓᏛ	-11.0107
ᏟᏐᏗᏱ	-11.0118
ᎯᏉ	-11.012
ᏖᎢ	-11.0131
▁ᏂᎤ	-11.0133
ᏲᏍᎬ	-11.0134
ᏁᏤᏗᏱ	-11.014
▁ᎤᏅᏤ	-11.0142
▁ᎢᏥᏍᎦᎾ	-11.0151
ᎦᏔᎮᏍᏗ	-11.0155
▁ᎢᏗᏣ	-11.0158
ᏘᏄᎦ	-11.0163
▁ᎠᏂᏍᎦᎢᎮ	-11.0168
ᎾᏄᎪᏫᏍᏗᏱ	-11.0171
ᎪᏕᏍᏗ	-11.0173
ᏴᏛ	-11.0177
ᏎᎮ	-11.0181
▁ᎤᏂᏩ	-11.0189
ᎷᏥ	-11.0194
▁ᏂᏚᏩ	-11.0196
ᏣᏛ	-11.0201
ᎵᎰ	-11.0208
▁ᎠᏎᎵ	-11.0212
▁ᎠᏂᏍᎦ	-11.022
ᎬᏩᎶᏓᏁ	-11.022
▁ᎯᏥ	-11.0238
▁ᏛᏆ	-11.0241
▁ᎦᏬᏂ	-11.0245
▁ᎠᏥᎸᏳ	-11.0248
ᏚᎯ	-11.0257
▁ᎠᏲᎱ	-11.026
ᎦᏄᎪᏫᏍᎦ	-11.026
ᏇᏅᎯ	-11.0262
ᏓᏍᏕᎸᏗ	-11.0262
▁ᏗᏂᏅ	-11.0262
ᏔᏲᏎᎭ	-11.0263
ᏛᏗᏍᎩ	-11.0266
▁ᎤᏲᎢᏍᏗ	-11.0274
▁ᏙᎩᏂ	-11.0286
▁ᏧᏲ	-11.0288
▁ᏕᏍ	-11.0289
ᏅᏓᏛ	-11.0291
▁ᎤᏪᎵ	-11.0292
ᏄᏬᏍᏗ	-11.0293
▁ᎤᏁᏙᎸ	-11.0294
▁ᎠᏚᏓᎴᏍᏗ	-11.0302
▁ᏤᏈᏛ	-11.0308
▁ᎤᎾᏣᎢ	-11.0308
ᏂᏙᎲ	-11.0313
ᏁᎾ	-11.0315
▁ᏣᏤᏍᏙ	-11.032
▁ᎤᏚᎵ	-11.0328
▁ᏱᎬᎩ	-11.0329
▁ᏚᎾᎵ	-11.0333
▁ᏙᏓᎧ	-11.0339
▁ᏦᎩᏂ	-11.0346
▁ᎦᏬᏂᏍᎨ	-11.0351
ᏯᏗ	-11.0353
ᏍᏆᎳ	-11.0355
▁ᏱᏅ	-11.0357
▁ᎤᏂᏰᎸᏎ	-11.0361
ᏂᎵ	-11.0371
ᎬᎭ	-11.0375
▁ᏫᏚᎧᎾᏁ	-11.0375
▁ᎦᏍᎩᏓᏍᎬ	-11.0375
▁ᎠᏥᏃᏁᎴ	-11.0375
▁ᏙᎩᎸᏫᏍᏓᏁᎲ	-11.0376
▁ᎢᏛᏗᏍᎬ	-11.0379
▁ᏥᏨ	-11.038
▁ᎠᎾᏛᎩᏍᎬ	-11.038
▁ᎠᎾᎵᎮᎵᎬ	-11.0382
ᏓᏍᏗᏱ	-11.0382
▁ᎤᏃᎯᏳᏒ	-11.0386
▁ᏕᎤᎷᎬ	-11.0387
▁ᏗᎩᏲ	-11.0388
ᎨᎾ	-11.0388
▁ᏂᏓᏕᏘᏴᎯᏒ	-11.0388
▁ᎠᏂᎩᎵᏲᎬ	-11.0388
ᎾᏰᎯᏍᏗ	-11.0388
ᏟᏏᏍᎪ	-11.0389
ᎡᏝᏪᎯ	-11.039
ᎢᏏᎵ	-11.039
▁ᎤᏒᏂᎴ	-11.0393
▁ᏗᎾᏓᎪᎾᏗᏍᎬ	-11.0393
▁ᎯᏁᎬ	-11.0394
ᏴᏔᏂᎸ	-11.0394
▁ᎤᏃᎯᏳᏅ	-11.0394
ᎠᎳᏂ	-11.0394
▁ᎠᏂᎧᎸ	-11.0395
ᎾᏄᎪᏫᏎ	-11.0395
▁ᎤᏁᎷᏁ	-11.0396
ᎠᏍᎦᏯ	-11.0396
▁ᎠᎩᏍᏛᏗᏍᎬ	-11.0397
▁ᏚᎪ	-11.0397
▁ᎠᎬᏗᏍᎬ	-11.0399
▁ᎠᎾᏕᎲᏍᎬ	-11.0399
▁ᎤᏓᏙᎵᏍᏔᏅ	-11.0401
▁ᎤᏍᏗᏰᏔᏁ	-11.0402
▁ᎤᎾᏓᏙᎵᏍᏔᏅ	-11.0406
▁ᎾᏆᎵᏍᏔᏅ	-11.0408
▁ᎪᏙ	-11.041
ᏆᎴ	-11.0412
ᏄᏕᏘᏴᎲ	-11.0412
▁ᎦᏓᏙᎵᏍᏗᏍᎬ	-11.0414
▁ᏓᎾᎵ	-11.0416
▁ᎢᏗᏂ	-11.0418
▁ᎠᏇᏅᏒ	-11.0418
▁ᎤᏦᎯ	-11.0419
▁ᎤᏂᏰᎸᏅ	-11.042
▁ᏭᏂᎶᏒ	-11.0421
▁ᎤᏪᎧᏅ	-11.0421
▁ᏥᏃᎮᏍᎬ	-11.0423
▁ᏅᏓᎦᎵᏍᏙᏗᏍᎬ	-11.0423
▁ᎠᎾᏓᎪᎾᏗᏍᎬ	-11.0425
ᎸᏙᏗ	-11.0427
▁ᎠᏉᏪᎳᏅ	-11.0428
ᏈᎳ	-11.0429
▁ᏧᎶᏒ	-11.0429
▁ᏗᎦᏁᎸ	-11.0429
ᎵᏍᏓᏴᏙᏗ	-11.0431
▁ᏅᏗᎦᎵᏍᏙ	-11.0432
▁ᏧᏓᎴᏁ	-11.0433
▁ᏭᏓᎪᎾᏛ	-11.0434
▁ᏨᏌ	-11.0435
▁ᎠᏁᎵ	-11.0435
ᎠᏁᎯ	-11.0436
▁ᎢᏯᏅᏁ	-11.0436
▁ᏦᎢᏉ	-11.0437
▁ᎤᏙᎯᏳᏁ	-11.0438
▁ᏧᎾᏛᏐᏅ	-11.0439
▁ᎠᎪᏎ	-11.0441
▁ᎢᏓᎵᎮᎵ	-11.0441
▁ᏗᎩᎾᏫ	-11.0442
▁ᎢᏳᎵᏍᏔᏂᏓᏍᏗ	-11.0445
▁ᏗᎪᏪᎳᏅ	-11.0446
ᏁᎵᏍᎬᎾ	-11.0446
ᏥᎾᏝᎥᎾ	-11.0447
▁ᎨᏥᏛᏙᏗ	-11.0447
▁ᏕᏣᏓᏂᎸᏨ	-11.0448
ᏲᎯᎲ	-11.0448
ᏎᎪᎩᏍᏗ	-11.0448
▁ᎹᏓ	-11.0448
▁ᏂᎦᎵᏍᏔᏅ	-11.0449
▁ᏭᏂᎶᎯᏍᏗ	-11.0449
▁ᏗᏥᎧᎿᏩᏛᏍᏗ	-11.045
▁ᏫᏙ	-11.045
▁ᏓᎦᏥᏯ	-11.0451
▁ᏗᏍᏆᏂᎪᏙᏗ	-11.0452
▁ᏣᏍᏆᏂᎪᏙᏗ	-11.0454
▁ᏭᎶᎯᏍᏗ	-11.0458
▁ᏗᎦᎵᏦ	-11.0458
▁ᎢᏳᏟᎶ	-11.046
▁ᎤᏂᏃᎮᏗ	-11.0462
▁ᎤᎵᏂᎩᏗ	-11.0462
▁ᏗᏣᎸᏫᏍᏓᏁᏗ	-11.0464
▁ᏩᏥᎳ	-11.0464
▁ᎪᎵᎬ	-11.0464
ᏠᎾᏍᏛᎾ	-11.0465
ᏁᏔᏁ	-11.0465
▁ᏩᎾᎢ	-11.0466
ᎰᏢᏅᎭ	-11.0467
es	-11.0467
ᏦᎢ	-11.0469
dinot	-11.0471
▁ᎠᎰᎵᏆᎹ	-11.0471
▁ᎤᎧᏖᏃᎴ	-11.0471
▁ᎤᎬᏩᎳ	-11.0471
▁ᎤᏓᏥᎾᏍ	-11.0471
▁ᎱᏁᏅᏎ	-11.0471
▁ᎾᎵᏍᏓᏴᎲᏍᎬᎾ	-11.0471
▁ᏂᏥᎪᎸᎾ	-11.0471
▁ᏂᏥᏪᎠ	-11.0471
▁ᏕᏏᎶᏂᎦ	-11.0471
▁ᏗᎦᏃᏣᏝᏍᎩ	-11.0471
▁ᏗᎦᏌᏆᎸ	-11.0471
▁ᏧᎾᏍᏕᏥ	-11.0471
▁ᏧᏂᎳᎾᎢ	-11.0471
▁ᏧᏩᏗᏔᏯ	-11.0471
▁ᏬᎩᎶᏒᎩ	-11.0471
▁ᏭᎩᏨᏅ	-11.0471
▁ᏱᏅᏎᎦᎩ	-11.0471
▁ᎠᏳᎾᎦ	-11.0471
▁ᎤᏔᎳᏬᏎᎢ	-11.0471
▁ᏂᏣᏛᎿᏕᎨᏍᏗ	-11.0471
▁ᎤᏔᎴᎦᏒ	-11.0471
▁ᎤᏕᏯᏔᏁᎴ	-11.0471
▁ᎤᏩᏯᎨᎢ	-11.0471
▁ᏱᏕᏍᎬᏏ	-11.0471
▁ᎤᏓᏩᏗᏍᏙᏛ	-11.0471
▁ᏄᎾᏓᏅᏛᎾ	-11.0471
▁ᏍᎩᏁᎲᏏ	-11.0471
▁ᏗᎦᏩᏒᎩ	-11.0471
▁ᎾᏅᏛᏁᎰ	-11.0471
▁ᏅᏧᎵᏍᏙᏔᏁ	-11.0471
▁ᎠᎩᏍᏓᏩᏕᎨᏍᏗ	-11.0471
▁ᎠᎵᏰᎢᎶᎸᎭ	-11.0471
▁ᎢᏣᏛᏅᎢᏍᏙᎢ	-11.0471
▁ᎣᏍᏓᏓᏤᎵ	-11.0471
▁ᎤᏁᎳᏫᏎᎸ	-11.0471
▁ᎨᎢᎾᏂ	-11.0471
▁ᏗᏔᎳᏗᏍᏗᏱ	-11.0471
▁ᏗᏠᏍᎩ	-11.0471
▁ᏥᏂᏥᏪᎭ	-11.0471
▁ᎠᏓᏪᎵᎩᏍᎩ	-11.0471
▁ᏄᎾᏛᎾᏕᎬ	-11.0471
▁ᏫᏂᏨᎦ	-11.0471
▁ᎤᏍᏔᏩᏛ	-11.0471
▁ᎤᎬᏩᎴ	-11.0471
▁ᏙᏓᎫᎪᏓᏁᎵ	-11.0471
▁ᏅᏓᏣᏓᎴᏅᎯ	-11.0471
▁ᏂᎪᎯᏳᎲᏍᎬᎾ	-11.0471
▁ᏗᎫᎪᏓᏁᎯ	-11.0471
▁ᏧᏯᏍᎦ	-11.0471
▁ᎢᎦᏪᏍᎩ	-11.0471
▁ᎥᎨᏒᎩ	-11.0471
ᏁᏉᏣᏖᏍᏗ	-11.0471
▁ᎢᎬᏩᎾᏛᏁᏗ	-11.0471
▁ᎤᎬᏩᎸ	-11.0471
▁ᎤᎵᏘᎾᎥ	-11.0471
▁ᏥᏕᏣᎪᎲᎩ	-11.0471
▁ᏅᏓᏥᏴᏁᎵ	-11.0471
▁ᏴᎦᏥᏛᏓ	-11.0471
▁ᏂᎬᏠᏍᎬᎾ	-11.0471
▁ᎠᎵᏛᏓ	-11.0471
▁ᎠᎨᏲᏅ	-11.0471
▁ᏍᎨᏫ	-11.0471
▁ᏣᏃᎮᎸᎩ	-11.0471
▁ᏱᏂᎦᏛᏁᎭ	-11.0471
▁ᏗᎪᏏᏏᏍᎩ	-11.0472
▁ᏤᎿᎠ	-11.0472
▁ᎥᏓᎷᎶᏗ	-11.0472
▁ᏕᎭᏓᏅᎡᎮᏍᏗ	-11.0472
▁ᏧᎾᎴᏐᏛ	-11.0472
▁ᏗᏂᎧᎿᏩᏕᎩ	-11.0472
▁ᏥᏨᏰᎳᏗᏙᎲᎩ	-11.0472
▁ᎤᏩᏃᏪ	-11.0472
▁ᏥᏚᎸᏫᏍᏓᏁᎭ	-11.0472
▁ᏕᎪᏢᏎᏍᏗ	-11.0472
▁ᏚᏜᏅᏛ	-11.0472
▁ᏂᏕᎤᏍᏕᏍᏗ	-11.0472
▁ᎣᎾᏂ	-11.0472
▁ᏔᏘᏂᏙᎯ	-11.0472
▁ᏅᏓᎬᏯᏛᏁᎵ	-11.0472
▁ᎤᎾᏗᎦᎴᏲᏨᎯ	-11.0472
▁ᏄᏍᎦᏅᏨᎾ	-11.0472
▁ᏂᎩᏴᏁᎸ	-11.0472
▁ᏕᎯᏁᏤᎮᏍᏗ	-11.0472
▁ᎰᏌᎾ	-11.0472
▁ᎤᎾᎵᏍᏔᏴᏗ	-11.0472
▁ᏂᎨᎵᏍᎬ	-11.0472
▁ᏗᎾᏂᏏᎲᏍᎩ	-11.0472
▁ᎤᏩᎾᏕ	-11.0472
▁ᎠᎾᏛᏁᎵᏍᎩ	-11.0472
▁ᏕᏥᏙᎨᏍᏗ	-11.0472
▁ᏗᏣᏓᎵᎢ	-11.0472
▁ᏍᎩᏲᎮᏍᏗ	-11.0472
▁ᏗᏥᏲᎱᏒᎯ	-11.0472
▁ᎤᏄᏬᏍᏕᏍᏗ	-11.0472
▁ᏂᏪᏍᎬᎢ	-11.0472
ᏤᏬᎩ	-11.0472
▁Ꮰ	-11.0472
▁ᏂᏑᏪᏎᎴᎢ	-11.0472
ans	-11.0472
▁ᏅᏓᏨᏁᎵ	-11.0472
▁ᏱᏄᏪᏒ	-11.0472
ᎵᏍᎪᎸᏗᏍᎨᏍᏗ	-11.0472
▁ᏗᏂᏲᎤᎵ	-11.0472
▁ᎤᏂᎾᏰᏎᎢ	-11.0472
ᎸᏂᏗᏍᎩ	-11.0473
▁ᎢᏣᎦᏌᏯᏍᏓ	-11.0473
▁ᎠᎩᏍᎦᏅᏥᏙᎸᎢ	-11.0473
▁ᎠᎾᏁᎸᏗᏍᎬ	-11.0473
▁ᎢᏳᏩᎦᏘ	-11.0473
▁ᏚᏌᎯᎸ	-11.0473
▁ᏂᏥᏍᎦᎢᎲᎾ	-11.0473
ᎾᏌᎾᎩ	-11.0473
▁ᏚᏓᏂᎸᏨ	-11.0473
▁ᏧᎾᏘᏂᏙᎯ	-11.0473
▁ᏂᎦᏪᏍᎪᎢ	-11.0473
▁ᏗᏣᏘᏂᏙᎯ	-11.0473
▁ᎤᏂᏃᏁᏗᏱ	-11.0473
ay	-11.0473
ᏙᎴᏇ	-11.0473
▁ᎤᏁᎾᎢ	-11.0473
▁ᎤᏃᏢᏔᏅᎩ	-11.0473
▁ᎨᎵᏌᏕ	-11.0473
▁ᎬᏩᎾᎦᏌᏯᏍᏗᏕᎩ	-11.0473
▁ᎨᎦᎫᏴᏓᏁᏗ	-11.0473
▁ᏚᏆᏛ	-11.0473
▁ᏗᎾᏓᎾᏌᎲᏍᎩ	-11.0474
▁ᏙᏛᏛᏔᏂ	-11.0474
▁ᎭᏓᏅᏓᏓ	-11.0474
▁ᏗᏕᏲᎲᏍᎩ	-11.0474
▁ᏧᏔᎾᎶ	-11.0474
▁ᎤᏛᏒ	-11.0474
▁ᏲᏥᎦᏔᎭ	-11.0474
▁ᎢᏨᏰᎳᏗᏙᎭ	-11.0474
▁ᎢᏣᏓᏅᏟ	-11.0474
▁ᎦᏙᎴᎣᏍ	-11.0474
▁ᏧᎳᏏᏕᏅ	-11.0474
▁ᏂᎦᏚᏏᏁ	-11.0474
▁ᎠᎵᏍᎦᏁᏛ	-11.0474
▁ᎤᏗᏌᏓᏛ	-11.0474
▁ᎠᏂᎶᎻ	-11.0474
▁ᎡᎭᎦᏔ	-11.0474
▁ᏳᏓᏬᎠ	-11.0474
▁ᎠᏂᏬᏂᏍᎩ	-11.0474
▁ᎨᏥᏍᎦᎩ	-11.0474
▁ᎠᎩᏬᏂᎯᏍᏗᏱ	-11.0474
▁ᎾᏅᏁᎲ	-11.0474
ᏂᎬᎬ	-11.0474
▁ᎨᎦᎵᏍᎪᎸᏓᏁᎸᎯ	-11.0474
▁ᎠᏛᏂᏗᏍᏙᏗ	-11.0475
▁ᎢᏥᎪᏩᏘᏍᎨᏍᏗ	-11.0475
▁ᏩᎵᏰᎢᎶᎯᎭ	-11.0475
▁ᏣᏂᎧᎳ	-11.0475
▁ᏂᏤᎲᎾ	-11.0475
▁ᏭᏓᏐᎴ	-11.0475
▁ᏂᎦᎾᏰᏍᎬᎾ	-11.0475
▁ᎢᏣᏤᎵᎪᎯ	-11.0475
▁ᏓᎩᎸᏫᏍᏓᏁᎸ	-11.0475
ᏁᎩ	-11.0475
▁ᎢᏰᏨᏁᎸᎯ	-11.0475
▁ᎡᏣᏅᏏᏓᏍᏗ	-11.0476
▁ᎤᏓᏴᏛ	-11.0476
▁ᏧᏚᎪᏔᏅ	-11.0476
▁ᏤᏌᏂ	-11.0476
▁ᏓᏥᏍᏓᏱᏕᎵ	-11.0476
▁ᎤᏮᏙᏗᏱ	-11.0476
▁ᎤᎾᎵᏏᎾᎯᏍᏗ	-11.0476
▁ᏂᏣᏓᏅᏛᎾ	-11.0476
▁ᎬᎩᏁᏉᏤᏗᏱ	-11.0476
▁ᏚᏕᏘᏴᏌᏗᏒ	-11.0476
▁ᎠᎩᏍᏕᎵᏍᎩ	-11.0476
▁ᏂᏍᎦᏅᎾ	-11.0476
▁ᏂᏣᏛᏁᎭ	-11.0476
▁ᏣᏃᏍᎩᏒᎩ	-11.0476
ᏓᏬᏅᏛ	-11.0476
▁ᏓᎾᏤᎸ	-11.0476
▁ᏯᏆᏚᎵᏍᎨ	-11.0476
▁ᎤᏬᏯᏁᏒ	-11.0476
▁ᏕᎬᏆ	-11.0476
▁ᏗᎧᎿᏩᏕᎩ	-11.0477
▁ᎠᏇᏲᏅ	-11.0477
▁ᎣᏩᏒ	-11.0477
▁ᎤᏯᏖᎾ	-11.0477
▁ᎤᏔᏂᏗᎨ	-11.0477
▁ᏭᎪᎮ	-11.0477
▁ᏗᏂᎴᏂ	-11.0478
▁ᏗᎩᏲᎯᏍᏗᏱ	-11.0478
▁ᏣᏓᏴᎳᏔᏍ	-11.0478
▁ᎤᏂᎬᎥᏍᎬ	-11.0478
▁ᏭᏂᎷᏣ	-11.0478
▁ᏕᎤᏙᏍᏛ	-11.0478
▁ᎢᏥᏩᏛᏗᏱ	-11.0478
▁ᏧᏂᏴᏍᏕᏍᎩ	-11.0478
▁ᎬᏩᏃᎮᏍᎩ	-11.0478
▁ᎠᎱᎵ	-11.0478
▁ᏙᏓᏰ	-11.0478
▁ᎡᏥᎾᏰᏍᎨᏍᏗ	-11.0478
▁ᏣᎢᏎᏍᏗ	-11.0478
▁ᎡᏤᎾ	-11.0479
▁ᏛᏓᎴᎲᏍᎬᎩ	-11.0479
▁ᎤᎾᏕᏘᏱ	-11.0479
▁ᏁᎳᏚ	-11.0479
▁ᏱᏙᎨᏥ	-11.0479
▁ᏚᎿᏍᏕᏢ	-11.0479
▁ᏗᎦᏟᏓ	-11.0479
▁ᏚᏅᏍᏓᏕᎴ	-11.0479
▁ᎠᎩᏃᎮᏍᎩ	-11.0479
▁ᏗᏣᎦᏴᎵᎨ	-11.0479
▁ᏫᏥᎦᏘ	-11.048
▁ᏗᏆᎵᎢ	-11.048
▁ᎠᎾᏛᎬᎦ	-11.048
▁ᎤᏍᏗᎩᏳ	-11.048
ᎦᏘᎴᏅ	-11.048
▁ᎪᏢᏍᎩ	-11.048
▁ᏍᎩᏅᏏᏓᏍᏗ	-11.048
▁ᏗᏲᏍᏙᏗ	-11.048
▁ᎢᏏᎦ	-11.048
▁ᏏᏐᎢ	-11.048
▁ᎡᎿᎢ	-11.0481
▁ᏥᏄᎵᏍᏔᏅ	-11.0481
ᏨᏁᏗ	-11.0481
▁ᎢᏥᎷᎩ	-11.0481
▁ᎢᏨᏃᏁᎭ	-11.0481
▁ᎦᏟᎲ	-11.0481
▁ᏣᏃᏎᎰᎢ	-11.0481
▁ᎡᏥᏍᏕᎸᏗᏱ	-11.0482
▁ᏗᎧᏃᎨᏂ	-11.0482
▁ᏭᏴᎮ	-11.0482
ᏍᏓᏩᏛᏍᏗᏱ	-11.0482
▁ᏲᏨᏗᏍᎨ	-11.0482
▁ᎢᏥᎬᏫᏳᎯ	-11.0482
▁ᎠᎵᏥᏙᎲᏍᎬ	-11.0482
▁ᎤᏂᏂᏴᏗᏱ	-11.0483
▁ᎠᏥᎸᎨᎳᏍᏗ	-11.0483
▁ᎪᏱᏅᏍᏗ	-11.0483
▁ᏂᎦᎡᏍᏗ	-11.0483
▁ᏂᏨᏴᏁᎭ	-11.0483
▁ᏗᏨᏲᎯᏎᏗᏱ	-11.0483
▁ᏓᎪᏄᎸ	-11.0483
▁ᎡᏚᏥ	-11.0483
▁ᎤᏛᏓᏍᏓᏁᎴ	-11.0483
▁ᎤᎾᏙᎴᎰᎯᏍᏗᏱ	-11.0483
▁ᎬᏁᏤᎭ	-11.0483
▁ᏧᏬᎳ	-11.0484
▁ᎠᏂᎦᏲᎵᏳ	-11.0484
▁ᎠᎩᏰᎸᎰ	-11.0484
▁ᏗᏑᏱ	-11.0484
▁ᎤᏛᎪᏗ	-11.0484
▁ᏚᎵᏍᏚᎢᏎᎢ	-11.0484
▁ᎢᏥᎦᏴᎵᎨ	-11.0484
▁ᎦᏓᎷᎪᏗ	-11.0485
▁ᎬᎥᏏ	-11.0485
ᎵᏛᏓᏁ	-11.0485
▁ᎤᎵᏖᎸᏅᎩ	-11.0485
▁ᏚᎸᏫᏍᏓᏁᎮᏍᏗ	-11.0485
▁ᏓᏦᎯᏍᏛ	-11.0485
▁ᎬᏩᏔᏲᏎᎸᎩ	-11.0486
▁ᎠᏴᏓᏆᎶᏍᎩ	-11.0486
▁ᏍᏋ	-11.0486
▁ᏚᏘᏅᏒᎩ	-11.0487
▁ᏭᏅᏥᎴ	-11.0487
▁ᏍᎩᎷᏥᏏ	-11.0487
▁ᎤᎾᏤ	-11.0487
▁ᏧᏕᏲᏅᎯ	-11.0487
▁ᎡᏣᎫᏴᎡᏗ	-11.0487
▁ᏗᏙᎴᏆᏍᏗ	-11.0487
▁ᏗᏣᏄᏬ	-11.0487
▁ᎠᎾᏗᏍᎪ	-11.0488
▁ᏣᎾᎥᎢ	-11.0488
▁ᎦᎶᏐᏅᎭ	-11.0488
▁ᎢᏥᎪᏩᏘᎭ	-11.0488
▁ᏂᎦᏥᏴᏁᎸᎭ	-11.0488
▁ᏓᎬᎩᎵ	-11.0489
▁ᏗᎵᏒᏍᏗ	-11.0489
▁ᎣᏓᎵ	-11.0489
▁ᏭᏃᏁᎸᎩ	-11.049
▁ᏍᎩᎥᏏ	-11.049
▁ᏧᎪᎸ	-11.049
▁ᏗᎦᏘᎴᎩ	-11.049
▁ᏥᏂᎦᎵᏍᏗᎭ	-11.049
▁ᏩᏍᏘ	-11.049
▁ᏗᏂᏢᏗᏱ	-11.0491
▁ᏫᎨᏥᏯᏅᏛ	-11.0491
▁ᏗᎦᎳᏫᎩ	-11.0491
▁ᏧᏂᏲᎱᎯᏍᏗᏱ	-11.0491
ᏰᎸᏍᎦ	-11.0492
▁ᏅᎩᏦᏁ	-11.0492
▁ᎯᎰᎵ	-11.0492
▁ᏂᎨᏳᏎᏍᏗ	-11.0492
▁ᎤᎾᎵᏃᎮᎴ	-11.0492
▁ᎦᏂᎳ	-11.0493
▁ᎠᏂᏍᏓᏩᏕᎩ	-11.0493
▁ᎠᏛᎩᏍᎨᏍᏗ	-11.0493
▁ᎤᎾᏓᏓᏍᎩ	-11.0493
▁ᎦᎸᏉᏗᏍᎨ	-11.0493
▁ᎾᏂᏪᏍᎨᏍᏗ	-11.0493
▁ᎤᎵᏃᎮᏔᏅᎢ	-11.0494
ᏃᎯᏎᎲ	-11.0494
▁ᎨᏥᏯᏅᏛ	-11.0494
▁ᎠᎾᏓᏙᎵᏍᏗᏍᎬ	-11.0494
▁ᏕᎦᏅᏌᏛ	-11.0495
▁ᏄᎾᎵᏍᏔᏅ	-11.0496
▁ᎠᎩᏠᏫᏍ	-11.0496
▁ᎡᏦᎢᏳᏒ	-11.0497
▁ᏥᏤᎭ	-11.0497
▁ᏗᏆᏓᏅᏛ	-11.0497
▁ᎤᎧᎵᏨ	-11.0497
▁ᎤᏂᎨᏳᎯ	-11.0497
ᎷᎬ	-11.0498
▁ᎠᏓᏙᎵᏍᏓᏁᎯ	-11.0498
▁ᏄᎵᏂᎬᎬ	-11.0498
▁ᏄᎾᏓᎴ	-11.05
▁ᎢᏥᏔᏲ	-11.05
▁ᏫᏚᏂᏯᏅᎲ	-11.05
▁ᎤᏍᏓᏲᏒ	-11.0501
ᏓᎸᏛ	-11.0501
ᏢᏔᏂ	-11.0502
▁ᏓᏰᏏ	-11.0502
▁ᎠᏩᎾᎦᎳᎯᏳ	-11.0502
▁ᎤᏂᎸ	-11.0503
▁ᎨᏨ	-11.0503
▁ᎤᎾᏓᏅᏒᎩ	-11.0503
▁ᎢᏥᎷᏤᏗᏱ	-11.0503
▁ᎾᏅᏁᎭ	-11.0503
▁ᏰᎵᎦᏯ	-11.0504
▁ᏄᏩᏂᏌᏅ	-11.0504
ᏒᎾᏔᏅ	-11.0504
▁ᏣᏰᎯ	-11.0505
▁ᏕᎾᏓᎪᎲᏳ	-11.0505
▁ᏭᏂᏴᎸᎩ	-11.0506
ᏴᏍᏗᏱ	-11.0506
▁ᏗᎦᏚᎲᏍᎩ	-11.0506
▁ᎯᏍᎩᏍᎪᎯ	-11.0506
▁ᎠᎪᏩᏘᏍᎬ	-11.0506
▁ᎠᏂᎷᎩ	-11.0507
▁ᎤᏕᎰᎯᏍᏗᏳ	-11.0507
▁ᎢᏯᏅᏁᎯ	-11.0508
▁ᏣᏓᏅᏖᏍᏗ	-11.0508
▁ᎾᎦᎸᎳᏗ	-11.0508
▁ᎯᎷᎦ	-11.0509
▁ᏅᎦ	-11.0509
▁ᎢᎨᏎᎢ	-11.0509
▁ᏥᏍᎦᏅᏤᎸ	-11.051
▁ᏣᏚᎵᏍᎪ	-11.051
▁ᏯᏃᏉ	-11.051
▁ᎡᏈ	-11.051
▁ᎦᏓᎥ	-11.051
▁ᎬᏩᎪᎮᎢ	-11.0511
▁ᎤᏁᏙᎸᎯ	-11.0511
▁ᎿᏛᏁᎲ	-11.0511
ᏚᎸᏅᎥᏍᎬ	-11.0511
▁ᎤᏍᏉᎵᏱ	-11.0511
▁ᎤᏓᏔᏅ	-11.0512
▁ᎤᏓᏅᏍᏗᏱ	-11.0514
▁ᏚᎾᎴᏅᎩ	-11.0514
▁ᎣᏤᎯ	-11.0515
▁ᏕᏣᎸᏫᏍᏓᏁᎲᎢ	-11.0517
▁ᏓᎩᏏᎳᏛᎢ	-11.0517
▁ᏚᏬᏢᏁᎢ	-11.0517
▁ᎠᎦᏛᏅᎯ	-11.0517
▁ᎤᎾᎵᏎᎢ	-11.0517
▁ᏧᏑᏰᏛ	-11.0517
▁ᏗᎬᏔᏅᎯ	-11.0517
▁ᎢᎦᎵᏍᏕᎸᏙᏗ	-11.0518
ᎣᏏᏉ	-11.0518
▁ᎤᎳᏏᏕᏂ	-11.0519
▁ᎢᎨᏨᏁᏗ	-11.0519
▁ᎪᎵᏍᏗᏱ	-11.052
▁ᏚᏂᎧᏁᎢ	-11.052
▁ᎾᏆᏍᏗ	-11.0521
▁ᎤᏓᏅᏍᏗ	-11.0523
▁ᎤᏂᎦᎸ	-11.0523
▁ᎠᏇᎷᏅ	-11.0524
▁ᎠᏯᏫᏍᎩ	-11.0525
▁ᏚᏪᎧᎲ	-11.0525
▁ᏱᏍᏆ	-11.0525
ᎧᎵᎢᏍᏗᏱ	-11.0525
▁ᏦᏍᏛ	-11.0526
▁ᏓᏰᏂ	-11.0527
▁ᎤᎸᏁᎢ	-11.0528
▁ᎤᏂᏰᎸᎭ	-11.0528
▁ᏦᎴᏍᏗ	-11.0528
▁ᎠᏂᏍᏆᏂᎪᏗᏍᎩ	-11.0528
▁ᏧᏁᎶᏗ	-11.0528
▁ᎠᏇᏅᏒᎩ	-11.0528
▁ᏴᎨᏨ	-11.0529
▁ᏂᏚᏂᏪᏎᎴᎢ	-11.0529
ᎿᎷᏒ	-11.0529
▁ᎤᎵᏍᏙᏔᏅ	-11.0533
▁ᏪᎯ	-11.0533
ᎦᏁᎳᏅᎯ	-11.0534
▁ᏚᏂᎸᏫᏍᏓᏁᎮ	-11.0534
▁ᏕᎤᎸᏫᏍᏓᏁᎲᎢ	-11.0535
ᏣᏉᎯ	-11.0535
▁ᎲᏅᎢ	-11.0535
▁ᏓᎾᎵᏍᏓᏴᎲᏍᎬᎢ	-11.0535
▁ᏄᎵᏍᏓᏁᎸᎢ	-11.0535
▁ᏓᏘᏁᎲᎢ	-11.0535
ᏁᏅᏍᏗᏱ	-11.0536
▁ᎤᎫᏴᎡᏗ	-11.0536
▁ᏧᎧ	-11.0536
▁ᎠᏓᎴᏒᎢ	-11.0536
▁ᎠᎧᏘ	-11.0536
▁ᎤᏁᏓᏍᏗᏱ	-11.0536
▁ᏪᏙᎮ	-11.0536
▁ᏚᏓᏘᎿᎥᎢ	-11.0536
▁ᎤᏓᏅᎡᎴᎢ	-11.0537
▁ᎨᎳᏍᏙᏗ	-11.0538
▁ᏕᎦᏬᏁᏗᏍᎬᎩ	-11.0539
ᏛᏗᏍᎪᎢ	-11.0539
▁ᎢᏥᎦᏔᎲ	-11.0539
▁ᎤᏁᎷᎬᎩ	-11.054
ᏨᎭ	-11.054
▁ᎠᏓᏁᏣᏍᏚᎶᎩ	-11.054
▁ᎠᏰᎸᏒᎩ	-11.0541
ᎹᏂ	-11.0541
ᎦᏂᏌᎲ	-11.0542
ᏃᎯᏎᏗ	-11.0543
▁ᎤᏂᏁᎢᏍᏔᏅ	-11.0543
▁ᎤᏚᎵᎭ	-11.0544
▁ᎤᏬᎯᏳᏅᎩ	-11.0545
▁ᏥᏰ	-11.0546
▁ᏗᏍᏓᏱ	-11.0548
ᎦᏌᎴ	-11.0548
▁ᏓᎻ	-11.0549
▁ᎨᏍᏓ	-11.0551
ᏓᏁᎲ	-11.0551
ᏰᏲᎲᏍᎩ	-11.0551
ᏆᏠ	-11.0552
▁ᏚᎾᏄᎪᏫᏎᎸ	-11.0554
▁ᎠᏂᏍᎦᎢᎮᎢ	-11.0555
▁ᎠᏁᎵᏍᎪ	-11.0557
▁ᏥᏯᎥᎢ	-11.056
▁ᎤᎵᎮᎵᏨᎯ	-11.056
ᎨᏳᏅᎾ	-11.056
▁ᏑᏟᎶᏛᏉ	-11.0561
ᏠᎯᏍᏓ	-11.0561
▁ᎡᎶᏗᏏ	-11.0563
▁ᏂᏓᏛᏁᎲ	-11.0563
▁ᏚᏂᏍᏘᏰᎬ	-11.0563
ᏙᏱ	-11.0565
▁ᏥᎪᎥᎩ	-11.0568
▁ᏄᏕᏘᏴᎲ	-11.0569
▁ᏧᎴᎯᏐᏗ	-11.0569
▁ᏕᏨᏅ	-11.057
▁ᎤᏒᏂᎴᎢ	-11.0571
▁ᏚᏯᏪ	-11.0572
▁ᎠᎾᏗᏍᎬᎢ	-11.0575
▁ᏁᏨᏁᎸ	-11.0575
▁ᎦᏓᏍᎬ	-11.0575
▁ᎤᏃᏛ	-11.0576
▁ᏌᎾ	-11.0576
▁ᏂᏕᏨᏁᎸ	-11.0576
▁ᏚᏂᏏᏂᏙᎸ	-11.0576
▁ᎤᎾᏄᎪᏫᏏ	-11.0576
▁ᎦᏰᏥᏐᏢ	-11.0577
▁ᎤᏂᏂᏴᎮ	-11.0577
ᏥᏁᎸᎯ	-11.0578
ᎴᏂᏓᏍᏗ	-11.0579
▁ᏦᏨ	-11.0581
▁ᎨᏥᏚᎢᏍᏓᏁᎸ	-11.0582
ᏳᏓᎴᏏ	-11.0587
▁ᏧᏂᏲ	-11.0587
ᏓᏂᎧᎿᏩᏕ	-11.0589
▁ᏅᏔ	-11.0589
ᏓᏙᎵᏍᏔᏂ	-11.059
▁ᎤᏪᏴᎢ	-11.059
▁ᎵᏳ	-11.0591
▁ᎤᏰᎸᏅᎩ	-11.0592
ᏙᎥᎯᏍᏗ	-11.0594
ᏗᎦᎵᏍᏙᏗ	-11.0596
▁ᎤᎾᏄᎪᏫᏎᎴᎢ	-11.0597
▁ᎠᏁᎵᏍᎬᎩ	-11.0601
ᏁᎩᏎᎢ	-11.0602
▁ᎤᏂᏅᏅ	-11.0602
ᏙᎲ	-11.0603
▁ᎢᏍᎩ	-11.0604
▁ᏂᎨᏎᎢ	-11.0605
▁ᎡᎵᏍᎬᎢ	-11.0606
▁ᏓᏂᎧᏅᎢ	-11.0607
▁ᎠᏂᏙᎾᎡᎢ	-11.0607
▁ᏓᏂᎳᏫᎥᎢ	-11.0608
▁ᎾᏋ	-11.0608
▁ᏂᏚᏪᏎᎸᎢ	-11.0608
▁ᏃᎦ	-11.0609
▁ᎢᏣᏕᎶᏆ	-11.0609
▁ᏄᏛᏁᎸᎾ	-11.0614
▁ᎤᏛᎦ	-11.0615
▁ᎤᎩᏎ	-11.0616
▁ᎠᎴᏂᏍᎬ	-11.0616
▁ᏭᏂᏴᎮ	-11.062
▁ᏣᎩᏍᏗ	-11.0623
ᏲᎵᎸ	-11.0623
▁ᏗᎦᏙᏗ	-11.0624
▁ᎡᎳᏪᏉ	-11.0625
▁ᏚᏲᎯᏎᎴ	-11.0629
▁ᏧᏬᎸᎢ	-11.0631
ᎦᏙᎥᏒᎯ	-11.0634
▁ᎠᎦᏔᎯ	-11.0635
▁ᏣᎪᏩᏘᏍᎪ	-11.0636
▁ᎾᏉᎯᏳ	-11.0638
▁ᏥᏕᎭ	-11.0641
▁ᏄᎵᏍᏔᏁᎴ	-11.0642
▁ᏄᏂᏪᏎᎸ	-11.0642
ᎳᏅᏛ	-11.0642
▁ᎠᏚᎢᏍᏛᎢ	-11.0645
▁ᏟᏗ	-11.0647
▁ᎤᏍ	-11.0648
▁ᏫᏯ	-11.065
▁ᎤᏕᏗ	-11.065
▁ᏩᎾᎢᏒ	-11.0653
ᏂᎷᏥ	-11.0658
ᏪᎳ	-11.0659
ᎦᏍᎦᏂᏗᏢ	-11.0662
▁ᎯᎩ	-11.0663
▁ᏗᎦᏘᏯ	-11.0665
▁ᎤᎾᏓᏅᏖ	-11.0665
▁ᎠᎾᎵᏥᏙᎲᏍ	-11.0667
▁ᎤᏢᏗ	-11.0668
▁ᎦᏁᎲᎩ	-11.0669
ᏍᏕᎵᏍᎩ	-11.067
▁ᎣᎦᎵᎪ	-11.067
▁ᎠᏂᏙᎾᎥᎩ	-11.0672
▁ᎤᏂᏲᎭ	-11.0675
▁ᏚᏅᏎᎢ	-11.0677
ᏗᏔᎯ	-11.0679
ᏓᎴᏅᎯ	-11.068
ᏔᎳᏬᎯᏍᏗ	-11.0681
▁ᏣᏉᎩ	-11.0681
▁ᏄᎾᏛᏁᎸᎢ	-11.0683
ᏅᏓᏗᏍᎬ	-11.0684
ᏍᏕᎸ	-11.0684
▁ᎤᏩᎨᏫᏎ	-11.0687
ᏲᎦᏛᏅ	-11.0688
▁ᏱᏗᏗ	-11.0689
▁ᏪᏥ	-11.069
▁ᎧᏃᎮᏍᎬᎢ	-11.0692
ᏆᎳ	-11.0693
ᏚᎪᏓᏁᏗ	-11.0694
▁ᎠᏍᏆᎸ	-11.0694
▁ᎠᎩᏍᎨᏍᏗ	-11.0695
▁ᎤᎷᏤᎸ	-11.07
▁ᎬᏩᎷᏤᎮ	-11.07
▁ᎦᏅᎬᎢ	-11.0703
▁ᎢᏧᏓᎴ	-11.0703
ᏂᏃᏁᎴ	-11.0707
▁ᎤᏂᏄᎪᏨᏃ	-11.0714
▁ᏇᎵ	-11.0717
▁ᎠᏗᏍᎨ	-11.0724
▁ᎤᎶᏗ	-11.0724
▁ᏯᏛ	-11.0725
ᏈᏱ	-11.0727
▁ᎢᏥᏍᎦᏅᏨ	-11.0728
▁ᎤᏅᏏᏛ	-11.0729
▁ᎤᏪᎷᎬ	-11.073
ᏁᎵᏍᎬ	-11.073
ᎦᏍᏙᏗ	-11.0734
▁ᏱᏙᎨ	-11.0734
ᏥᏄᎪᏫᏍᏗ	-11.0735
▁ᎤᏃᎸ	-11.0735
▁ᏮᏓᏲ	-11.0742
ᏆᏓ	-11.0743
ᏅᏗᏍᎪ	-11.0745
▁ᏨᏍᎩᏃᎢ	-11.0754
▁ᎠᏆᎧᏛᎢ	-11.0755
▁ᎤᏁᎵᏍᏗ	-11.0755
▁ᏫᏓᎦ	-11.0756
▁ᎤᏂᏣᏖᏰᏃ	-11.076
▁ᎤᏃᏢᏗ	-11.0761
▁ᎤᏰᏤᎢ	-11.0762
▁ᎤᏪᎯ	-11.0762
▁ᏥᎦᎶ	-11.0762
▁ᎢᏨᏴ	-11.0765
ᏣᏘᏃᎵ	-11.0767
▁ᎧᏁ	-11.0769
▁ᎦᏁᎲᎢ	-11.0771
ᏥᎶᏍᏔᏅ	-11.0774
ᏓᏅᎯᏓ	-11.0775
▁ᎠᏰᏙᎳᏛᎢ	-11.0775
ᏤᎯ	-11.0776
▁ᏚᎴᏅᎩ	-11.0778
ᎩᎪᏩᏛᏗᏱ	-11.078
▁ᎤᏁᏅᏎᎢ	-11.078
ᏅᎢᏍᏗᏱ	-11.0792
▁ᎦᎶᏍᎬ	-11.0797
▁ᎤᏬᎯᏳᏁ	-11.0798
ᎴᏫᏍᏔᎾ	-11.08
▁ᎠᏂᎵ	-11.0801
▁ᏓᏯ	-11.0808
▁ᏗᏦᎸ	-11.0809
ᏣᏛᏂᏏ	-11.081
▁ᎤᏴᏍᏗᏱ	-11.081
ᏛᏅᎢᏍᏕ	-11.0814
ᎵᏂᎩᏛ	-11.0816
▁ᎦᏬᏂᏍᎬᎩ	-11.0817
▁ᏧᎳ	-11.0818
▁ᏳᏂᏰᎸ	-11.0819
▁ᎤᎯᏍᏗᏱ	-11.0821
▁ᏧᏪᏅᏒᎢ	-11.0829
▁ᎤᏁᏤᎸᎯ	-11.083
▁ᎤᏃᏴᎬᎢ	-11.083
ᏍᏓᏁᎸᎯ	-11.0832
▁ᏗᎵ	-11.0836
▁ᏕᎦᏁᎲ	-11.0838
▁ᎤᏂᎲᎢ	-11.0839
▁ᎢᏣᎵ	-11.0839
▁ᏚᏭᏢ	-11.0839
ᏯᎩᏍᏗ	-11.0839
▁ᏕᎨᎦᎸ	-11.0839
▁ᏳᎳ	-11.0849
▁ᎤᏕᏅᎢ	-11.085
ᎷᏤᎸᎩ	-11.0854
ᎸᏎ	-11.0868
▁ᎦᎪᎨ	-11.0873
▁ᎤᏃᏢ	-11.0873
▁ᎢᏳᎾᎵᏍᏔᏅ	-11.0876
▁ᎢᎩᏴᏁᏗ	-11.0882
▁ᎠᎦᏛᏅ	-11.0883
▁ᏗᏓᎴᏂᏍᎬᎢ	-11.0885
▁ᏚᎧᎿᏅᏃ	-11.0887
▁ᏗᎦᎦ	-11.0887
▁ᎢᎦᏛᏍᎩᏂ	-11.0888
▁ᏩᏥ	-11.0894
▁ᎠᎢᏒᏃ	-11.0895
▁ᎨᏥᏁᏤᎸ	-11.0901
▁ᏕᎨᎦᏛ	-11.0901
ᎵᏂᎩᏗᏳ	-11.0908
ᏍᎦᎳᏁ	-11.0908
▁ᎦᏅᎦ	-11.0913
▁ᎢᏨᏯᎵᏥᏙᏁᎸ	-11.0916
ᏒᏍᏗ	-11.0926
ᎠᏤ	-11.0932
▁ᏚᏂᎩᏒ	-11.0934
▁ᎤᏕᏘᏴᏌᏗᏒᎢ	-11.0941
▁ᏕᎤᏙᎥᎢ	-11.0942
▁ᎮᎵᏍᎬ	-11.0953
▁ᎤᏂᏣᏘᏰᏃ	-11.0965
ᏴᎮ	-11.0966
▁ᎤᎾᏓᏅᏛ	-11.0972
▁ᎣᏂᎦ	-11.0978
▁ᎤᏙᏢᏒ	-11.0979
▁ᏏᎻᏯᏂᏃ	-11.0979
▁ᎨᎥ	-11.098
ᏌᎥ	-11.0982
ᎧᏔᎭ	-11.0982
▁ᎨᏆ	-11.0985
ᏚᎧᎾᏅ	-11.0986
▁ᎤᏂᏁᏨᏃ	-11.0988
ᏓᏛᏁᎮᏍᏗ	-11.0994
ᏴᎯᎮᏍᏗ	-11.0996
▁ᏱᏚᎾ	-11.0998
▁ᎤᎾᏓᏃᏴᎵᏍ	-11.1
ᏟᎶ	-11.1002
▁ᏗᏍᏛ	-11.1003
ᎦᏖᏃᎲ	-11.1005
ᏥᏯᏅᏗ	-11.102
ᎮᎸ	-11.1021
ᎳᏅ	-11.103
ᏳᏩᏅ	-11.1031
ᏴᎢ	-11.1032
▁ᎠᏆᏓᏅᏖᎸ	-11.1032
ᎯᏰ	-11.1037
ᏏᎸ	-11.1038
ᏥᏐᏅᏅ	-11.104
▁ᎤᏲᎯ	-11.1051
▁ᏗᎦᎸᏫᏍᏓᏁᏗᏱ	-11.1052
▁ᏓᏕᏲᎲᏍᎨ	-11.1053
ᏲᎯᏎᎸᎯ	-11.1073
ᎪᎲᎩ	-11.1079
▁ᏥᏩ	-11.1085
▁ᏫᏂ	-11.1088
▁ᎤᏲᎱᏒᎩ	-11.1089
ᏁᏟᏴᏛ	-11.1102
▁ᏥᏅ	-11.1106
ᎲᏒ	-11.111
ᏥᏍᎦᏨᎯ	-11.111
▁ᎢᎩᏛ	-11.111
▁ᎤᏁᏗ	-11.1114
ᏍᏛᎩ	-11.1118
▁ᎢᏳᏓᎵ	-11.112
ᏩᏛᏗᏱ	-11.1133
ᏣᎾᏄᎪᏫᏎᎸ	-11.1136
▁ᎦᏅᎢ	-11.1137
▁ᎠᎩᏢ	-11.1138
ᎰᏅ	-11.114
▁ᏓᏥᏩᏛᎯ	-11.1141
ᏣᏓᏙᎵᏍᏗ	-11.1141
▁ᎤᏃᎮᏗ	-11.1142
▁ᏧᎾᏙ	-11.1143
ᏤᎮ	-11.1144
▁ᎤᎵᏏᎬᎢ	-11.1151
ᎾᎥᎢ	-11.1156
ᎵᎸ	-11.1156
ᎾᏰᏍᎨᏍᏗ	-11.1157
ᏏᏱ	-11.1163
ᏔᏂᏓᏍᏗ	-11.1165
▁ᎤᎾᏓᏅᏖᏗ	-11.1166
ᏍᎦᎾᎯᏳ	-11.1171
ᏕᎶᏆᏍᏗ	-11.1173
ᏕᎭ	-11.1176
▁ᎦᎸᎳᏗᎨ	-11.1176
▁ᏕᏣᏂᏴ	-11.1181
ᏁᏤᎸ	-11.1183
▁ᎢᏥᏁ	-11.1185
ᏍᏓᏁᎸ	-11.1188
▁ᎠᏅ	-11.1188
▁ᏣᎵᏍᎦᏍᏙᏗ	-11.1192
ᏄᏬ	-11.1193
▁ᎤᏪᎷ	-11.1198
▁ᏚᏂᎬ	-11.1199
ᏂᏓᏍᏗ	-11.1199
▁ᎠᏐ	-11.1209
▁ᏧᏂᏰᎸ	-11.1209
ᏛᎦᏁᎰᎢ	-11.1212
ᏥᎶᏍᏗ	-11.1212
▁ᎬᏓ	-11.1215
▁ᎣᏍᏕ	-11.1217
▁ᎢᏥᏴ	-11.1219
▁ᏕᏥᎧ	-11.1232
ᏒᏰᏃ	-11.1237
ᏂᏪᏏ	-11.1237
▁ᏚᏩ	-11.1249
ᎨᏴ	-11.1259
ᎲᏍᎬᎢ	-11.1263
ᎩᏍᏙᏗ	-11.1267
ᏢᏈᏍᏗᏱ	-11.1271
ᏅᏓᏛᎩ	-11.1277
ᏛᏅᎯ	-11.1277
ᏁᏪᏎᎢ	-11.1287
ᎦᏓᎭ	-11.1289
ᏘᏍᎬ	-11.13
ᏂᎦ	-11.1322
▁ᎤᏍᏕᎸᎲ	-11.1326
ᏅᏗᏱ	-11.1335
ᎪᏍᎬ	-11.1345
▁ᏧᏃᏢ	-11.1348
ᎦᏘᎴᎩ	-11.1364
▁ᏚᏲᎯᏎᎸ	-11.1372
ᏂᏏᏅᎯ	-11.1373
▁ᎤᎪᎲᎢ	-11.1384
▁ᏱᏙᏥ	-11.1402
▁ᏕᏤ	-11.1403
▁ᏂᎦᏪᏎ	-11.1405
▁ᎪᎱ	-11.1405
▁ᏗᎧᎾ	-11.1409
▁ᎤᏂᎷᏤᎴ	-11.1415
ᏗᏗᏱ	-11.1417
ᎢᏣ	-11.142
ᎾᏕᏘᏴᏛ	-11.1422
ᏅᎯᏒ	-11.1425
▁ᎢᎭ	-11.1432
▁ᏗᏅᏂ	-11.144
ᏓᏁᎸᎩ	-11.1442
ᎧᎭ	-11.1443
ᎵᏙᎮ	-11.1451
▁ᎤᏂᏅᏁ	-11.1465
ᏎᎴᎢ	-11.1467
ᏲᎮᎢ	-11.1468
ᏓᏁᎴ	-11.1476
▁ᏧᎾᏓᎴᏅ	-11.1476
▁ᏗᏥᏲᎯᏍᏗ	-11.1482
▁ᎨᎾ	-11.1495
▁ᎤᎾᏓᏅ	-11.1495
ᏓᏯᏂᏍᎪ	-11.1509
▁ᎬᏛᎪ	-11.151
▁ᎠᏂᏫᎾᎨ	-11.1519
ᎩᏍᏆᏂᎪᏔᏅ	-11.152
ᏅᏒᎾ	-11.152
ᎨᏳᎭ	-11.1523
▁ᎠᏍᏓᏱᏛ	-11.1528
ᏆᏟ	-11.1528
ᏃᎯᏍᏗ	-11.153
ᎶᏃ	-11.1531
ᏧᎬ	-11.1535
▁ᎤᎦᏙᏍᏕ	-11.1536
ᎵᏦᏛ	-11.1536
ᎨᏩ	-11.1543
▁ᏍᎩᏉ	-11.1554
▁ᏱᏚᏳᎪ	-11.1561
ᏑᎶ	-11.1564
ᏓᏴᏎ	-11.1564
▁ᎨᎪᏎ	-11.1569
▁ᎡᏉ	-11.1572
▁ᏥᎶ	-11.1577
ᎢᏍᏔᏅ	-11.1595
▁ᎦᎶᎯᏍᏗᏳ	-11.1599
▁ᏦᎠ	-11.1604
ᏅᏁᏗᏱ	-11.1604
▁Ꮦ	-11.162
ᏣᎦᏌᏯᏍᏗᏕᎩ	-11.1623
ᏂᏏᏍᎨᏍᏗ	-11.163
▁ᎤᎾᏚᎵᏍᎨ	-11.1633
▁ᎢᏣᏓᏅᏛ	-11.1637
▁ᏅᏩᎾᏓᎴᎢ	-11.1639
ᏩᏛᎯᏙ	-11.1641
▁ᎦᏙᎨᏃ	-11.1643
▁ᎢᏦᎵᏍ	-11.1652
▁ᎤᎮᏍᏗ	-11.1653
▁ᎨᏛ	-11.1653
▁ᏍᎩᏍᏓᏩᏕ	-11.166
ᏓᏅᏛᎵ	-11.1673
▁ᏱᏘ	-11.1676
▁ᎤᎸᎢ	-11.1679
▁ᎠᎾᎵᎮᎵ	-11.1683
▁ᎠᏥᏅ	-11.1689
ᏂᎩᏓ	-11.1691
ᏌᎳᏓᏅ	-11.1694
▁ᎡᏥᏁ	-11.17
ᎧᎵᏎ	-11.1701
▁ᏫᏍᏗ	-11.1715
▁ᎤᎾᎵᎪᏎ	-11.1717
▁ᎦᏙᎦ	-11.1729
▁ᎠᏆᏓᏅ	-11.1732
▁ᏕᎤᏲ	-11.1735
▁ᎠᏍᎪ	-11.174
ᎵᏎ	-11.1751
ᏎᏃ	-11.1754
▁ᎠᎦᏅ	-11.1758
▁ᎤᏂᎧᎵ	-11.1762
▁ᏥᏩᎾᎦ	-11.1764
▁ᏯᏇ	-11.1767
ᏛᎯᏍᏙᏗ	-11.1768
ᎪᏩᏘᏍᎬ	-11.1774
ᏏᏯ	-11.1779
▁ᏓᏘ	-11.178
▁ᎧᏃ	-11.1784
▁ᎤᏬᏂᎯᏍᏗ	-11.1811
▁ᏱᏅᏩᏍᏗ	-11.1811
ᏙᎴᎰᏒ	-11.1813
ᏍᏆᏂᎪᏓᏁᏗ	-11.1819
ᏥᏍᏔᏅ	-11.182
ᎴᏗᏱ	-11.1827
ᏓᏛᏁᏗ	-11.1828
▁ᎠᏂᎪᏩᏘᏍᎨ	-11.1832
▁ᏙᎯᏱᏉ	-11.1833
ᏪᏏ	-11.1836
▁ᏨᏆ	-11.1849
ᏬᏁᏙᏗ	-11.1849
ᏲᏍᏔᏅ	-11.1849
ᎵᏍᏕᎸ	-11.1852
ᏬᏁᏔᏅ	-11.1855
▁ᎠᏆᏓᏅᏖ	-11.1858
ᏃᎮᎮᎸ	-11.1861
ᏔᎴᏒ	-11.1869
ᏎᎵᏙᏗ	-11.1882
ᏘᏍᎩ	-11.1891
ᏄᎪᏨᎩ	-11.1899
ᏁᎸᏗᏍᎬ	-11.1901
▁ᎢᏣᏓᏙᎵᏍᏗ	-11.191
▁ᏂᎦᏛᏉ	-11.1911
▁ᏴᎦᏥ	-11.1918
▁ᏳᏲ	-11.1928
ᏩᏛᎯ	-11.193
▁ᏕᎦᏘ	-11.193
▁ᏚᎵ	-11.1939
ᏥᎵ	-11.1944
ᏴᏙᏗᏱ	-11.195
▁ᏴᏗ	-11.1952
ᏍᏙᎢ	-11.1955
ᏯᏅᎯ	-11.1956
ᏓᎴᎲᎦ	-11.1963
ᏁᎦ	-11.1965
ᏅᏓᏗᏍᎨᏍᏗ	-11.1965
ᏩᏓ	-11.1974
ᏍᏓᏲ	-11.1988
▁ᎠᏍᏚ	-11.1988
ᏍᏕᎸᎯᏙᎯ	-11.1991
▁ᏗᏍᏓ	-11.1994
▁ᏳᎸ	-11.1994
ᏣᎷᏤᏗᏱ	-11.1997
ᏂᎦᏔᎲᎾ	-11.2
ᏚᎵᎭ	-11.2004
▁ᎠᏍᏆ	-11.2011
ᎧᏂᏍᎬ	-11.2011
ᏂᏪᏎ	-11.2016
ᎮᎵ	-11.2018
▁ᎤᏄᎪᏫᏎ	-11.2019
▁ᏱᎬᏆ	-11.2023
ᏪᏎᎵ	-11.2026
▁ᎠᏎᏍᎩᏂ	-11.205
ᏁᎶᏕᏍᏗ	-11.2051
▁ᎥᏝᏍᎩᏂ	-11.2055
ᎵᏍᎩ	-11.2056
ᎶᏅ	-11.2062
ᏙᎵᎪ	-11.2069
▁ᎤᏂᏩᏛ	-11.2075
▁ᎠᏰᎵᏉ	-11.2087
▁ᎦᏪ	-11.2098
ᏔᏪᏙ	-11.2103
ᏍᏆᏂᎪᏓ	-11.2116
ᏲᏙᏗ	-11.2124
ᎵᎻ	-11.2133
ᎥᏍᎨᎢ	-11.2133
ᎸᎮ	-11.2144
▁ᎠᏂᎪᎵᏰᏍᎨ	-11.2154
ᏢᏁᎢ	-11.2157
ᎡᎲᎢ	-11.216
▁ᎠᎩᏁᎸ	-11.2166
ᎵᏍᏆᏙᎾ	-11.2167
▁ᏣᏢ	-11.2167
▁ᏯᏆᏓ	-11.2172
ᎪᏩᏘᏍᎪ	-11.2175
▁ᏥᏍᎦᎾ	-11.2177
▁ᎤᏩᏎ	-11.2179
▁ᎦᏲ	-11.218
ᏦᏒ	-11.2184
ᏌᎲ	-11.2185
ᏓᏛᏁᎵ	-11.2191
▁ᏗᏍ	-11.2196
▁ᏫᏯᏅ	-11.2196
ᎦᏛᏁ	-11.2198
ᏥᏓ	-11.2199
ᏰᎬ	-11.2201
ᏜᏗ	-11.2204
ᏥᏅᎵ	-11.2205
ᎷᎩᏍᎩ	-11.2208
ᎲᏍᎨ	-11.2212
ᏇᏓ	-11.2213
ᏓᏑᏴ	-11.2223
▁ᎢᏥᏍᎦᏅ	-11.2224
▁ᎬᏩᎵᎪᏁ	-11.2228
ᎴᏅᏓ	-11.2228
ᏓᏁᎢ	-11.223
▁ᎤᎩᏍᏗ	-11.2232
ᏛᏁᎰ	-11.2233
ᎯᏛ	-11.2235
▁ᎠᏑᏴ	-11.2235
▁ᎩᎳᎢ	-11.2242
▁ᏓᏍᎩ	-11.225
▁ᏗᏕᎶᏆᏍ	-11.2252
ᎦᏛᎩ	-11.2265
ᏂᏱᏍᎨ	-11.2268
▁ᎤᏲᏍᏔᏅ	-11.227
ᏍᏔᏅᎢ	-11.2271
▁ᎭᏓᏅᏖ	-11.2273
▁ᏩᏂᎷ	-11.2274
▁ᎤᏂᏍᏚ	-11.2276
▁ᏕᎨᏣ	-11.2279
ᎪᎨ	-11.2287
▁ᎠᎩᎨᏳᎯ	-11.229
▁ᏙᎬ	-11.2299
▁ᎤᏩᏙ	-11.2303
ᎨᎯᏙᎸ	-11.2303
▁ᏳᏓᏑ	-11.2304
▁ᎦᏐ	-11.2306
▁ᏄᏩᏁ	-11.2309
ᎵᏓ	-11.2318
ᏥᎾᏄᎪᏫᏎᎸ	-11.2323
▁ᎥᏝᏍᏗ	-11.2324
ᏑᎸᏓ	-11.2325
ᏪᏒ	-11.2331
ᏍᎪᏒ	-11.2332
▁ᏈᏂ	-11.2332
ᎴᏅᎮ	-11.2337
ᏓᏙᎵᏍᏓᏏ	-11.2342
ᎨᏥᏁᏗᏱ	-11.2345
ᏲᏎᎸ	-11.2348
ᎣᏁ	-11.2348
ᏓᏗᏍᏗ	-11.236
ᏲᎮᏗ	-11.2382
ᎲᏍᏗᏱ	-11.2399
▁ᏂᏥᏪᏎ	-11.2405
ᏚᎸᏅᏗ	-11.2406
▁ᎤᏍᏛ	-11.2411
ᏂᏢᏗᏱ	-11.2417
▁ᏩᏆ	-11.2418
ᏍᎦᏯ	-11.2422
ᏤᏪ	-11.2422
▁ᏬᎩ	-11.2423
▁ᎾᏥᎸᏉ	-11.2424
ᎵᏬ	-11.2426
▁ᏓᎨ	-11.2427
ᎾᎡ	-11.2432
ᏂᏍᎨᏍᏗ	-11.2432
ᏕᎨ	-11.2435
ᏘᏎᎢ	-11.2436
ᏥᏯᏅᏛ	-11.2439
ᏲᎱᎯ	-11.2442
ᎪᎵᏰᏍᎨᎢ	-11.2453
ᏍᏓᏩᏕᏏ	-11.2457
ᏓᏘᏂᏙᎯ	-11.2458
ᏓᎨᏳᏗ	-11.2466
▁ᏚᎾᎵᎪ	-11.248
ᎪᎾᏛ	-11.248
ᎪᏒ	-11.2484
ᏉᎯ	-11.2484
▁ᏳᏪ	-11.2487
ᏠᎠᎯ	-11.2489
ᎴᏅᎲ	-11.2492
ᎳᏏᏕᏂ	-11.2496
▁ᏄᎵᏍ	-11.2501
▁ᎠᏆᏛ	-11.251
▁ᎤᎷᏨᏃ	-11.2516
ᏐᏢ	-11.2517
ᏙᎾ	-11.2528
▁ᎠᏂᏯᏫᏍᎩᏃ	-11.2533
▁ᎠᏥᎸᏃ	-11.2535
ᏕᏣᏙ	-11.2537
ᏍᎦᏅᏨᎢ	-11.2537
ᏍᏛᏗ	-11.2545
ᏁᏤᎲ	-11.2548
ᏚᎩ	-11.2554
ᏃᎮᏗ	-11.2557
▁ᎠᏓᏍᏕᎵ	-11.2558
ᏅᏩᏍᏗᏉ	-11.2561
▁ᏧᏅᏏ	-11.2562
ᏲᎱᎯᏍᏗ	-11.2564
ᏣᏁ	-11.2567
ᏛᏛᎲᏍᎦ	-11.2572
▁ᏂᏣᎵᏍᏓᏁ	-11.2581
▁ᎠᎵᏥ	-11.259
ᎦᏓ	-11.2591
▁ᎠᏂᎡ	-11.2591
ᏒᎦᎸ	-11.2592
▁ᎤᏐᏅᎢ	-11.2596
▁ᏳᏃᏴ	-11.2606
▁ᎥᏆ	-11.2608
ᏙᎦ	-11.2612
ᏨᏍᏗᏱ	-11.2618
ᏍᎪᎵ	-11.2632
ᏢᏔᏅᎯ	-11.2633
▁ᎠᏍ	-11.2634
ᎸᏉᏓ	-11.2637
ᏎᎸᎢ	-11.2643
ᎯᏍᏗᏍᎬ	-11.2646
ᏥᎦᏔ	-11.2646
ᏁᏤᎸᎭ	-11.2653
ᏫᏎᎢ	-11.2653
▁ᏂᎦᏥᏴᏁ	-11.2659
ᏚᎵᏍᎨ	-11.2665
ᏏᏅᏍᏗ	-11.2671
▁ᏱᏚᏓ	-11.2675
▁ᎠᏴᏉ	-11.2681
▁ᏅᏓᏳᏓᎴ	-11.2684
ᏍᏚᎩᏒ	-11.2689
▁ᏘᏁ	-11.2691
ᎶᎥ	-11.2691
ᏄᎪᏫᏒᎯ	-11.2697
▁ᏅᎵᏌᎵ	-11.2699
▁ᏅᏩ	-11.2713
ᏘᏃᎯᏍᏗ	-11.2713
ᏥᏲᏍᏙᏓᏁ	-11.2714
▁ᏗᎩᏍᏗ	-11.2718
ᎪᏩᏗᏍᎬ	-11.2719
ᏣᎴᏛ	-11.2732
ᏴᏔᏅᎩ	-11.2733
▁ᏯᎩᎪ	-11.2734
ᎮᎯ	-11.2741
ᏍᎬᎾᏉ	-11.2745
ᎦᎵᎰ	-11.2751
ᎦᎶ	-11.2754
▁ᏯᎦᏓ	-11.2758
ᏲᎯᏏ	-11.276
ᏚᏓᏲᏎ	-11.2761
ᏍᏆᎵᏍᎬ	-11.2762
▁ᏁᏩᏔᎵ	-11.2764
ᏍᏕᎢ	-11.2764
ᏧᏔᏅ	-11.277
▁ᏚᏩᏛᎲ	-11.277
ᏐᎾ	-11.2774
▁ᏕᏥᏯ	-11.2774
ᏢᎭ	-11.2774
ᏎᎰᎢ	-11.2778
▁ᎯᏁᎩ	-11.2784
▁ᎤᏄ	-11.2788
▁ᎤᎾᎴᏅ	-11.2795
ᎪᎰᏍ	-11.2797
ᏃᏅᎯ	-11.2801
▁ᎠᎾᎵᏍᏓᏴᎲᏍᎬ	-11.281
ᎾᏄᎪᏫᏒ	-11.2811
▁ᎬᏩᏃᎯᏳ	-11.2815
▁ᎠᏕᎸᏃ	-11.2819
▁ᏕᎪᏢᏒ	-11.282
ᎦᏌᏯᏍᏙᏗ	-11.2823
ᎦᏉ	-11.2828
ᏗᏢᏍᏙᏗ	-11.283
▁ᎤᏂᏩᏒ	-11.2834
ᏁᎢᏍᏗᏍᎬ	-11.2838
▁ᏭᏭᏍ	-11.284
ᏗᏍᎬᎩ	-11.284
▁ᎤᏅᏂ	-11.2841
▁ᏆᏏ	-11.2845
ᏍᏗᏂ	-11.2845
▁ᎤᏢᎬ	-11.2846
ᎪᎯᏳ	-11.2847
ᎨᏳᎯ	-11.2854
ᏙᎴᎰᏎ	-11.2855
▁ᏴᏓ	-11.2855
ᏍᏕᎵᏍᎪ	-11.2857
ᏥᎷᎩ	-11.2857
ᏛᎦᏅ	-11.2857
▁ᎠᏥᏰᎸᎾᏁ	-11.2858
▁ᏓᏟᎶᏍᏗ	-11.286
▁ᏑᏟᎶᏛ	-11.2861
▁ᏗᎦᎸ	-11.2863
ᏚᏲᏎ	-11.2865
ᎩᏍᏓ	-11.2867
▁ᎦᏅᎪᎢ	-11.2867
ᎦᎸᎲᎩ	-11.2868
▁ᏱᏓᎾ	-11.2872
▁ᎡᏌ	-11.2874
▁ᏂᏓᏙᏓᏈᏒ	-11.2875
▁ᎾᎬᏁᎴ	-11.2875
▁ᎠᎧᎵ	-11.2877
▁ᏂᏚᏍᏕ	-11.2879
ᎤᏨᏉᏗ	-11.288
ᎢᏗᎦᏘ	-11.288
ᏘᏓ	-11.2881
▁ᏚᏄᏩᎥ	-11.2881
▁ᎤᎾᏅᏁ	-11.2882
ᎤᏂᎷᏤᎢ	-11.2882
ᏒᎮᏱᏣ	-11.2883
▁ᎾᎩᏪᏒ	-11.2884
▁ᏕᏣᎸᏫᏍᏓᏁᎸ	-11.2884
ᏘᏅᏍᏔᏁᎢ	-11.2884
▁ᎦᎵᎡᎵᎬ	-11.2884
ᎧᏃᎮᏛ	-11.2885
ᎢᏥᏈᏱ	-11.2885
▁ᎤᏃᎯᏳᏁ	-11.2885
ᎠᎬᏱ	-11.2885
▁ᎾᏂᏪᏍᎨ	-11.289
▁ᏚᏓᏘᎿᎥ	-11.289
▁ᏕᎤᎸᏫᏍᏓᏁᎲ	-11.289
▁ᏚᏍᎫᏓᏛ	-11.2891
▁ᏄᎵᏍᏓᏁᎸ	-11.2891
▁ᎤᎵᏖᎸᏁ	-11.2891
▁ᎤᏔᏪᏙᏁ	-11.2892
ᏇᎵᏥ	-11.2892
▁ᏂᏣᏓᎨᏳᏒ	-11.2892
▁ᎤᏓᏙᎵᏍᏔᏁ	-11.2893
▁ᏚᏄᎪᏔᏅ	-11.2895
▁ᏱᏄᎵᏍᏔᏁ	-11.2895
▁ᎤᏪᏍᎩᎸ	-11.2895
▁ᏚᏂᏢᎬ	-11.2896
▁ᏧᎶᏎ	-11.2896
ᏉᎡᏗ	-11.2897
▁ᎤᎴᏂᏙᎴ	-11.2897
▁ᎲᏅ	-11.2898
▁ᎢᏣᏚᎵᏍᎬ	-11.2898
▁ᏓᎾᎵᏍᏓᏴᎲᏍᎬ	-11.2898
▁ᎢᏥᏁᎬ	-11.2899
ᎵᎨᏂ	-11.29
▁ᎤᏓᏅᎡᎴ	-11.2901
▁ᏫᏥᎦᏛ	-11.2901
▁ᏓᏅᏗᏍᎬ	-11.2902
▁ᏂᏚᏩᏁᎴ	-11.2902
▁ᎢᏳᎵᏍᏔᏅ	-11.2904
ᏍᏓᏩᏛᏎ	-11.2905
▁ᎤᏍᎩᏓᏒ	-11.2906
▁ᎢᏨᏰᎳᏗᏙᎲ	-11.2906
▁ᎠᏥᏃᎮᏍᎬ	-11.2906
▁ᎾᏂᎡ	-11.2906
ᎯᏢᎾ	-11.2906
▁ᎤᏍᏓᏱᏛ	-11.2907
ᎡᏃ	-11.2913
▁ᎤᏑᎵᎪᏨ	-11.2914
▁ᎤᏍᎦᎴ	-11.2914
ᏚᏓᏕᏫᏒ	-11.2914
▁ᎤᏮᏔᏅ	-11.2915
▁ᏚᏂᏲᎱᏒ	-11.2915
▁ᎤᏓᏅᏁ	-11.2916
ᏍᏉᎵᏱ	-11.2917
▁ᏂᎦᎵᏍᏗ	-11.2918
▁ᎠᏄᎯᏍᏗᏍᎬ	-11.2918
▁ᏥᏬᏂᏍᎬ	-11.2921
ᎦᏘᏗᏍᏗᏱ	-11.2921
ᏍᎩᏓᏎᎢ	-11.2923
ᎵᏍᎪᎸᏗᏍᎬ	-11.2923
▁ᏪᏙ	-11.2924
▁ᏚᎾᎴᏅ	-11.2926
▁ᏣᏁᏨ	-11.2927
ᎸᏍᎦ	-11.2927
ᏍᏕᎸᎲᎩ	-11.2927
ᎨᏎ	-11.2927
▁ᎤᏯᏅᎮ	-11.2928
ᏲᎵᎴ	-11.2928
▁ᎠᏆᎴᏅ	-11.2929
ᎸᎥᏍᎬ	-11.2931
▁ᎣᎦᏣᏅ	-11.2931
ᎩᏍᏓᏩᏕ	-11.2933
▁ᎨᎬ	-11.2934
ᎾᎾᏛᏁᎰ	-11.2935
▁ᏗᏘᏲ	-11.2936
▁ᎦᏁᎮ	-11.2937
▁ᏗᏘᏂᏙ	-11.2937
▁ᎤᏍᏓᏩᏛᏎ	-11.2938
▁ᎤᏪᎧᎲ	-11.2939
▁ᏥᎪᏩᏛ	-11.2943
▁ᎣᎪᎯᏳ	-11.2944
ᏴᏤᏂ	-11.2944
▁ᏱᏙᎬ	-11.2944
▁ᏦᎩᎾᏫ	-11.2945
ᏓᏓᏍᎬ	-11.2946
ᎸᏉᏔᏂ	-11.2946
ᏁᎵᏎᎢ	-11.2947
ᎵᎪᎯ	-11.2947
▁ᎦᏅᏆᎶ	-11.2947
▁ᎡᎩᏍᏕᎸᏗ	-11.2947
ᏒᎲᏍᎦ	-11.2948
▁ᎢᏳᏩᏂᏐᏗ	-11.2949
▁ᏗᎬᏩᎸᏌ	-11.295
ᏙᏢᎾ	-11.295
▁ᏧᏂᏒᏍᏗ	-11.2951
▁ᎢᏣᏓᏅᎦᎸ	-11.2952
▁ᏣᏁᎮ	-11.2953
▁ᎢᏨᏲᏎ	-11.2953
ᏩᏁᎦ	-11.2954
▁ᎤᎩᎵᏲᎢᏍᏗ	-11.2954
ᎦᏔᎲᏍᎬ	-11.2955
ᏓᏂᎵᎨ	-11.2955
▁ᏂᎦᎵᏍᏔᏂ	-11.2956
▁ᎤᏬᏢᏁ	-11.2957
▁ᏂᏓᏅ	-11.2959
▁ᏗᎧᏃᎨ	-11.2959
ᏠᎠᏒ	-11.296
ᏍᏆᏂᎪᏗᏳ	-11.296
ᏍᏓᏩᏗᏒᎩ	-11.2961
ᏏᏔᏗᏍᏗ	-11.2961
▁ᎢᏣᎵᏍᏓᏴᏗ	-11.2962
▁ᏩᏚ	-11.2963
▁ᎦᎷᏨ	-11.2964
▁ᏗᎦᏤᎵ	-11.2964
ᏕᏲᏅᎯ	-11.2965
▁ᎠᏂᏍᏆᏂᎪᏗᏍ	-11.2965
ᏄᏬᎡᎢ	-11.2966
ᏍᏕᎵ	-11.2967
▁ᎠᏛᎩᏍᎨ	-11.2967
ᏃᎵᏤ	-11.2967
ᏚᏅᏏᏴ	-11.2968
ᏙᎴᏆᏍᏗ	-11.2968
▁ᏥᏯᎥ	-11.2969
ᏦᏎᎭ	-11.297
ᏁᏤᎮᏍᏗ	-11.297
ᏓᏅᏓᏗᏍᏗᏍᎩ	-11.297
▁ᏂᏓᎾᏓ	-11.297
▁ᎠᏓᎴᏒ	-11.2971
ᏓᎾᏕᏒᎲᏍᎪᎢ	-11.2971
▁ᎠᏁᏯᏔᎯ	-11.2971
▁ᎠᏂᎢᏏᎺᎵ	-11.2971
▁ᎠᏍᏕᏱᏛ	-11.2971
▁ᎢᏍᎪᏂᏗᏢ	-11.2971
▁ᎢᏯᏆᏕᏘᏴᏓ	-11.2971
▁ᎤᎾᏓᎪᎾᏙᏗ	-11.2971
▁ᎤᎾᏗᏍᎦᏢ	-11.2971
▁ᎤᏔᏲᎴ	-11.2971
▁ᎤᏩᎬᏘᎶᏓ	-11.2971
▁ᎤᏩᎾᏓᎴ	-11.2971
▁ᎥᏖᎣᎩ	-11.2971
▁ᏁᏥᏪᏎᎸᎭ	-11.2971
▁ᏂᎦᏗᎹᏏ	-11.2971
▁ᏂᏓᏁᏢᏛᎾ	-11.2971
▁ᏂᏗᎬᏩᏓᎴ	-11.2971
▁ᏂᏧᏪᏎ	-11.2971
▁ᏄᏃᎯᏳᏅᎾ	-11.2971
▁ᏒᏗᏩᏟ	-11.2971
▁ᏓᎱᏃᎲ	-11.2971
▁ᏓᎾᏦᎭᏱᎲ	-11.2971
▁ᏓᏂᎳᏍᏓᎳᏩᏗᏒᎢ	-11.2971
▁ᏓᏂᎶᏄᎮᏍ	-11.2971
▁ᏓᏊᎪᏔᏅ	-11.2971
▁ᏓᏟᏰᎵᏙ	-11.2971
▁ᏗᎧᏃᎩᏛ	-11.2971
▁ᏗᎾᎵᏦᎯᏛ	-11.2971
▁ᏗᏝᏗᏍᏗᏱ	-11.2971
▁ᏙᏛᎾᏓᏡᏔᏂ	-11.2971
▁ᏥᏂᏥᏪᎠ	-11.2971
▁ᏥᏓᎩᎸᏫᏍᏓᏁᎭ	-11.2971
▁ᏥᏕᎭᏘᏁᎭ	-11.2971
▁ᏧᏄᏩᎢ	-11.2971
▁ᏯᏙᎴᎰᏍᎦ	-11.2971
▁ᏱᎡᏦᎢᏳ	-11.2971
▁ᏱᏓᎴᏂᏙᎭ	-11.2971
▁ᏱᏣᏁᎢᏍᏔᏁᏍᏗ	-11.2971
▁ᏱᏫᏣᏴᎸ	-11.2971
▁ᎤᎩᏠᏫᏎ	-11.2971
▁ᎨᏥᎦᏘᏗᏍᏗ	-11.2971
▁ᎺᎮᎴᎵ	-11.2971
▁ᏂᏚᎾᏁᎶᏛᎾ	-11.2971
▁ᏆᎻᏈᎵᏱ	-11.2971
▁ᏓᎦᎫᏴᎯ	-11.2971
▁ᏚᏬᏏᏌᏁ	-11.2971
▁ᏛᎾᏛᎦᏂ	-11.2971
▁ᏨᏓᏯᎢ	-11.2971
▁ᏳᎵᏃᎯᏰ	-11.2971
ᎵᏍᎨᏗᏴ	-11.2971
▁ᎠᎵᎮᎵᎪ	-11.2971
▁ᎡᎻᎳ	-11.2971
▁ᎤᏪᏟᏌᏁ	-11.2971
▁ᎹᎻᎵ	-11.2971
▁ᏁᏓᏈ	-11.2971
▁ᏄᏛᎿᏕᎬ	-11.2971
▁ᏓᏍᏗᏰᏗᏍᎬ	-11.2971
▁ᏘᏰᎸᏂ	-11.2971
▁ᏙᏓᏥᏲᎱᏏ	-11.2971
▁ᏙᏗᎾᎵᏍᏓᏴᎲᏍᎬ	-11.2971
▁ᏥᎪᎵᏰᏍᎬ	-11.2971
▁ᏮᏘᏯᏅᎯ	-11.2971
ᎩᏪᏎᎲᎩ	-11.2971
▁ᎩᏅᎪᎢ	-11.2971
▁ᏁᎨᏒᎾ	-11.2971
▁ᏂᏨᏴᏁᎸ	-11.2971
▁ᏧᎾᏓᏂᎸᎢᏍᏗᏱ	-11.2971
▁ᎢᎦᏗᏍᎦᎶᏗᏱ	-11.2971
▁ᏚᏂᎧᎮᏍᏗ	-11.2971
▁ᏚᏟᏂᏆᏅᏁ	-11.2971
▁ᏮᏘᎶᏏ	-11.2971
▁ᏯᎵᏖᎸᎮᏍᎬᎾ	-11.2971
▁ᏯᏎᎦᎩ	-11.2971
ᎦᎭᎾᏅ	-11.2971
▁ᎠᏲᏓᏝᎲᎢ	-11.2971
▁ᎢᏖᎳ	-11.2971
▁ᏄᏍᏆᏂᎩᏛ	-11.2971
▁ᏓᏤᎵᏍᏛ	-11.2971
▁ᏂᏪᏎᎸᎭ	-11.2971
▁ᏕᎷᎨ	-11.2971
▁ᏬᎩᏅᏍᏔᏅᎩ	-11.2971
▁ᏯᏓᏅᏍᎬᎾ	-11.2971
▁ᎢᎬᏩᏛᏛᏁ	-11.2971
▁ᏥᏄᏩᏁᎸ	-11.2971
▁ᎤᏪᏯᎸᏅᎩ	-11.2971
▁ᎤᏎᎦᏨᎯ	-11.2971
▁ᎪᎶᏁᏛ	-11.2971
▁ᎬᏩᏴᎸᎯ	-11.2971
▁ᏚᎵᏃᎮᏔᏁᎢ	-11.2971
ᏬᏁᏗᏍᎪ	-11.2971
▁ᏫᎬᏲᏪᎳᏏ	-11.2971
▁ᎠᎦᏔᏛᏍᎩ	-11.2971
▁ᎡᏗᏂᏱ	-11.2971
▁ᎬᏍᎦᎵ	-11.2971
▁ᏧᏘᏲ	-11.2971
▁ᏛᏂᎾᏄᎪᏥ	-11.2971
▁ᏣᏔᎳᏬᏍᎬ	-11.2971
▁ᎤᏂᏔᎳᏬᏍᎬᎢ	-11.2971
▁ᏁᏍᏗᏪᏎᎸᎭ	-11.2971
▁ᎢᏦᎵᎩ	-11.2971
▁ᏂᏦᎯᏳ	-11.2971
▁ᎢᏳᎾᏛᎾᏕᎩ	-11.2971
▁ᎤᎯᏐᏓᏁ	-11.2971
▁ᎤᎾᎵᏃᎯᏴᎯ	-11.2971
▁ᎤᏕᏒᏂᎸᎯ	-11.2971
▁ᏓᏑᏫᏍᎬ	-11.2971
▁ᎠᏍᎫᏕᏒ	-11.2971
▁ᎠᏍᏙᏍᎩ	-11.2971
▁ᎤᎵᏌᎵᏓᏁ	-11.2971
▁ᎤᏩᏂᎦᏢ	-11.2971
▁ᏱᏗᏣᏰᎸᏁᎢ	-11.2971
▁ᎢᏣᏓᏟᏌ	-11.2971
▁ᎦᏄᎾᏓᎴᎩ	-11.2971
▁ᏓᏥᏯᏓᏙᎵᏍᏓᏁᎵ	-11.2971
▁ᏗᏂᎬᏓᎨᏂ	-11.2971
▁ᎣᎨᏙᎸ	-11.2971
▁ᏙᏛᎾᎴᏂ	-11.2971
▁ᏗᎾᏓᏲᏁᎯ	-11.2971
▁ᏂᏗᎨᏥᎾᏝᎥᎾ	-11.2971
▁ᏂᏦᎯᏳᎲᏍᎬᎾ	-11.2971
▁ᏗᎨᎦᏛᏅᎯ	-11.2971
▁ᏧᎵᎦᎸᏓ	-11.2971
▁ᎠᏙᏂᏍᎩ	-11.2971
▁ᏗᏐᏂ	-11.2971
▁ᏯᏂᎷᎬᎾ	-11.2971
ᏓᏫᏍᎦᎨ	-11.2971
▁ᎠᏂᎷᏨᎭ	-11.2971
▁ᏌᎶᎻ	-11.2971
▁ᎤᎬᏍᏕᎵ	-11.2971
▁ᎪᏢᏅᎥᏍᎩ	-11.2971
▁ᏓᏆᏓᏂᎸᎨᏍᏗ	-11.2971
▁ᏙᎩᎾᏦᏒ	-11.2971
▁ᎦᎵᏒᏍᏗᏍᎬ	-11.2971
▁ᏕᎫᏓᏛ	-11.2971
▁ᎢᎬᏂᎮᏍᏗ	-11.2972
▁ᏗᎦᎶᎩᏍᎩ	-11.2972
▁ᏗᎾᏓᏙᎵᏍᏓᏁᎯ	-11.2972
▁ᎤᏔᏲᎸ	-11.2972
ᎨᏅᏴ	-11.2972
▁ᎤᎾᎵᏍᏓᏴᏁᏃ	-11.2972
▁ᏱᏨᏰᎵᏎᎭ	-11.2972
▁ᏗᏓᏂᏱᏍᎩ	-11.2972
▁ᎩᎵᏯᏗ	-11.2972
▁ᏓᏓᏂᏌᎲ	-11.2972
ᏧᎪᏓᏏ	-11.2972
▁ᏅᏓᏳᎵᏍᎪᎸᏔᏅᎯ	-11.2972
▁ᎢᏣᏄᏬᏍᏕᏍᏗ	-11.2972
▁ᏂᏕᏣᏛᏁᎮᏍᏗ	-11.2972
▁ᎤᎿᎷᏎ	-11.2972
▁ᏄᎾᏓᏛᎩ	-11.2972
▁ᎤᏁᎢᎸᏗ	-11.2972
▁ᏍᎩᏯᏅᏓᏗᏍᎨᏍᏗ	-11.2972
▁ᏍᎩᏯᏛᎦᏁᎸᎯ	-11.2972
▁ᏙᏓᏳᏲᏏ	-11.2972
▁ᎤᏓᏁᏟᏴᏍᏓᏁᎴ	-11.2972
▁ᎩᏂᏙᏓ	-11.2972
▁ᎡᏗᎸᏉᏓ	-11.2972
▁ᏕᎦᎧᎮᏍᏗ	-11.2972
▁ᏚᎾᎭᏄᏮ	-11.2972
▁ᎥᏇᎵᏎᎸ	-11.2972
ᎯᏣᏛᎦᏍᏓ	-11.2972
▁ᎠᎩᎵᏬᎢᏍᏗ	-11.2972
▁ᏓᎬᏅᏏ	-11.2972
▁ᏣᎵᏍᏓᏴᏗ	-11.2972
▁ᏂᏕᎦᎵᏍᏗᏍᎨ	-11.2972
▁ᎠᏛᎩᏍᎩ	-11.2972
▁ᎠᏥᏅᏩᏅᎯ	-11.2972
▁ᏅᏛᏂᏪᏏ	-11.2972
ᎬᏲᎵᎭ	-11.2972
ᏔᎴᏐ	-11.2972
▁ᏴᎨᏥᎪᏩᏛ	-11.2972
▁ᏗᎩᏂᏴᏗᏱ	-11.2972
▁ᏓᏂᏂᏓᏛ	-11.2972
▁ᏗᎫᏓᏙᏗ	-11.2972
▁ᏗᏗᏰᎸ	-11.2972
▁ᏧᎾᏓᏅᏬᏗᏱ	-11.2972
▁ᏫᏄᎾᎵᏍᏓᏏ	-11.2972
▁ᏗᎦᏃᏙᏗᏱ	-11.2972
▁ᎠᏍᎦᏲᎯ	-11.2972
▁ᎠᏂᏁᏉᎨ	-11.2972
▁ᎾᏆᏛᏁᎵᏙᎸ	-11.2972
▁ᎬᏍᎦᏅᏤᎸ	-11.2972
ran	-11.2972
▁ᏳᏲᎱᏎᎸ	-11.2972
▁ᎤᏁᎵᏨ	-11.2972
▁ᎤᎸᏫᏒ	-11.2972
▁ᎬᏩᏂᏅᏫᏍᏔᏂᏙᎯ	-11.2972
▁ᏂᏨᏁᎮᏍᏗ	-11.2973
▁ᎠᎾᏟᎲ	-11.2973
▁ᏧᎵᎩᏏ	-11.2973
ᏓᏒᏍᏓ	-11.2973
▁ᏕᎬᏩᏠᏎᎢ	-11.2973
ᎬᏩᏳᎪᏗ	-11.2973
▁ᎫᎭᎳ	-11.2973
▁ᏧᏭᏓᎴᏍᏗᏱ	-11.2973
▁ᏓᏍᏆᏚᎸ	-11.2973
▁ᎤᏓᎾᏏᏅ	-11.2973
▁ᏓᏅᏩ	-11.2973
▁ᎠᎾᏟᏃᎮᏍᎬ	-11.2973
▁ᏧᏁᏅᏒ	-11.2973
▁ᎢᏥᎧᎵᏣ	-11.2973
▁ᏫᎦᎢᏒ	-11.2973
▁ᏚᎩᏒᎩ	-11.2973
▁ᏚᏁᏅᏒ	-11.2973
▁ᎠᎩᏲᏏᏍᎬ	-11.2973
▁ᎪᏢᏛᎩ	-11.2973
ᏠᏯᏍᏗᏍᎨᏍᏗ	-11.2973
▁ᏗᎩᏣᏗ	-11.2973
▁ᏭᏓᏓᎩᏅᏎ	-11.2973
▁ᎢᏍᏗᏙᏓ	-11.2973
▁ᏫᏲᏪᎳᏏ	-11.2973
▁ᎡᎶᏂᎵ	-11.2973
▁ᏗᏂᎦᏘᎴᎩ	-11.2973
ᏏᏀᎥ	-11.2973
ᎫᏘᎶ	-11.2973
▁ᏱᏂᏓᎦᎵᏍᏔᏂ	-11.2973
▁ᎠᏆᎵᏥᏙᏗᏱ	-11.2973
▁ᎤᏓᏍᏛᏗᏍᏗ	-11.2973
▁ᏚᏙᏓᏈᏒ	-11.2973
▁ᏚᎵᎬᏩᏢ	-11.2973
▁ᏭᏕᏁᎢ	-11.2974
▁ᎢᎬᏩᏍᏗᎭ	-11.2974
▁ᏱᏄᏩᏁᎰ	-11.2974
▁ᏕᏣᏓᎨᏳᏎᏍᏗ	-11.2974
ers	-11.2974
▁ᏱᏓᏲᎩ	-11.2974
▁ᎠᏓᎦᎵᏍᏓᏗᏍᎩ	-11.2974
▁ᎠᏓᏅᏖᎸ	-11.2974
ᎾᏞᎬ	-11.2974
▁ᎤᏪᎷᏅ	-11.2974
▁ᏘᎹᏂ	-11.2974
▁ᏙᏓᎬᏁᎵ	-11.2974
▁ᏥᏕᏣᎸᏫᏍᏓᏁᎭ	-11.2974
▁ᏕᏣᎧᎿᏩᏗᏙᎮᏍᏗ	-11.2974
▁ᏕᎦᎵᏦᏛ	-11.2974
▁ᎣᏣᎵᎡᎵᏤ	-11.2974
▁ᏗᎤᏁᏤ	-11.2974
▁ᎤᏂᎧᎲ	-11.2974
▁ᎤᏂᏲᎴ	-11.2974
ᏈᎪᎵ	-11.2974
▁ᏥᏍᎦᏅᎩ	-11.2974
▁ᎤᏅᏂᏍᏗᏱ	-11.2974
▁ᏚᎪᏄᎶᏎ	-11.2974
▁ᎠᏂᏍᏆᏂᎪᏍᎨ	-11.2974
▁ᎢᏥᎩᎵᏲᎬᎢ	-11.2974
▁ᏌᎪᏗ	-11.2974
▁ᎬᏩᏂᏍᏓᏩᏗᏙᎯ	-11.2974
▁ᏚᏃᎩᏎ	-11.2974
▁ᏧᏓᏅᏓᏗᏍᏙᏗᏱ	-11.2974
▁ᏧᏪᎷᏁ	-11.2974
▁ᏗᏓᏙᏕᏍᏗᏍᎩ	-11.2975
▁ᏧᏅᎨᏫ	-11.2975
▁ᏗᏂᏙᎬ	-11.2975
▁ᏗᏜᏍᏔᏅᎯ	-11.2975
ᎵᏍᏘᏂᎸ	-11.2975
▁ᏗᎩᏙᏓ	-11.2975
▁ᎤᏂᏃᎮᏛ	-11.2975
▁ᏂᏗᏣᏓ	-11.2975
▁ᎱᎷᏨ	-11.2975
▁ᎠᎩᏲᎱᎯᏍᏗᏱ	-11.2975
▁ᏄᏂᎪᎸᎾ	-11.2975
▁ᏗᎬᏯᏠ	-11.2975
▁ᎤᎾᏓᏛᏅᎯ	-11.2975
▁ᏣᎩᏯᎠ	-11.2975
ᏅᏓᏥᏪᏎᎵ	-11.2975
▁ᎢᏣᏕᏗᏱ	-11.2975
▁ᎠᏥᏂᏌᏅ	-11.2975
▁ᏓᎦᎾᏄᎪᏫᏏ	-11.2975
▁ᎢᏣᎵᏍᏓᏴᏗᏍᎨᏍᏗ	-11.2975
▁ᎬᏬᎳᏕᏍᎬ	-11.2975
▁ᏗᏂᏁᎵᏛ	-11.2976
▁ᎠᎵᏍᏆᏓ	-11.2976
▁ᎡᏣᏙᎵᎩ	-11.2976
▁ᏓᎬᎷᏤᎵ	-11.2976
▁ᏍᎩᏲᏍᏓ	-11.2976
▁ᎭᏠᎠᎯ	-11.2976
▁ᎢᏥᎦᏛᏂᏙᎯᏉ	-11.2976
▁ᏅᏯᏗᎦᎪᏗᏱ	-11.2976
▁ᎦᎶᎪᏗ	-11.2976
▁ᏱᎦᏬᏂᎭ	-11.2976
▁ᏦᏚᎯ	-11.2976
▁ᎠᎩᎩᎬ	-11.2976
▁ᏁᏓᏂᎵ	-11.2976
▁ᎤᎾᏨᏓᎵ	-11.2976
▁ᎤᏰᎶᎢᏍᏔ	-11.2976
▁ᏗᏍᎩᏲᎯᏏ	-11.2976
▁ᎣᎩᎵᏦᏩᏛ	-11.2976
▁ᏧᏬᏪᎳᏁ	-11.2976
▁ᏗᎨᏥᏲᎯᏎᎸᎯ	-11.2976
ᏯᏛᏁᎮᏍᏗ	-11.2977
▁ᎤᏣᏪᏐᎸᏍᏕ	-11.2977
▁ᎠᏥᏂᏌᏁ	-11.2977
▁ᏅᏓᏳᎶᎯᏍᏗᏱ	-11.2977
▁ᏌᏆᏯ	-11.2977
▁ᎾᎩᎲᎾ	-11.2977
▁ᏧᎾᏂᏏᏗᏱ	-11.2977
ᎫᏓᎴᏍᎩ	-11.2977
▁ᏂᎦᏖᏍᏗ	-11.2977
▁ᏂᏓᎾᏤ	-11.2977
▁ᏧᏙᏍᏙᏗ	-11.2977
▁ᏂᎨᏨᏁ	-11.2978
▁ᎤᎩᏢ	-11.2978
▁ᎨᏥᎩᎵᏲᎢᏍᏙᏗᏱ	-11.2978
▁ᎢᏓᎻ	-11.2978
▁ᏧᎦᏌᏬᎸ	-11.2978
▁ᏓᎶᎨ	-11.2978
▁ᎤᏗᏩᏒᎯ	-11.2978
▁ᏕᎧᏅ	-11.2978
▁ᎪᎵ	-11.2978
ᎦᎫᏍᏓᎥ	-11.2978
▁ᏧᏬᏪᎶᏗ	-11.2978
ᎾᎵᏍᏓᏁᏗ	-11.2978
▁ᎠᎦᏙᎥᎯᏍᏙᏗ	-11.2978
ᏂᎸᎬᎾ	-11.2978
▁ᏕᎰᏢᏅᎭ	-11.2978
▁ᎯᏌᏙᏯ	-11.2979
▁ᎤᎾᎵᏍᏓᏴᏁᎢ	-11.2979
▁ᏯᏆᏛᏁᎸ	-11.2979
▁ᏱᏥᏯᎠ	-11.2979
▁ᎪᎭᏗ	-11.2979
▁ᎢᏣᏛᏁᎸᎯ	-11.2979
▁ᎤᎾᏓᏅᏓᏕᎢ	-11.2979
▁ᏛᏂᎪᎯ	-11.2979
▁ᎤᏯᏪᏐᎴ	-11.2979
▁ᎠᏓᏛᏗᏍᎩ	-11.2979
▁ᎤᏄᎩᏣᏁ	-11.2979
▁ᎢᏗᎬᏁᎸᎯ	-11.2979
▁ᏧᎾᏨᏍᏗᏱ	-11.2979
▁ᏳᏃᎵᏤ	-11.2979
▁ᎧᏃᎨᏂ	-11.2979
▁ᎠᏂᏏᎾᏌᏅ	-11.2979
ᎾᏙᏓᏆᏍᏗ	-11.2979
▁ᏗᏥᏅᏏᏓᏍᏗ	-11.2979
▁ᎣᎩᏅᏏᏓᏍᏗ	-11.298
▁ᏃᎦᏛᏅ	-11.298
▁ᎣᎩᎷᏤᎸ	-11.298
ᏕᏯᏙᏗ	-11.298
▁ᏯᏕᎶᎰᏍ	-11.298
▁ᎭᎦᏌᏯᏍᏓ	-11.298
▁ᎠᏓᏴᏍᏔᎩᏍᎩ	-11.298
▁ᎤᏁᏐᎠᏒᎩ	-11.298
▁ᎠᏥᎶᎥ	-11.298
▁ᎬᏩᎾᏰᏍᎩ	-11.298
▁ᎴᎹᎩ	-11.298
▁ᏗᏂᎾᏕᎩ	-11.298
▁ᏍᏊᏓᎳᎩ	-11.298
▁ᏣᏍᎦᎸᎩ	-11.298
▁ᏂᏚᏂᏪᏎᎸᎩ	-11.298
▁ᏧᏄᎪᏔᏅ	-11.298
▁ᎰᎯᏳᎲᏍᎦ	-11.2981
▁ᎦᏌᎴᏅ	-11.2981
▁ᏚᏂᏚᎲ	-11.2981
▁ᏚᏭᏓᏔᏅᎩ	-11.2981
▁ᏓᏕᏏ	-11.2981
▁ᎠᏗᏔᏍᎨᏍᏗ	-11.2981
ᎤᏁᏨ	-11.2981
▁ᎤᎾᏗᏔᏍᏗ	-11.2981
▁ᎠᏖᎵᏙᎩᎯ	-11.2981
▁ᎠᏍᏆᏂᎪᎯᏍᏗ	-11.2981
▁ᎤᎵᏨᏓᏆᏛ	-11.2981
ᏓᏅᏛᎳ	-11.2981
▁ᏧᏂᏄᎪᏫᏍᏗᏱ	-11.2982
▁ᎢᏣᎵᏏᎾᎯᏍᏗ	-11.2982
▁ᎤᏁᏍᏔᎳ	-11.2982
▁ᎬᏩᏄᎯ	-11.2982
▁ᎤᏩᏂᎸᎩ	-11.2982
▁ᏕᎦᎶᏛ	-11.2982
▁ᎢᏥᏴᏍᏗᏱ	-11.2982
▁ᏗᏣᎵᏂᎩᏗᏳ	-11.2982
▁ᎻᏗᏂᏱ	-11.2982
▁ᏫᏥᎶᎯ	-11.2982
▁ᎢᏥᏯᎥᎢ	-11.2982
▁ᏗᎵᏍᏚᎶ	-11.2982
▁ᎡᏥᎨᏳᎢ	-11.2982
▁ᎤᎾᏛᏅᎢᏍᏔᏁ	-11.2983
▁ᏗᎧᎿ	-11.2983
▁ᏥᏥᏯᎠ	-11.2983
ᏪᏎᎸᎯ	-11.2983
ᏚᎧᎾᎾ	-11.2983
▁ᏱᎰᏣ	-11.2983
▁ᎢᏯᏋᏁᏗᏱ	-11.2983
▁ᎤᏓᎪᎵᏰᏗ	-11.2983
▁ᎬᎩᏁᏤᎸᎯ	-11.2983
▁ᎤᏙᏯᏅᎯᏛ	-11.2984
▁ᎠᎩᏅᏏᏓᏍᏗ	-11.2984
▁ᎤᏓᏅᎡᎸᎩ	-11.2984
▁ᎣᏥᏃᎮᏍᎩ	-11.2984
▁ᎠᏂᎨᏳᏣ	-11.2984
ᏍᏔᏁᎰ	-11.2984
▁ᎬᏩᏂᏴᏗᏱ	-11.2984
▁ᎤᏓᏅᏓᏕᎢ	-11.2984
▁ᎤᎾᎵᏓᎩᏛ	-11.2984
▁ᏅᏧᏪᏎᎢ	-11.2985
▁ᎤᏇᏓᏢ	-11.2985
▁ᎤᏓᏱᎴᎢ	-11.2985
▁ᏥᏄᎾᏍᏗ	-11.2985
▁ᏗᎦᏃᎸᏗᏍᎬ	-11.2985
▁ᎤᎾᏛᏅᎢᏍᏗ	-11.2985
▁ᏳᎨᏳᎭ	-11.2985
▁ᎤᎾᏍᎪᏎ	-11.2985
▁ᎤᏂᏍᏆᏂᎪᏔᏅ	-11.2985
ᏍᏓᏱᏗᏍᏗᏱ	-11.2985
▁ᏦᎨᏅᏒ	-11.2986
▁ᏧᎵᏏᎬ	-11.2986
▁ᎦᎬᏩᏐᏢᏕᎢ	-11.2986
▁ᎤᏁᏍᏓ	-11.2986
▁ᏫᎤᎶᏎᎢ	-11.2986
▁ᎤᎾᏓᏍᏔᏴ	-11.2986
ᏘᏅ	-11.2986
▁ᎤᏂᎾᏰᎯᏍᏗ	-11.2987
▁ᏥᏥᎪᏩᏘᎭ	-11.2987
▁ᏁᏪᏎᎴᎢ	-11.2987
▁ᏒᎦᎾᏲᎪ	-11.2987
▁ᎥᎦᏥᎪᎥᎩ	-11.2987
▁ᏧᎾᎵᏍᏓᏴᏗᏱ	-11.2987
ᏩᏘᏍᎩ	-11.2987
▁ᏅᏋᏁᎸ	-11.2987
▁ᏭᏩᏅᏓᏕ	-11.2987
▁ᏕᎩᎸᏫᏍᏓᏁᎲ	-11.2987
ᏌᎩᏒ	-11.2987
▁ᎣᎦᏚᎵᏍᎬ	-11.2987
▁ᏕᎦᏃᏣᎸ	-11.2988
ᏗᎦᎴᏲᏤ	-11.2988
▁ᎠᎾᎦᎵᏍᎩ	-11.2988
▁ᎦᎸᏍᏙᏗ	-11.2988
▁ᎤᎧᎭᏲᏛ	-11.2988
▁ᎣᎦᎵᎪᏅ	-11.2988
▁ᎤᏓᏅᎦᎸᏓ	-11.2988
▁ᏓᎩᏲᎯᏎᎸ	-11.2988
▁ᏗᎵᏍᎪᎸᏔᏅᎯ	-11.2988
▁ᎡᎦᏔ	-11.2988
▁ᏳᎷᏨ	-11.2988
▁ᎠᏗᏍᎦᎶᏗ	-11.2988
▁ᎭᏙᎴᎰᎯ	-11.2989
▁ᏚᏌᎳᏓᏅ	-11.2989
▁ᏓᏍᎩᏁᎵ	-11.2989
▁ᏥᏐᎯ	-11.2989
▁ᎠᏁᎷᎲᏍᎨ	-11.2989
▁ᏧᏄᎪᏙᏗᏱ	-11.2989
▁ᏂᎬᏩᏂᏪᏎ	-11.2989
ᏒᏁᎰ	-11.2989
▁ᏱᏂᏣᏛᏁᎸ	-11.2989
▁ᎢᏣᏛᎪᏗᏱ	-11.2989
▁ᎢᏳᏂᏪᏍᏗᏱ	-11.2989
▁ᎢᏥᎷᏨᎭ	-11.2989
▁ᏚᏲᎵᎸ	-11.2989
▁ᏚᏂᏲᏎ	-11.299
▁ᏓᏥᎷᏥ	-11.299
▁ᎶᏔᏂ	-11.299
▁ᎯᏥᏧᏣ	-11.299
▁ᏧᏂᎷᏫᏍᏔᏁᏗ	-11.299
▁ᎠᎦᎫᏴᎡᏗ	-11.299
▁ᎤᎾᎵᏍᏓᏴᏅᎯ	-11.299
▁ᏧᏏᎳᏛᏙᏗ	-11.299
▁ᏓᏞᏍᏗ	-11.299
ᎦᎿᏩ	-11.299
▁ᎠᏆᏡᏗᏍᎩ	-11.299
▁ᏥᏍᎦ	-11.2991
▁ᎠᏨᏏᏰᏗ	-11.2991
▁ᎤᏩᏇᏅᏔᏁ	-11.2991
▁ᎢᏥᎦᏔᎰ	-11.2991
▁ᎧᏃᏍᎦ	-11.2992
▁ᎾᎾᏛᏁᎮᏍᏗ	-11.2992
▁ᎠᏔᎸ	-11.2992
▁ᎤᏓᎷᎸ	-11.2992
▁ᎠᏛᎯᏍᏗᏍᎩ	-11.2992
▁ᏭᏘᏅᏍᏔᏁᎢ	-11.2992
▁ᎠᏔᏲᎯᎮᏍᏗ	-11.2992
▁ᏱᏣᏞ	-11.2992
▁ᎤᏪᏙᎵᏤᎢ	-11.2992
▁ᎤᏓᏴᎳᏔᏅ	-11.2992
▁ᎤᏂᏰᏨ	-11.2993
▁ᎠᏲᎱᏍᎨᏍᏗ	-11.2993
▁ᎤᏁᎳᏗᏍᏗᏱ	-11.2993
▁ᏭᏴᏍᏗᏱ	-11.2993
▁ᎡᏥᏁᎸ	-11.2993
▁ᎤᏘᏅᏎ	-11.2993
▁ᎦᎾᏄᎪᏥᎸᎭ	-11.2993
▁ᎤᎬᏍᎪᎸᏁ	-11.2994
▁ᏚᏪᏐᏤ	-11.2994
▁ᎡᏥᎦᏔᎭ	-11.2995
▁ᏥᎧᏍᎨᏂ	-11.2995
▁ᎤᏍᏔᎦ	-11.2995
▁ᏤᏏᏂ	-11.2995
▁ᎨᏥᏰᎸᎯ	-11.2995
▁ᏱᎾᏛᎦ	-11.2995
ᏒᎵ	-11.2996
▁ᎢᏣᏙᎴᎰᎯ	-11.2996
▁ᎠᏂᏐᏢᎢᏍᏗᏍᎩ	-11.2996
▁ᏂᏕᎲᏁ	-11.2996
▁ᏚᏅᏩᏅᎩ	-11.2996
▁ᎤᏂᏁᎢᏍᏗᏱ	-11.2996
▁ᏫᏓᏆᎧᎾᏅᎩ	-11.2996
▁ᎤᎩᎵᏲᎢᏍᏗᏱ	-11.2996
▁ᎯᏍᎩᏍᏆ	-11.2997
ᏰᎢ	-11.2997
▁ᎤᎾᏓᏅᏍᏗᏱ	-11.2997
▁ᎬᎭᏃ	-11.2997
▁ᏕᏛᏅ	-11.2997
▁ᎮᎮᏍᏗ	-11.2997
▁ᏳᏪᎾ	-11.2997
▁ᎠᏤᎷᎯᏍᏗ	-11.2998
▁ᎾᏅᏁᎰ	-11.2998
ᏌᎳᏙᏗᏱ	-11.2998
▁ᏗᏍᏕᎵᏍᎩ	-11.2998
▁ᎪᏍᏔᏴ	-11.2998
▁ᎠᏆᏕᏗᏱ	-11.2999
▁ᎠᏥᎤᏍᏕᏎ	-11.2999
ᏐᏍᏙᏗ	-11.3
▁ᎤᏍᏆᏂᎩ	-11.3
▁ᏚᎵᏰ	-11.3
ᎾᏝᎥᎾ	-11.3
▁ᎤᎾᏠᎾᏍᏛ	-11.3
ᎠᏍᎦ	-11.3
▁ᎤᎾᏗᏔᏍᏗᏱ	-11.3001
▁ᏥᏚᏁᏤᎴ	-11.3001
▁ᎬᏩᏂᏴᎲᎩ	-11.3001
ᏍᎩᏰᎵᏎᎮᏍᏗ	-11.3002
▁ᏣᎾᏗᎭ	-11.3002
▁ᎤᎵᏌᎳᏓᏁ	-11.3003
▁ᎢᎬᏴ	-11.3003
▁ᎠᏲᏍᏙᏗ	-11.3004
▁ᏧᏍᏕᎸᏗᏱ	-11.3004
▁ᏱᏓᏚ	-11.3004
▁ᏔᏔ	-11.3004
▁ᎠᏂᏣᏗ	-11.3004
▁ᎠᏍᏓᏱᏗᏍᎩ	-11.3004
▁ᎩᎳᏊ	-11.3005
▁ᎠᎩᏁᏤᎸᎩ	-11.3005
▁ᎠᏂᎦᏘᏴ	-11.3005
ᏦᎦᏓᎵ	-11.3006
▁ᏳᏫᎦ	-11.3006
▁ᏣᎦᏙᎥᎯᏍᏗᏱ	-11.3006
▁ᏗᎬᏩᏁᎶᏗ	-11.3006
▁ᏧᏏᎳᏛᏗ	-11.3007
▁ᎠᎾᏓᏩᏛᎯᏙᎢ	-11.3007
▁ᎤᏅᏓᏗᏗᏒᎢ	-11.3007
▁ᏗᏆᏓᎴᏅᎢ	-11.3007
▁ᏚᏠᏒᏎᎢ	-11.3007
▁ᏓᏓᏁᎳᏗᏒᎢ	-11.3007
▁ᏚᏚᎪᏔᏅᎢ	-11.3007
▁ᎤᏓᏏᏁᎢ	-11.3008
▁ᏕᏣᏓᏘᎾᎥᎢ	-11.3008
▁ᏧᎾᏄᎪᏫᏎᎴᎢ	-11.3008
▁ᏣᏍᎦᎩ	-11.3008
▁ᏗᏒᏆᎶᏍᏗ	-11.3008
▁ᏚᎾᏄᎪᏫᏎᎢ	-11.3008
▁ᎤᏂᏌᏛᏗ	-11.3008
▁ᎢᏣᏂᎩ	-11.3009
ᏓᏙᎵᏍᏓᏁᎭ	-11.3009
▁ᎠᏕᎸᏓᎶᏂᎨ	-11.3009
▁ᎤᏛᎦᏍᏔᏁᎢ	-11.3009
▁ᏙᏣᏓ	-11.3009
▁ᏗᎦᎵᏦᏛᎢ	-11.3009
▁ᏓᎬᏩᎵ	-11.3009
▁ᏚᎾᏓᏂᎸᏨ	-11.301
▁ᏍᎩᎨᏳᎯᏳ	-11.301
ᏍᏓᏁᎭ	-11.301
▁ᏧᏛᏒ	-11.301
▁ᎧᏁᎨᎢ	-11.3011
ᎧᎲᏍᏗᏱ	-11.3011
▁ᎣᏤᎲᎢ	-11.3011
▁ᏴᎦᎬ	-11.3012
ᏅᎡᎵ	-11.3012
▁ᎤᎵᏏᎾᎯᏍᏗ	-11.3012
▁ᏣᏚᎵᎭ	-11.3012
▁ᎠᏂᎦᏔᎮᏍᏗ	-11.3012
ᏅᏍᏔᏅᎯ	-11.3012
▁ᎤᏢᎦ	-11.3012
▁ᎣᎦᏓᏅᏔᏩᏕ	-11.3013
▁ᏕᏥᎳᏫᎩ	-11.3013
▁ᎠᎩᏰᎯ	-11.3013
▁ᎠᏓᎾᏅ	-11.3013
▁ᏥᏃᎪᎢ	-11.3013
▁ᎤᎾᏛᏓᏍᏛ	-11.3013
▁ᎠᏥᏯᏅᎲ	-11.3014
▁ᏂᎤᏍᏗ	-11.3014
ᏰᎸᎾ	-11.3014
ᎬᎭᎷᏰᎢ	-11.3014
▁ᏭᏓ	-11.3014
▁ᎠᏍᏆᏂᎪᏛ	-11.3015
▁ᏄᏁᎩᏴ	-11.3015
▁ᎤᏂᏲᎸᎩ	-11.3015
▁ᎠᏍᎦᎢᎮᏰᏃ	-11.3015
▁ᎮᏙᎭ	-11.3015
ᏛᏂᏗᏍᏕᏍᏗ	-11.3016
▁ᎾᏆᎵᏍᏓᏁᎸᎩ	-11.3016
▁ᏕᎨᏥᏲ	-11.3016
▁ᏳᏛᎦ	-11.3017
▁ᎢᎬᏩᏅᏁ	-11.3017
▁ᎠᏥᏍᏛᏗᏍᏙᏗ	-11.3017
▁ᎤᏪᏁ	-11.3017
ᏍᏚᎲᏍᎪ	-11.3018
▁ᎾᏂᎠ	-11.3018
▁ᎤᎾᏄᎪᎢᏍᏗᏱ	-11.3018
▁ᎤᏁᏉᎢᏍᏗᏱ	-11.3018
▁ᎠᎫᏤᎵ	-11.3019
▁ᏧᏍᎩᏃ	-11.3019
▁ᎤᏁᏙᎴᎢ	-11.3019
▁ᎠᎩᎸᏙᏗ	-11.302
▁ᏧᏅᎪᏤ	-11.302
▁ᎡᏥᎦᏙᎥ	-11.3021
▁ᎠᏂᎵᎾ	-11.3021
▁ᎤᏁᎫ	-11.3021
▁ᎤᎾᎵᎪᎲ	-11.3021
▁ᏚᏑᏰᏒ	-11.3021
▁ᎠᏯᏫᏍ	-11.3022
▁ᎤᎾᏛᎦ	-11.3022
▁ᎠᏓᏅᏙᎩᎯ	-11.3023
▁ᏧᏂᏍᏓ	-11.3023
▁ᏩᏌ	-11.3023
▁ᏯᎩᏰᎸᎭ	-11.3023
▁ᏗᎻᎾ	-11.3023
▁ᏚᎾᏔᏅᎩ	-11.3024
ᏥᎩ	-11.3024
ᎧᏁᏗ	-11.3025
▁ᎤᏁᎸᏙᏗ	-11.3025
▁ᎦᎵᎡᎵ	-11.3025
▁ᏂᏚᏛᏁᎸ	-11.3025
▁ᎪᎹᎵᏱ	-11.3025
▁ᎨᏥᏍᏕᎸᏗᏱ	-11.3026
▁ᏗᏤᏅᏒ	-11.3026
▁ᎤᏂᎶᏐᏅ	-11.3027
ᎷᏤᎴᎢ	-11.3027
▁ᎠᏂᎦᏔᎯᏳ	-11.3027
ᏍᏆᏂᎪᏔᏅ	-11.3028
▁ᏚᏂᏲᎱᏒᎩ	-11.3028
▁ᏕᏥᎧᏅ	-11.3028
ᎨᎮᎩ	-11.3029
▁ᏄᏪᎡᎢ	-11.3029
▁ᏧᏪᎳ	-11.303
▁ᎣᏥᏬᏂᏍᎬ	-11.303
▁ᎣᎦᏛᎦᏅᎯ	-11.3031
▁ᎣᎦᏣᏅᎩ	-11.3031
▁ᏂᎪᎯ	-11.3031
▁ᎾᏆᏛᏅᎢ	-11.3031
▁ᎤᏔᎳᏬᏍᎬᎢ	-11.3031
▁ᎠᎾᏓᏅ	-11.3031
▁ᎣᎦᏤᎵᎦ	-11.3031
▁ᏚᏪᏲᏁᎢ	-11.3032
▁ᎤᏪᏓᏍᏗᏱ	-11.3032
ᏅᏬᏒ	-11.3032
ᎦᏔᎿᎢ	-11.3032
▁ᎤᏢᎬᎩ	-11.3033
▁ᎩᏥ	-11.3033
▁ᎠᏫᎾᎨᏍᏗ	-11.3033
▁ᎤᏍᎩᏓᏎᎢ	-11.3033
▁ᏅᏓᏍᎩ	-11.3034
▁ᎮᏙᎲᎢ	-11.3034
▁ᎤᎧᎵᎢᏍᏗᏱ	-11.3034
▁ᎤᎾᏁᎶᏔᏅ	-11.3035
ᏲᏓᎬ	-11.3035
▁ᎤᏰᎸᏒ	-11.3035
▁ᎦᎵᏦᏅ	-11.3035
▁ᏥᏧᏏ	-11.3035
▁ᎤᏂᎩᏌ	-11.3035
▁ᎤᏂᏰᎸᏗ	-11.3036
▁ᎠᏗᏅᏓ	-11.3036
▁ᎤᏂᏬᏂᏒ	-11.3036
▁ᎤᏛᏛᏅᎩ	-11.3036
▁ᏥᏤᎾ	-11.3037
▁ᏳᏁᎭ	-11.3037
▁ᏧᏓᎴᏅᎢ	-11.3038
ᎵᏍᏔᏅᎯ	-11.3039
▁ᎤᎵᏦ	-11.3039
▁ᏤᏙᎭ	-11.304
▁ᎦᎷᎩ	-11.3041
▁ᏧᏄᏬᏍᏗ	-11.3041
▁ᏣᏠᎾᏍᏗ	-11.3041
ᏕᎭᏲ	-11.3042
ᏛᏛᎲᏍᎨᏍᏗ	-11.3042
▁ᎠᏑᏫᏍ	-11.3042
ᏬᎥᎯ	-11.3042
ᎬᏂᏛ	-11.3042
▁ᏕᏓᏓᎪᎲᏳ	-11.3042
▁ᎡᏓᏍᏗᏱ	-11.3042
▁ᎤᎵᏓᏍᏔᏅ	-11.3044
▁ᎢᏓᎵᎮᎵᎩ	-11.3044
▁ᎤᏓᏙᎵᏍᏔᏅᎩ	-11.3044
▁ᏭᎶᏒᏍᏛ	-11.3045
▁ᎢᎳᎻ	-11.3045
▁ᎪᏢᏗᏱ	-11.3045
▁ᎢᏥᏍᏆᏂᎪᏙᏗᏱ	-11.3045
▁ᎤᏃᎮᎸᎯ	-11.3046
▁ᏚᏭᎪᏔᏁᎢ	-11.3047
ᎩᎦᏘᏛ	-11.3047
ᏕᎨᏍᏗ	-11.3048
▁ᎤᏂᏴᎲᎩ	-11.3048
▁ᎢᏳᏅᏂ	-11.3048
▁ᏱᎦᏔᎭ	-11.3049
▁ᎢᎨᎦ	-11.3051
▁ᎦᎵᏙᏗ	-11.3051
ᎵᏍᎪᎸᏓᏁᎰ	-11.3052
▁ᎩᎦᎨᏍᏛᏱ	-11.3052
▁ᎠᏁᎨ	-11.3052
▁ᎤᏂᏍᏆᏂᎪᏙᏗᏱ	-11.3054
▁ᏓᏰᏙᎳᏛᎢ	-11.3054
▁ᎧᏃᎮᎭ	-11.3054
▁ᎤᏰᎸᏒᎩ	-11.3055
▁ᏣᏁᏨᎢ	-11.3055
▁ᎪᎵᎩ	-11.3055
▁ᎤᏍᏓᏩᏛᏎᎢ	-11.3055
▁ᎤᎵᏖᎸᏁᎢ	-11.3056
▁ᏓᏘᏁᎲ	-11.3057
▁ᎢᏨᏁᏗᏱ	-11.3058
▁ᏧᏓᎵ	-11.3058
▁ᏚᏪᏟᏌᏅ	-11.3058
▁ᎤᏂᏄᎪᏤᏃ	-11.3059
▁ᎤᏓᏰ	-11.3059
▁ᏗᏣᎵᎢ	-11.306
▁ᎠᏥᏍᏕᎸᏗᏱ	-11.306
ᎯᏍᏔᏅ	-11.306
▁ᏕᏦᏕᏍᏗ	-11.3061
▁ᎠᎵᎮᎵᏤᏗ	-11.3061
▁ᎤᏲᏍᏔᏅᎯ	-11.3061
ᏟᎶᏍᏔᏅ	-11.3062
▁ᏬᏥ	-11.3062
▁ᏗᏂᏁᎯ	-11.3062
▁ᎤᏍᎦᎴᎢ	-11.3062
▁ᏳᏛᎾ	-11.3062
▁ᎠᎩᎾᏫᏱ	-11.3063
ᏏᏙᎴ	-11.3063
▁ᏱᏕᎬ	-11.3063
▁ᏧᎶᏎᎢ	-11.3064
▁ᏴᎬᎾ	-11.3065
ᏙᏔᏅᎩ	-11.3067
▁ᎡᏓᏓᏙᎵᏍᏓᏁ	-11.3067
▁ᎬᎨᏳ	-11.3067
▁ᎨᎦᎵᏥᏙᏁ	-11.3068
▁ᎢᏥᏰᎸᎭ	-11.3069
ᎩᏍᎬᎢ	-11.307
▁ᎠᏂᏛ	-11.3072
▁ᎤᏯᎠ	-11.3073
▁ᎢᏯᏋᏁ	-11.3074
▁ᎤᏬᏢᏗᏱ	-11.3074
▁ᏥᏂᏣᏛᏁᎸ	-11.3076
▁ᏇᎯ	-11.3076
▁ᏚᏯᏍᏗ	-11.3078
▁ᏫᏗᎩ	-11.3078
▁ᏃᎦᏍ	-11.3078
ᎦᎨᏗᏳ	-11.3078
▁ᎠᏈ	-11.3078
ᏛᏅᎢᏍᏗᏍᎨ	-11.3079
▁ᏂᏓᏕᏘᏴᎯᏒᎢ	-11.3079
▁ᏗᎦᏁᎸᎢ	-11.3079
ᎾᏓᏡᎩ	-11.308
ᏨᏒᎩ	-11.308
▁ᎢᏧᏍᏗ	-11.308
▁ᎦᎾᏄᎪᏫᏍᎪ	-11.3081
▁ᎠᏂᎦᏔᎭ	-11.3081
▁ᎤᎾᏓᏅᏖᎸᎩ	-11.3081
ᎤᏅᏗ	-11.3082
▁ᏙᏌ	-11.3082
▁ᏚᏂᎲᎢ	-11.3082
▁ᏓᏰᏙᎳᏛ	-11.3082
▁ᏦᏕ	-11.3082
▁ᏗᏆᏄᏬ	-11.3082
ᎦᏙᏍᏙ	-11.3083
▁ᎤᏗᎴᎲᏍᎬ	-11.3084
ᏥᎳᏫᏎᎲ	-11.3084
ᏌᎻ	-11.3085
▁ᎤᏂᏅᏅᎢ	-11.3087
▁ᎣᏏᏉᏍᎪ	-11.3089
▁ᏆᎷ	-11.3089
▁ᎢᏳᏲ	-11.3089
ᎶᏘ	-11.3091
ᏍᎦᏅᎾ	-11.3091
▁ᏂᎨᏒ	-11.3092
▁ᏱᏁ	-11.3092
ᎪᎲᏍᎬ	-11.3093
▁ᏑᏓᎨ	-11.3093
ᏎᎵᏔᏁ	-11.3093
ᎬᏗᎭ	-11.3093
▁ᎤᏁᏙᎸᎢ	-11.3095
▁ᎤᏬᏂᏒᎩ	-11.3096
▁ᎤᏛᏗᏱ	-11.3096
ᏗᎣᏈ	-11.3098
▁ᎤᏯᏅᎮᎢ	-11.3098
ᎵᏍᏓᏁᎸᎩ	-11.3102
▁ᎤᏂᏁᏨᎯ	-11.3102
▁ᏑᎾᎴᎢᏳ	-11.3102
ᏈᎦ	-11.3103
▁ᎠᎩᏇᏓᎸᎢ	-11.3103
▁ᏕᎦᏍᎩᎸᎢ	-11.3103
ᏩᏌᏙᏰ	-11.3103
▁ᎤᎩᎸᏗ	-11.3104
▁ᏰᎮᏍᏗ	-11.3105
▁ᏕᎦᎸᎢ	-11.3105
▁ᏗᎹ	-11.3106
ᎴᏙᏗ	-11.3106
▁ᎤᎾᏚᎸ	-11.3107
ᎵᏍᎪᎸᏔ	-11.3107
▁ᎤᏚᏓᎳ	-11.3107
▁ᎦᏆ	-11.3107
▁ᎠᏇᎵᏍᏗ	-11.3108
▁ᎢᏣᎵᎮᎵᎬᎢ	-11.3108
ᏯᏍᏛ	-11.3108
▁ᎠᏟᏍᏕ	-11.3108
▁ᎤᏬᎯᏳᏒᎢ	-11.3108
▁ᎾᎾᏛᏁᎲᎾ	-11.3109
ᏗᏉ	-11.3109
▁ᎤᎶᏏ	-11.311
▁ᎠᏁᎬ	-11.311
▁ᎠᏓᎶᏂᎨ	-11.3111
▁ᏄᏂᏪᏎᎴᎢ	-11.3111
▁ᏌᏉᎯᏳ	-11.3111
▁ᎤᎩᎸᎩ	-11.3112
▁ᎬᏩᏛᏛᏅᎩ	-11.3112
ᎳᏁᎸᎯ	-11.3112
▁ᎮᎵ	-11.3114
▁ᏫᏚᎷᏤᎴ	-11.3115
▁ᎤᏕᎶᎰᎯᏍᏗ	-11.3115
▁ᎤᏬᎯᏨᏃ	-11.3115
▁ᏧᎦᎴᏅ	-11.3116
▁ᎠᎩᏍᎦᏅᏨᎢ	-11.3118
▁ᎠᏆᏛᎦᏅᎯ	-11.3119
ᏕᎸᎩ	-11.3121
ᎤᏙᎯᏳᎭ	-11.3122
▁ᏣᏯ	-11.3124
ᏄᎪᏫᏒᎭ	-11.3124
ᏏᎳᏗ	-11.3125
▁ᎦᎢᏒᎢ	-11.3128
▁ᏓᎩᎸᏫᏍᏓᏁᎲᎢ	-11.3128
ᏥᎸᏉᏔᏅᎯ	-11.3129
ᏴᏅᎮ	-11.3129
ᏓᏛᏁᎸ	-11.3129
ree	-11.3129
▁ᎯᎦᏔᎲᎢ	-11.3129
ᎩᏍᎨ	-11.313
▁ᎤᏔᎷᎩᏍᎬ	-11.3132
▁ᎤᎬᎭᎷᏴ	-11.3133
▁ᎦᏯᎸᎢ	-11.3133
▁ᎣᎳ	-11.3134
▁ᏧᏄᏬᎢ	-11.3134
ᏑᎶᏗ	-11.3134
▁ᎦᏗᎭ	-11.3134
ᏂᏴᏗᏱ	-11.3137
▁ᎤᏦᏍᏔᏁ	-11.3137
ᎾᎾᏛᏁᎭ	-11.314
▁ᏓᎾᏗᏔᏍᎨ	-11.314
▁ᏤᎦ	-11.3141
ᏓᏢᎩ	-11.3142
▁ᎤᏍᏚᎢᏒᎩ	-11.3142
ᎦᏅᏍᎨᏂ	-11.3143
▁ᎤᏂᏃᎮᎸᎩ	-11.3144
▁ᏥᏂᎦᏪᏍᎪ	-11.3144
▁ᎾᏆᏛᏁᎸᎩ	-11.3144
▁ᎠᏆᎴᏂᏙᎸ	-11.3145
ᏍᎪᎯᏧᏈ	-11.3147
▁ᏣᏓᏁᏗ	-11.315
▁ᎤᎦᏔᎲᏒᎩ	-11.315
ᏫᏏ	-11.315
▁ᏚᎴᎯᏌᏅᎢ	-11.3151
▁ᏣᏍᏓ	-11.3151
▁ᏗᏥᎦᏴᎵᎨᎢ	-11.3151
▁ᎠᏂᎦᏴᎵᎨᎢ	-11.3152
▁ᏧᎦᏴᎵᎨᎢ	-11.3152
ᏫᏒᏗ	-11.3152
▁ᏩᎩᏴ	-11.3153
ᏓᎢᏅᏒᎩ	-11.3153
▁ᎤᏰᎸᏎᎢ	-11.3154
▁ᎢᏨᏰᎵᏎ	-11.3155
▁ᎢᏕᎲᎢ	-11.3157
ᏂᏅᎪᎠ	-11.3158
▁ᎡᎪᎢ	-11.3158
▁ᎤᎾᏚᎵᏍᎬᎩ	-11.3159
▁ᎦᏄᎸᏒᎢ	-11.316
ᎪᏢᏔᏅᎯ	-11.3162
▁ᎦᎶᏛ	-11.3164
ᏏᏙᎮ	-11.3165
▁ᎤᏁᎳᎩᏉ	-11.3166
▁ᎤᏂᎷᏨᎯ	-11.3167
▁ᏥᏂᏥ	-11.3168
▁ᎠᎪᎵᏰᏍᎩ	-11.3168
▁ᎤᏬᎴᎢ	-11.3169
▁ᎢᏣᎦᏔᏅᏎ	-11.3169
▁ᏗᎯᏍᏗᏱ	-11.317
▁ᏧᏂᏥ	-11.3171
▁ᎤᎾᏣ	-11.3171
▁ᎤᎵᏍᏆᏗᏍᏗᏱ	-11.3172
▁ᎬᏍᎦᎳ	-11.3173
▁ᎣᏁᎯ	-11.3174
▁ᎭᎳ	-11.3174
▁ᎢᎶ	-11.3175
ᎵᏂᎪᎯᏍᏗᏍᎩ	-11.3176
ᏰᎸᏗᏱ	-11.3176
ᎵᎮᎵᏍᏙᏗ	-11.3178
▁ᎠᏂᏍᎦᎩ	-11.318
▁ᏥᏁᎸᎢ	-11.318
▁ᎨᏙ	-11.3182
▁ᏈᎵᎩᏱ	-11.3185
ᏓᎳᎩ	-11.3185
▁ᏚᏂᏅᏨ	-11.3188
▁ᎤᎾᎵᏥᏙᏅ	-11.3189
ᏛᏓᏍᏓᏁᎵ	-11.3189
ᎵᎷᎬ	-11.3191
▁ᏭᎶ	-11.3194
ᏢᏫᏍᏙᏗ	-11.3194
▁ᏙᏓᏥ	-11.3194
ᏏᏙ	-11.3195
▁ᏧᏍᎪᎸ	-11.3198
▁ᎢᏯᏛᏁᏗᏱ	-11.3199
▁ᏕᎦᏚᏩᏗᏒᎢ	-11.32
▁ᎤᏰᎸᏅᎢ	-11.32
▁ᎠᎼᎯ	-11.3201
ᏥᏉᎳ	-11.3202
ᏓᏎᎪᎩᏍᏗᏱ	-11.3204
▁ᎠᏲᏟᎨ	-11.3205
▁ᏕᎤᎴ	-11.3205
▁ᎤᎵᏍᏓᏴᏗᏱ	-11.3207
▁ᎠᎪᎲ	-11.3208
▁ᏓᏰᏣ	-11.3209
▁ᏅᏩᏍᏗ	-11.321
▁ᎤᏂᏁᎯ	-11.321
▁ᎠᎦᎸ	-11.3211
▁ᎤᏣᏗ	-11.3212
▁ᏕᎮ	-11.3216
▁ᏓᏂᏃ	-11.3217
▁ᎬᏩᏍᏛᏗᏍ	-11.3217
▁ᎬᎩᏍᏗ	-11.3218
▁ᏧᏁᏗ	-11.3218
▁ᎢᏳᎾᎵᏍᏓᏁᏗᏱ	-11.3219
ᎩᎳᎾᎳᏗᏍ	-11.322
ᏂᏍᏓᏩᏚᎦ	-11.322
▁ᎠᎪᎲᏍᎬ	-11.3222
▁ᎣᎦᎾ	-11.3226
ᎤᎬᏫᏳ	-11.3233
▁ᏣᏰᎸᏅ	-11.3234
ᏓᏅᏖᏍᏗ	-11.3237
ᏂᎨᏒᎾ	-11.3237
ᏕᏗᏴ	-11.3238
▁ᏧᏭᏓ	-11.324
ᏪᏛ	-11.324
▁ᎠᏉᎯᏳ	-11.3241
ᎯᎠᎾ	-11.3241
ᏣᏓᏅᏛᎾ	-11.3242
ᏄᏛᏗ	-11.3242
▁ᎤᏢᏨ	-11.3243
▁ᎦᎦ	-11.3247
▁ᎠᏯᎥᎢ	-11.3248
▁ᎤᏜᏅᏛᎢ	-11.3248
▁ᎤᏗᏍᎦᏢ	-11.325
▁ᏗᎦᎴᏴ	-11.3252
▁ᏱᏗᏓ	-11.3253
or	-11.3253
ᏂᎢᏛ	-11.326
ᏌᏁᎢ	-11.3263
▁ᏧᏂᏲᎰ	-11.3264
▁ᏗᏄᏬᏍᏗ	-11.3266
▁ᎠᏍᎦᏅᏨᎢ	-11.3267
ᏪᏒᎩ	-11.327
ᏓᏁᎴᎢ	-11.327
▁ᏆᎩ	-11.3273
ᎨᏫᏍᏗ	-11.3273
▁ᏂᏕᎦᏪᏎ	-11.3274
ᏲᎯᏎᏗ	-11.3275
▁ᎧᏃᎲᏍ	-11.3275
▁ᏳᎾᎵᎪ	-11.3278
▁ᎠᏍᏆᏂᎪᏍᎨ	-11.3279
▁ᎠᏟ	-11.3283
▁ᎤᎵᏍᏙᏗ	-11.3283
ᎵᎮ	-11.3283
▁ᎤᎾᏓᏅᎦᎸ	-11.3284
▁ᏳᏰᎸᏁ	-11.3286
ᏄᏍᏛ	-11.3288
ᏱᎵᏙᎸ	-11.3288
ᎩᎷᏫ	-11.3288
▁ᎤᏂᏍᏆᏂᎪᏎᏃ	-11.3291
ᏆᏂ	-11.3292
▁ᏭᏏᎳᏛᏁ	-11.3295
ᏅᎬ	-11.3296
▁ᏧᎾᏄᏬᎢ	-11.3298
▁ᎠᏌᏅ	-11.3299
ᏓᏂᏙᎦ	-11.3299
ᎯᏐᏗ	-11.3301
▁ᏓᏍᏆᏂᎪᏗ	-11.3304
ᎬᏁᏗ	-11.3305
▁ᏃᎴᏍᏉ	-11.3305
ᏙᏙᏱ	-11.3306
ᏁᏉᎢᏍᏗᏱ	-11.3308
▁ᎤᏂᏧᏈᏍ	-11.3309
ᏰᎮᏍᏗ	-11.3313
ᏕᎸ	-11.3314
ᏓᎢᏅᏎᎢ	-11.3316
ᏂᏁᏨ	-11.3317
▁ᎦᎸᎢ	-11.3317
ᏛᎦᏁᎴ	-11.3318
▁ᎨᏣᎵᎮᎵ	-11.3318
ᏟᏏᏍᎪᎢ	-11.3321
ᎪᏯᏛ	-11.3322
▁ᎤᏇᏓᎸᎢ	-11.3328
▁ᏏᏉ	-11.3328
▁ᏮᏓᏥ	-11.3328
▁ᎤᎾᎥ	-11.3329
▁ᏴᎾ	-11.333
ᏍᏔᏁᎴ	-11.3332
▁ᏣᏓᏡᏗᏍᎪ	-11.3334
▁ᎠᎩᎷᏤᎸ	-11.3337
▁ᎥᎩᏂᏐᏗ	-11.3342
ᏆᎧᎿᏅᎩ	-11.3343
▁ᎠᎩᎪᎵᏰ	-11.3343
▁ᎦᏥᏯᎵᏥᏙᏁ	-11.3348
▁ᎠᏂᏙᎾᎥᎢ	-11.3348
▁ᏱᎦᎨᏎ	-11.3351
▁ᏧᏂᏗᏱ	-11.3352
ᏲᏍᏙᏓᏁᏗ	-11.3353
ᏍᏗᏍᎪ	-11.3355
ᎸᏉᏙᎢ	-11.3355
▁ᎦᎵᏣ	-11.3358
▁ᏱᏓᏓ	-11.3358
ᏏᎳᏛᏙᏗ	-11.3362
ᏥᏍᏛᏗᏍᏙᏗ	-11.3362
▁ᏕᎦᏛᎢ	-11.3362
ᏂᎨᏂ	-11.3363
▁ᎨᎦᏎᎸ	-11.3364
▁ᏍᎩᎵ	-11.3368
▁ᏱᏂᎬᏂ	-11.337
▁ᏯᏥ	-11.337
▁ᎤᎵᏁᏨᎢ	-11.3371
ᏓᏅᏘ	-11.3372
ᏓᏌᎳᏗᏍᎨᏍᏗ	-11.3376
▁ᎠᏄᏬᏍᏗ	-11.3382
ᎩᎸᏙᏗ	-11.3384
ᏓᏅᏬᏗ	-11.3391
▁ᏓᏳᏓᎴᏅᎩ	-11.3392
▁ᎠᏊ	-11.3393
▁ᎤᏅᏏᏴᎢ	-11.3395
▁ᎤᎨᏓᎵᏴᎢ	-11.3395
ᏂᏆᏘᎮᏍᏗ	-11.3397
ᎾᏗᏅᏗ	-11.3397
▁ᏂᏥᏍᎦᏅ	-11.3401
▁ᏭᏯᏅᎮᎢ	-11.3401
▁ᏧᏩᏔᏁ	-11.3403
▁ᎢᏨᏯᏅᏓᏗᏍ	-11.3406
ᏔᏍᏗ	-11.3408
▁ᎤᎾᏞ	-11.3409
ᏃᎮᏍᎨᏍᏗ	-11.3415
ᎧᏁᎸᎾ	-11.3419
▁ᎧᎳᏩᏗᏒᎢ	-11.342
▁ᎥᏍᎩᏃ	-11.3422
▁ᏗᎦᏚᎲᎢ	-11.3422
▁ᎱᏂᎷ	-11.3426
▁ᎤᏃᏴ	-11.3429
▁ᎠᏍᎦᏂᏍᎩᏂ	-11.343
ᎾᏚᎦ	-11.3431
ᎾᏗᏅᏎ	-11.3433
ᎪᎵᎬᎾ	-11.3434
ᏥᏛᎯ	-11.3435
▁ᏰᎮ	-11.3435
ᏂᏅᏏᏓᏍᏗ	-11.3438
▁ᏚᎾᏓᎸ	-11.3444
ᏍᎩᏯᏅᎡᎸ	-11.3445
ᏁᏉᏤᏗᏱ	-11.3452
ᏨᏛ	-11.3455
ᎭᏢ	-11.3455
ᏓᏁᎲᎩ	-11.3456
▁ᏗᎦᎴ	-11.3462
ᎪᎲᏍᏔᏁ	-11.3464
ᏐᎯ	-11.3469
▁ᎣᏣᎵᏥᏙᎲᏍ	-11.3473
▁ᏱᎦᎷ	-11.3473
ᎮᏗ	-11.3474
ᏓᏂᏴ	-11.3474
▁ᎢᏗᏓᏛᏁ	-11.3475
▁ᏧᏂᎦᏐᎠ	-11.348
▁ᎤᎯᏍᏗ	-11.348
ᎵᎢᏍᏗ	-11.3481
▁ᎤᏛᏛ	-11.3481
▁ᎢᏳᏂᏨ	-11.3482
ᏖᏃᎯ	-11.3485
▁ᎤᎾᏟ	-11.3486
▁ᎤᎾᏙᏢ	-11.3487
▁ᎣᏓ	-11.3489
ᏍᏓᏁᏗ	-11.3489
▁ᎬᏗᏍᎬᎩ	-11.3489
▁ᏧᏂᏁ	-11.3492
▁ᎠᏂᏃᎮᏍᎬᎢ	-11.3492
▁ᏓᏓᎿᏩᏍᏛᎢ	-11.3495
▁ᎢᎦᎦᏛᎢ	-11.3495
▁ᏉᏏ	-11.3499
▁ᎥᎴ	-11.35
▁ᎠᏂᏯᎥ	-11.3501
▁ᎤᏁᎴᎢ	-11.3509
▁ᎤᏲᎴᏃ	-11.351
▁ᎦᏛᎩ	-11.3516
ᎪᏩᏗᎭ	-11.3523
ᎴᏛ	-11.3527
▁ᏔᎳ	-11.3527
▁ᏗᎦᎳ	-11.3528
ᎸᏏ	-11.3529
ᏍᏗᏰᎬ	-11.3535
ᏍᏛᏅᎯ	-11.3538
ᏄᎪᎨᏍᏗ	-11.3538
▁ᎦᎶᏍᎨ	-11.3544
ᎾᎷᏒ	-11.3544
ᏍᏚᎩᏎ	-11.3548
ᎷᏤᎸᎭ	-11.3549
▁ᎠᎦᏔᎲᎩ	-11.3551
▁ᎢᏥᏔᏲᎯ	-11.3552
ᎨᏳᏒ	-11.3554
▁ᎤᎾᎵᎪᏒ	-11.356
▁ᎤᏬᏒ	-11.356
ᏳᎶᏗ	-11.356
ᏠᏱᎭ	-11.3562
ᏚᎲ	-11.3563
▁ᎤᏣᏙ	-11.3565
ᏅᏣᏛ	-11.3569
▁ᏕᎦᎸ	-11.3569
▁ᏫᎬᏩᏴ	-11.3575
ᏙᎭᏴ	-11.3576
ᏰᏨ	-11.3579
▁ᏴᏫᏯ	-11.3589
ᏂᏪᎠ	-11.3592
▁ᎦᏥᏲ	-11.3596
▁ᏱᏂᎨ	-11.3597
ᏲᎤᎵ	-11.3599
▁ᎬᏩᏕ	-11.3601
ᏛᏂᏗᏍᏗ	-11.3607
▁ᎤᏤᎵᎦᏯ	-11.3617
ᎩᏚᎢᏍᏓᏁᎸ	-11.3617
ᎥᎭ	-11.3617
▁ᎤᏤᎵᎪ	-11.3617
ᎦᏔᏙᎥ	-11.3624
ᏓᏅᏖᏍᎨ	-11.3626
▁ᏥᏫᎦ	-11.3626
ᎦᏔᎯᏳ	-11.363
ᏂᎦᏛ	-11.3635
▁ᎠᏂᎦᏔᎲᎩ	-11.3636
▁ᏭᏚ	-11.3636
▁ᎣᏣᎵᏍᎦᏍᏙ	-11.3638
ᏃᏎᎭ	-11.3639
ᎦᎸᎢᏛ	-11.3639
▁ᎬᏩᏃᎵᏍ	-11.364
▁ᎢᏣᏓᏄᏴ	-11.3647
ᏚᏓᎳᎡ	-11.3652
ᎯᏍᏗᏍᎪ	-11.3656
ᏲᎯᏎᎴ	-11.3659
ᎬᏁᎲ	-11.366
▁ᎠᏤᎸᏍ	-11.3661
ᏌᎡ	-11.3662
▁ᏚᎧᎵ	-11.3663
ᎾᏄᎪᏫᏎᎸᎯ	-11.3665
ᏓᎬᏩᏍᏓᏩᏛᏛ	-11.3665
▁ᏬᎩᏂ	-11.3666
ᏣᎵᎮᎵᎦ	-11.3668
▁ᎤᏣᏁ	-11.367
▁ᏴᎦᎦ	-11.3673
ᎦᏙᎥᏒ	-11.3673
▁ᎤᎵᏍᏙ	-11.3674
ᎷᏥᎸ	-11.3675
▁ᎢᏤᏙᎯ	-11.3677
▁ᎤᏂᎪᎲᎢ	-11.3677
▁ᏚᏪᎧᎮ	-11.3678
▁ᎢᏨᏰ	-11.3679
▁ᎯᎬ	-11.368
▁ᎤᏙᎴᎰᏒᎩ	-11.3682
▁ᏗᏰ	-11.3686
ᏓᏤᎵᏛ	-11.3688
▁ᏕᎨᎦᏬᏍ	-11.369
▁ᎠᏗᏍᎩ	-11.3691
▁ᎤᎾᏨᏎ	-11.3698
▁ᏧᎵᏰ	-11.37
ᏍᏉᏟ	-11.3701
ᏙᎯᏉ	-11.3701
ᎤᏙ	-11.3703
▁ᎤᏓᏣᎦᎸ	-11.3704
▁ᎣᎬᏙᏗ	-11.3717
ᏪᏎᎮᏍᏗ	-11.3719
ᏲᎱᏍᎦ	-11.3742
▁ᏴᏛ	-11.3742
▁ᎡᏣᏑᏰ	-11.3743
ᏔᏲᏎᎮ	-11.3744
▁ᎠᎡ	-11.3746
ᏯᏅᏓ	-11.3752
ᏥᏁᎰᎢ	-11.3759
ᏛᎩᏍᎬ	-11.3761
ᏍᏆᏂᎪᏗᏍᎩ	-11.3767
▁ᏩᏴᏍᏗ	-11.3778
ᏗᏍᏙᏗ	-11.3785
ri	-11.3789
ᏨᎢ	-11.379
▁ᎦᏙᏉ	-11.3795
ᎳᏍᏓ	-11.3799
ᎯᏴᎩ	-11.3802
ᏑᏢ	-11.3805
▁ᏣᏍᎦᏅᎪ	-11.3809
ᏃᎮᏍᎩ	-11.381
▁ᎣᎩᎭ	-11.3819
ᎦᏚᎩᏱ	-11.3824
ᏏᎳᏕ	-11.3827
ᏍᎦᏅᏨᎯ	-11.3828
▁ᎤᏂᏰᎸ	-11.3828
▁ᎦᏂᏴᏗ	-11.383
▁ᏥᏨᏲᏎ	-11.3832
▁ᏘᎩ	-11.3833
▁ᎬᏩᎵ	-11.3834
▁ᏕᎤᏅ	-11.384
▁ᎤᏚᎵᏍᎬᎢ	-11.3841
▁ᎤᏂᏲᎮ	-11.385
▁ᎢᏝ	-11.3851
▁ᎦᎾᎸ	-11.3851
ᎫᎢᏍ	-11.3855
ᏲᎮᎸ	-11.386
▁ᎢᏥᏁᎸ	-11.3864
ᏄᎪᏫᏍᏗᏱ	-11.3878
ᏴᎦ	-11.3879
ᎦᏍᎩᎶᎩ	-11.3886
▁ᏗᏧᎬ	-11.389
▁ᎡᎳᏪᏱᏉ	-11.389
ᏥᏌᎳᏙᏗ	-11.389
ᎾᏄᎪᏫᏍᎦ	-11.3892
ᏗᏍᏗᏱ	-11.3893
ᎳᎭ	-11.3898
▁ᏱᏭᏂ	-11.3899
▁ᏚᎴᏁᏃ	-11.39
ᎵᏏᎾᎯᏍᏗ	-11.3901
▁ᏄᎾᏍᏛᎢ	-11.3904
▁ᎠᏑᏰ	-11.3907
▁ᎤᏎᎵ	-11.3913
▁ᏗᏣᎵ	-11.3914
▁ᎠᎾᏓᏅᏖ	-11.3921
▁ᎠᎪᎵᏰᏍᎬ	-11.3926
▁ᎤᏴᎸ	-11.3927
▁ᏱᏤ	-11.3933
▁ᏱᏂᎦ	-11.3938
▁ᏕᎬᏕ	-11.3949
ᏛᏗᏱ	-11.3953
ᏲᎯᏎᎸ	-11.3956
▁ᏁᎵ	-11.3964
▁ᏱᏥᏩᏛ	-11.3968
ᎸᏍᏙᏗᏱ	-11.3969
ᏘᏲᎯ	-11.3977
▁Ꮚ	-11.3977
ᏣᏛᏅᎢᏍᏓᏁ	-11.3978
▁ᎤᎾᏑ	-11.3985
ᎾᏌᎢ	-11.3986
▁ᏎᏗ	-11.3987
▁ᎤᎵᏦᏔᏅ	-11.3987
ᏲᎢᏳ	-11.3988
ᏪᎳᏅ	-11.3992
ᏴᏁᏗᏱ	-11.3996
ᏒᏂᎸ	-11.3997
ᏥᏯᏂᏍᎨᏍᏗ	-11.3997
▁ᎠᎩᏍᏆᏂᎪ	-11.4
ᎯᎮ	-11.4005
ᎾᏡᏗᏍᎬ	-11.4007
ᏂᏯᏪᏨ	-11.401
ᏛᏁᎢ	-11.4011
▁ᏗᏂᏁ	-11.4014
▁ᏕᏧᎪ	-11.4017
▁ᎤᎾᏄᎪᏨ	-11.4021
ᏨᏍᏛ	-11.4031
ᎤᎾᏣᏁ	-11.4044
▁ᏥᎦᏃ	-11.4047
ᏒᏉ	-11.4049
▁ᏂᎬᎩ	-11.405
▁ᎠᎩᎾᎥ	-11.4054
ᏍᏗᏰᏔᏅᎩ	-11.4055
▁ᏣᎦᎴ	-11.4056
ᏓᏑᏲ	-11.4073
ᏨᏁᎸ	-11.4081
ᏥᏰᎯ	-11.4084
▁ᏂᎬᏪᏎ	-11.4088
▁ᎢᏦᎯᏳᎲᏍ	-11.4089
ᏓᏓᎸ	-11.4089
▁ᏓᎧᎿᏩᏗ	-11.4089
ᏛᏅᎢᏍᏔᏅᎯ	-11.4089
ᏂᏐᏗᏱ	-11.4089
ᏣᎦᏎᏍᏕᏍᏗ	-11.4092
▁ᎢᏣᏠᏯᏍᏙᏗ	-11.4092
▁ᏥᎠ	-11.4095
▁ᎣᎩᎾᎵ	-11.4095
ᏲᎮᎸᎩ	-11.4095
▁ᎠᏓᏅᏍᎨ	-11.41
ᏁᏛ	-11.4101
▁ᏓᏳᏁ	-11.4105
ᎾᎫᏴᏗ	-11.4108
ᏥᏅᏍᏗ	-11.411
ᏲᏍᏓ	-11.4111
ᏗᎹ	-11.4113
▁ᎤᏲᏏᏍᎨ	-11.4115
▁ᎬᏆᏓᏅ	-11.4127
ᏙᏔᏁᎢ	-11.4127
ᏂᎦᎥ	-11.4128
▁ᏓᎴᎲᏍᎬ	-11.413
ᏙᏛ	-11.4133
ᎦᎴᏔᏂ	-11.4138
ᏍᏓᏁᎵ	-11.4143
ᏅᏙ	-11.4143
ᎵᎪᏁᎸᎯ	-11.4147
▁ᎨᏥᏁᎸ	-11.415
ᏃᏴᎵᏍᏗ	-11.4151
ᏌᏛᎢ	-11.4154
ᎴᏫᏍᏔᏅ	-11.4155
ᏔᏍᎬ	-11.4158
▁ᏗᎧᎿᏩ	-11.4161
ᏴᏙᏗ	-11.4162
ᏃᎮᏍᎬ	-11.4164
▁ᎮᏙ	-11.417
ᎮᎸᎩ	-11.4171
ᏎᎯ	-11.4178
▁ᏘᏂ	-11.4185
▁ᎢᏥᎪᎵᏰ	-11.4191
ᏕᏏ	-11.4191
▁ᏭᏢ	-11.4196
▁ᎤᏓᎴ	-11.4198
ᏗᎤᏨᏎ	-11.4202
ᏜᏏᏛᎡ	-11.4222
ᏍᏕᏓᎵᏴ	-11.4223
▁ᎠᏓᎴ	-11.4226
▁ᏂᏚᏪ	-11.4226
ᏎᎪᎩᏒ	-11.4236
▁ᏯᎵ	-11.4238
▁ᏱᎦᏓ	-11.4239
ᎵᏙᎲᎢ	-11.424
▁ᏧᏍᎪ	-11.4242
ᏍᏆᏂᎪᏛ	-11.4246
ᏥᏁᎴ	-11.425
ᏩᎯᏍᏔᏅᎯ	-11.4252
▁ᎠᏯᏦ	-11.4252
▁ᏣᏗ	-11.4268
ᎬᏩᏂᎪᏩᏛ	-11.427
ᏅᏗᏍᎬ	-11.4271
ᏙᎥᎢ	-11.4277
ᏍᎦᏍᏓᏁᏗᏱ	-11.4281
ᎾᏰᏍᎦ	-11.4286
ᎳᏕᏗ	-11.4299
ᎠᎩ	-11.4302
ᏚᎵᏍᎬᎢ	-11.4314
▁ᎤᎾᎴᏅᏗ	-11.4317
▁ᏗᏯᏖ	-11.4328
ᏲᏎᎢ	-11.433
▁ᎤᏂᏏ	-11.4337
ᏚᎢᏍᏓᏁ	-11.4339
ᏚᎸᏌᏛ	-11.4347
ᎵᏂ	-11.4348
ᏄᎶᏔᏅ	-11.435
ᏓᏅᏙ	-11.4352
▁ᏚᏂᎭ	-11.4353
▁ᎤᏍᎩ	-11.4354
▁ᏧᏪᎧᏁ	-11.437
ᎵᏥᏙᏁᎸ	-11.4379
ᎵᏍᏗᏍᎬ	-11.439
ᎪᏩᏔ	-11.4394
▁--	-11.4394
ᏓᎾᏅ	-11.4402
ᎦᎹ	-11.4405
▁ᎤᏂᏍᏆᏛ	-11.4416
ᏓᏂᏐᏗᏱ	-11.4421
▁ᏣᏙᎵ	-11.4423
ᏪᎢ	-11.4424
ᏫᏎᎸᎯ	-11.4428
▁ᎤᎸᏕ	-11.4429
▁ᏫᎦᎾᏄᎪ	-11.443
▁ᏯᏂᎦᏔ	-11.4436
ᏍᎩᎲᏏ	-11.4437
▁ᎾᏁ	-11.4437
▁ᏯᎭ	-11.4441
▁ᎤᏢᏁ	-11.4445
▁ᏥᏍᎩ	-11.4449
ᏲᎰᏎᏗ	-11.4452
ᏲᎯᎮ	-11.4454
▁ᎤᏁᎢ	-11.4457
ᏳᎢ	-11.4457
▁ᏫᏕ	-11.4472
ᏚᎵᏍᎬ	-11.4472
ᏨᏓ	-11.4473
▁ᎤᎾᏂᏢ	-11.4477
ᏯᎡ	-11.4478
▁ᏫᏘ	-11.4481
▁ᎦᏄᎪᎬ	-11.4489
▁ᏗᏂᎳ	-11.4502
ᏚᏓᎴ	-11.4504
ᎶᎯᏎᎸ	-11.4508
ᏳᎵᏍᏙᏗ	-11.4521
ᏃᎮᏗᏱ	-11.4522
▁ᏱᏥᏍᏆᏂᎪ	-11.4546
▁ᎤᏂᎦ	-11.4548
ᎦᎶᎯᏍᏗᏱ	-11.4548
▁ᎠᎨᏳ	-11.4555
ᏂᏓ	-11.4566
ᏥᏴᏔᏂ	-11.4578
ᏥᏂᎨᏂ	-11.4584
ᏔᏲᎯᎰ	-11.4585
ᎦᏘᎴᎦ	-11.4588
▁ᎠᏂᏩᏛ	-11.4591
ᏂᏴᎲ	-11.4595
ᎦᎷᎬ	-11.46
▁ᎤᏍᏓᏩᏗᏒ	-11.46
ᏛᏎ	-11.4601
▁ᎤᏑᏰ	-11.4601
ᏫᏗ	-11.4605
ᎯᏏ	-11.4609
▁ᏗᏣᏓᎨᏳ	-11.4613
ᏓᏲ	-11.4618
▁ᎦᏂᎵ	-11.4619
ᏅᏌ	-11.4621
ᏙᎲᎾ	-11.4625
ᏓᏅᏔ	-11.4626
▁ᎢᎦᏛᏉ	-11.4626
▁ᎢᏨᏁᎸ	-11.4627
▁ᏣᎢᏒ	-11.4628
▁ᏧᏪᏲ	-11.4633
ᎳᎩ	-11.4635
▁ᎠᏆᏗ	-11.4646
▁ᏱᎦᏰ	-11.4649
ᏥᏪᏏ	-11.4659
▁ᎤᎾᏣᏅ	-11.4661
ᏘᎷᎦ	-11.4662
▁ᎠᎳ	-11.4666
ᏛᏅᎢᏍᏙᏗ	-11.4667
ᏂᎩᏍᏔᏁ	-11.467
ᎻᎦ	-11.4679
▁ᎨᏥᏅ	-11.4679
ᎦᎵᏍᏓ	-11.4681
ᏝᎥ	-11.4683
▁ᎭᎵᏍᏓᏴ	-11.4688
ᏩᎾᎦᎳᎯᏳ	-11.4691
▁ᏰᏙᎮ	-11.4693
ᏂᏍᎦᎩ	-11.4694
ᏴᎳᏒ	-11.4697
▁ᎤᎪᏅ	-11.4699
ᏰᎵᏏ	-11.4701
▁ᏗᏥᏴ	-11.4704
▁ᏯᏉ	-11.4704
▁ᎠᎩᏍᎩ	-11.471
▁ᏳᎾᏅ	-11.471
ᏤᎳ	-11.471
ᎦᏌᏯᏍᏗᏍ	-11.4711
da	-11.4711
▁ᎣᏤᎵ	-11.4711
▁ᎫᏓ	-11.4712
ᏂᏆᏘᎭ	-11.4718
▁ᏭᎷᏤᎸ	-11.4727
ᏩᏛᎲᎾ	-11.4727
ᏌᏬᎸ	-11.4728
ᎤᏟ	-11.4728
▁ᎤᎫᏴ	-11.473
ᎦᎵᏍᏙᏗᎭ	-11.4734
▁ᎠᏂᎸ	-11.4738
▁ᎣᎩᏃᎮ	-11.475
ᏥᏩᎯᏍᏔᏅᎯ	-11.476
ᏴᎳ	-11.476
ᎦᏔᎰᎢ	-11.4768
▁ᎤᎨᏳ	-11.4771
▁ᎤᏂᎧᎵᏨ	-11.4776
ᏘᏃᎸᎩ	-11.4779
ᏇᏗ	-11.48
▁ᎠᎱ	-11.4801
▁ᏗᏯ	-11.4804
ᏍᏓᏴᏗ	-11.4811
ᏲᎲᏍᎬ	-11.4813
ᎾᏛᎩᏍᎪ	-11.482
ᏥᏁᎪᎢ	-11.4829
ᏍᎩᏃ	-11.4829
▁ᏖᎾ	-11.4835
ᏨᏁᏍᏗ	-11.4836
▁ᎢᎯᏯ	-11.4837
ᎤᏨᏎ	-11.4845
ᎵᏍᏓᏴᏙᏗᏱ	-11.4846
▁ᎤᎿᎸ	-11.4868
▁ᏂᏚᏂ	-11.4872
ᏕᎪ	-11.4881
ᏘᏂᏒ	-11.4884
ᎨᎯᏒ	-11.4886
ᎷᏤᏗ	-11.4887
ᎪᏩᏘᏍᎨᏍᏗ	-11.4888
ᎦᏙᏍᏔᏁᎢ	-11.4894
ᏐᏢᎢᏍᏙᏗᏱ	-11.4898
▁ᎢᎩᎧ	-11.4902
ᎦᏘᏲ	-11.4902
ᏣᎵᏍᏗᎭ	-11.4905
ᎸᏫᏍᏓᏁᎰᎢ	-11.4905
▁ᎤᏛᏛᏁᎢ	-11.4906
▁ᎤᏂᏁᏤ	-11.4907
ᎧᏃᏗ	-11.4916
ᎦᏲᎵᏳ	-11.4928
▁ᎣᎩᏴ	-11.493
ᏲᎮᎴᎢ	-11.4934
ᏁᎲᎾ	-11.4943
▁ᏭᏴ	-11.4943
ᎡᎪᎢ	-11.4948
ᏝᏅ	-11.4963
▁ᏕᎦᎾ	-11.4967
ᏰᎸᏎ	-11.4969
▁ᎤᏢᎨ	-11.4971
ᏁᏍᎨᏍᎩ	-11.4971
▁ᎠᏐᏢᎢᏍᏙᏗ	-11.4973
ᏃᏁᎵ	-11.4975
ᏅᏍᏔᏁᎢ	-11.4988
▁ᎢᎾᎨᏉ	-11.4992
▁ᎠᏨ	-11.4994
▁ᎤᏂᏇᏓ	-11.4995
ᏓᏓᏱ	-11.4996
ᎴᏔᏂ	-11.5002
▁ᎦᏥᏁᏗ	-11.5011
▁ᏧᎾᏚᎪᏓᏁᏗ	-11.5012
ᏛᏁᎸ	-11.502
ᎵᏍᎪᎸᏓᏁᎸ	-11.502
▁ᎡᏥᎸ	-11.5023
▁ᎤᎾᎵᏍᎩ	-11.5024
▁ᎠᏎᎪᎩᏍ	-11.5031
ᏓᏥᎶ	-11.5034
ᎢᎲ	-11.5045
ᏩᏛᎮᎢ	-11.5046
ᏈᏓ	-11.5048
ᏍᏓᏁᎮ	-11.5049
ᎩᏐᏅ	-11.506
ᏴᏓᏆᎶᎥᎩ	-11.5067
ᏱᎴ	-11.5069
ᏩᏂᎦᎸ	-11.5074
▁ᎠᏆᏕ	-11.5075
▁ᎤᎾᎵᏍ	-11.5088
ᏩᏯ	-11.509
▁ᏱᏂᎦᎵᏍ	-11.5092
ᏎᎵᏛ	-11.5096
▁ᎡᎬ	-11.5104
▁ᏕᎦᏓ	-11.5106
ᏴᏍᏕᏍ	-11.511
▁ᎢᏥᎨᏳ	-11.5111
ᏢᏈ	-11.5114
ᎾᎻ	-11.5121
▁ᎤᎪᎳ	-11.5126
ᎾᏛᏁᎭ	-11.5127
ᎪᏢᏙᏗ	-11.513
ᎡᎰ	-11.5133
ᎵᏍᎪᎢ	-11.5134
▁ᎤᏙᎯᏳᏗ	-11.5138
▁ᏧᏓᏴᎳ	-11.514
ᏛᎪᏗ	-11.5144
▁ᏅᏓᏣ	-11.5146
ᏗᏎᎢ	-11.5147
▁ᎤᏙᏯᏅᎯᏕ	-11.5147
ᎵᎥᏂᎸ	-11.5149
ᎵᏍᏓ	-11.5152
▁ᏭᏂᏴ	-11.5152
ᎦᎵᏍᎪ	-11.5154
ᏂᏙᎲᎢ	-11.5157
ᎦᏧ	-11.5175
▁ᎦᎾᏰ	-11.5175
ᎪᏔᏅ	-11.5182
ᎶᏍᎬ	-11.5185
▁ᏔᎴ	-11.5191
ᎪᎥᎯ	-11.5194
ᏍᏗᏰᏔᏁ	-11.5198
ᎸᏅ	-11.5201
ᏐᏅᎢᏍᏔᏅᎯ	-11.5206
ᎩᏍᏕᎸᏗᏱ	-11.5208
ᎯᎠᏃ	-11.5208
ᏚᎶ	-11.5214
ᏗᏩᏛᎯ	-11.5215
ᏱᏢᏗ	-11.522
ᎲᏍᎪ	-11.522
▁ᏗᎦᏓᎨᏳᎯ	-11.5226
▁ᏚᎾᏠᎯᏍ	-11.5238
ᎯᏍᏔᏁ	-11.5243
ᏴᏗᏱ	-11.5243
▁ᎤᎾᎪᎸ	-11.5244
▁ᎡᏥᎾᏰ	-11.5249
ᎵᏙᎸᎢ	-11.525
▁ᏥᏯᏓᏙᎵᏍᏓᏁ	-11.5251
le	-11.5251
▁ᎤᏂᎷᏤᏃ	-11.5264
▁ᎤᎴᏗ	-11.5265
▁ᎦᎷᎶ	-11.527
▁ᎨᏥᏯᏅᏗ	-11.527
▁ᎤᏂᎾᏗᏅ	-11.5271
ᏈᏴᎡ	-11.5278
ᏓᏕᏲᎲᏍᎨᏍᏗ	-11.5279
ᏰᎵᎯᏍᏗ	-11.5288
ᏓᏉ	-11.5289
▁ᏥᏭ	-11.529
ᎵᏍᏆᏗ	-11.5305
ᎦᎸᎢ	-11.5305
▁ᏗᎪᏪᎶ	-11.5309
ᏁᏟᏴᏒ	-11.531
ᎳᏅᏓᏕ	-11.5316
▁ᏓᎩᏯ	-11.5318
ᏂᎨᏥᏪᏎᎴ	-11.5322
▁ᏫᎷᏥ	-11.5324
▁ᎠᏓᏂ	-11.5326
ᎵᏏᏂ	-11.5335
▁ᏗᎦᎵ	-11.5341
ᏣᎦᎸ	-11.5342
ᏚᏩᏂᎦᎸ	-11.5344
ᏔᏲᎯᎲ	-11.5356
ᏓᏅᏛᎢ	-11.536
ᎲᎯ	-11.5361
ia	-11.5362
ᎴᎲ	-11.5368
ᎶᏔᏅ	-11.5372
ᏤᎴᏍᏗ	-11.5374
▁ᎦᎳᏅᏛ	-11.5381
▁ᎠᎩᏃᎮ	-11.5383
▁ᏆᏂ	-11.5384
▁ᏱᎦᏥ	-11.5395
ᏪᏥ	-11.5412
▁ᏩᎪᏩᏛ	-11.5414
▁ᎤᏤᏪ	-11.5415
ᏍᎦᏅᏤᎮᏍᏗ	-11.5418
ᎦᏔᎲᏍᏗᏱ	-11.5421
▁ᏫᏄ	-11.5422
ᏓᏅᏓᏗᏍᏔᏅ	-11.5425
ᏫᏍᎪ	-11.5427
▁ᏔᎫᏴ	-11.543
▁ᏧᏓᎴᏅ	-11.5435
▁ᎢᏥᏰ	-11.5438
ᏣᎪᏩᏛᏗᏱ	-11.5439
ᏅᏁ	-11.544
ᎠᏉᎯᏳᎭ	-11.5443
ᎾᏛᏁᎰᎢ	-11.5443
▁ᎤᏣᏘᏂᏉ	-11.5445
▁ᏧᏭᎪ	-11.5445
ᏗᏒᏍᏗᏱ	-11.5449
ᏍᏚᎢᏍᏗ	-11.5452
▁ᏭᏗᏅ	-11.5456
ᏅᏙᏗ	-11.546
ᏲᎰᏒ	-11.546
▁ᎤᏬᎯᏳᎯ	-11.5461
ᎿᎢᏳ	-11.5465
▁ᎣᏂᎩ	-11.5467
▁ᏦᎯᏍ	-11.5468
ᏘᏌ	-11.5473
ᎵᏍᎦᎸ	-11.5473
▁ᎤᏪᎧᏁ	-11.5478
ᎯᏍᏓᏁᎸ	-11.5485
▁ᏚᏂᎨ	-11.5485
ᎾᏫᏛᎮ	-11.5487
ᎵᎮᎵᏍᏗᏱ	-11.5491
ᎨᏥᎾᏌᎢ	-11.5497
ᏥᏍᏕᎵᏍᎬ	-11.5499
ᎾᏏᏁ	-11.5499
ᎳᏫ	-11.5499
ᏫᏍᎪᎢ	-11.55
ᎲᏍᏗ	-11.5515
ᎦᎾᏅᎪ	-11.5526
ᎩᏳ	-11.5535
▁ᎠᏥᎪ	-11.5543
ᎪᏍᏓᏯ	-11.5551
▁ᎢᏯᎾᏛᏁ	-11.5558
▁ᎦᏙᎩ	-11.5559
▁ᎦᏇᏅ	-11.5559
ᎾᏗᏍᎪᎢ	-11.5563
ᏅᏛᎾ	-11.5565
▁ᏅᏩᏓᎴᎢ	-11.5569
▁ᎭᎸ	-11.5569
▁ᎤᏅᎢᏍᏗ	-11.5571
▁ᎦᏴ	-11.5571
ᏍᏓᏩᏕᏅ	-11.5572
ᎵᏍᎨᏍᏗ	-11.5576
ᏆᏤᎵ	-11.5576
▁ᎤᏝ	-11.5577
ᏥᎪᏩᏗᎭ	-11.5587
ᏑᏯᎩ	-11.5588
▁ᎤᏁᏉᏤ	-11.5594
ᎪᎥ	-11.5599
ᏲᏎᎮᏍᏗ	-11.5599
ᎯᏍᏙᏗᏱ	-11.5602
ᎬᏩᎶᏗ	-11.5609
ᎪᎵᏰᏍᎪᎢ	-11.5612
ᎿᎥᎾ	-11.5616
ᏓᏨᏯᏍᏗ	-11.5621
ᎡᎮᏍᏗ	-11.5622
ᏥᏃᎯᏎᎸ	-11.5623
ᎾᏣᎥ	-11.5625
▁ᏫᎬᎩ	-11.5627
▁ᏓᏅ	-11.5631
ᏍᏘᏰ	-11.5632
ᏛᏅᎢᏍᏔᏅᎩ	-11.5634
▁ᎠᎦᏞ	-11.5641
ᏅᏬᏗ	-11.5643
ᏌᏙ	-11.5645
ᏲᏢᎾᏁ	-11.5651
ᏩᏘᏍᎨᏍᏗ	-11.5651
ᎪᎵᏰᏍᎨᏍᏗ	-11.5654
▁ᎤᎾᏗᏓ	-11.5658
▁ᎢᏳᎯ	-11.5661
ᎵᏍᏓᏴ	-11.5661
▁ᎢᏳᎵᏍᏓᏁ	-11.5664
▁ᎤᏂᏥᎸ	-11.5668
ᏓᏓᎴᏓ	-11.567
ᏏᏔᏗ	-11.5671
ᎯᎰᎢ	-11.5673
ᏓᏅᏘᏐ	-11.5676
▁ᏓᎾᏓᏅ	-11.5676
ᏣᏯ	-11.5676
ᏗᎵᏍᎪᎸᏙᏗ	-11.5677
▁ᏭᏕ	-11.5678
ᏂᏣᏔ	-11.5683
ᏤᎲᎾ	-11.5683
ᎥᏍᎬᎢ	-11.5692
ᎾᏝᎠ	-11.5697
ᎦᎸᏉᏗᏳ	-11.5697
▁ᏯᏰ	-11.5698
▁ᎨᎯ	-11.5702
as	-11.5706
▁ᏗᏍᎩᏯ	-11.5706
▁ᏙᏛᏂ	-11.5709
▁ᎠᏂᎴ	-11.5714
▁ᏛᏣ	-11.5722
▁ᏨᏙᏗ	-11.5724
▁ᎠᏌᎹᏗ	-11.5724
ᏯᏅᎲᎭ	-11.5732
▁ᎠᏂᎷ	-11.5734
ᏃᎯᎮ	-11.5744
ᎵᏍᎪᎸᏔᏅᎯ	-11.5746
▁ᏱᏚᏁ	-11.5746
ᏫᏍ	-11.5747
▁ᏓᎾᏛ	-11.5748
ᏍᏘᏰᎬᎢ	-11.5753
ᏙᏥᏩᏛᎲᎩ	-11.5774
▁ᎠᏫᏒ	-11.5776
ᏍᎦᏍᎪ	-11.5776
▁ᏩᏗ	-11.5778
▁ᏯᎦ	-11.5779
▁ᎤᏔᎶ	-11.5782
▁ᏴᎦᏰ	-11.5783
▁ᏕᏣᎵ	-11.5784
▁ᏗᏣᎶ	-11.5791
▁ᎠᏩ	-11.5795
▁ᎢᏥᎨᏳᎯ	-11.5806
▁ᎢᎤᏁᏅ	-11.5811
▁ᏓᎴᏅ	-11.5811
▁ᎭᏓ	-11.5813
▁ᏙᏓᏓ	-11.5814
ᏁᏣ	-11.5814
ᎤᏙᏓ	-11.5824
ᏍᏈᏗ	-11.5825
▁ᏗᎩᎦᎨ	-11.5829
ᏅᎲᎭ	-11.5833
ᏲᎢᏎᎴ	-11.5835
ᏍᏓᏩᏛᏛ	-11.584
ᏃᏴᎵᏍ	-11.5841
ᎳᏗᏓᏍᏗᏱ	-11.5857
ᎠᏂ	-11.5865
▁ᏱᏛ	-11.5869
ᎦᏔᎲᎩ	-11.587
ᎣᎵ	-11.5871
ᏂᏂᏌᏁᎢ	-11.5873
ᏐᏴᎢ	-11.5876
ᏩᏛᎯᎵ	-11.5879
ᎶᎨᏒᎢ	-11.5881
ᎷᏤᎵ	-11.5883
ᎩᎳᏩ	-11.5884
▁ᎤᏁᏙ	-11.5884
▁ᏥᏚᎾ	-11.5888
ᎳᏍᏙᏗ	-11.5888
▁ᏗᎦᎫᏍ	-11.5891
ᎶᏙᏗ	-11.5891
▁ᏕᎦᏁ	-11.5892
▁ᎫᏢ	-11.5893
▁ᎠᎾᏁᎷᎩ	-11.5893
ᏯᏫᏍᎨᏍᏗ	-11.5894
▁ᎢᏣᏛ	-11.59
▁ᏧᏭ	-11.59
▁ᎤᏚᏒ	-11.5906
ᏁᎨ	-11.5912
▁ᏱᏨᏯ	-11.5913
▁ᎤᏂᏯ	-11.5914
ᎵᎥᏂᎴ	-11.5916
▁ᎠᏆᏚ	-11.5918
ᏘᏁᎪ	-11.5929
▁ᏧᏂᏯ	-11.593
ᏥᎾᏝᎢ	-11.5931
ᏏᏍᎨ	-11.5939
▁ᎾᎾᎵᏍ	-11.5939
▁ᎦᏥᏃᏍ	-11.5941
ᏤᎰ	-11.5944
ᏓᏁᎲᎢ	-11.5947
▁ᏗᎧᏃᎮ	-11.5947
ᎦᏗᏔ	-11.5948
▁ᎦᏄ	-11.5955
ᏲᏞᎯ	-11.5966
▁ᏨᏔᏅ	-11.5967
▁ᏕᏨᏯ	-11.5971
ᎾᏣᎡᎢ	-11.5971
ᏒᏂᏍᏗᏱ	-11.5975
▁ᎤᎵᏘ	-11.5982
ᎦᏌᏯᏍᏗᏕᎩ	-11.5982
ᏓᎴᏍᎨᏍᏗ	-11.5985
▁ᏓᎧ	-11.5986
▁ᏤᎳ	-11.5988
▁ᏦᏍᎪ	-11.5989
▁ᎠᏆᏓᏅᏔ	-11.6
▁ᏛᎬ	-11.6001
▁ᎠᏏᎾᏌᏅ	-11.6002
▁ᎠᏩᏔ	-11.6004
▁ᎠᏴᎩ	-11.6005
ᏍᏔᏴ	-11.6006
▁ᎭᎦᏔ	-11.6012
▁ᎠᏗᏔᏍ	-11.6018
ᎧᎲᎦ	-11.6023
ᎩᎸᏗ	-11.6023
▁ᏥᏅᏗᎦᎵᏍᏙᏗ	-11.6027
▁ᏙᏓᎦᏥ	-11.603
ᎾᏩᏛ	-11.6032
ᎧᎿ	-11.6034
ᏚᏓ	-11.6045
ᎯᏳᎲᎦ	-11.6046
ᏎᎲ	-11.6046
▁ᎯᏍᏆ	-11.6047
ᏅᏓᏗᏍᏗᏱ	-11.6052
▁ᏧᏢᏫ	-11.6055
ᎧᎭᏲᏔ	-11.6059
▁ᎤᏂᏁᏗ	-11.6063
▁ᎣᎩᏙ	-11.6063
ᏂᎾᏰᏍᎬ	-11.6064
▁ᏱᏣᏁ	-11.6064
ᏓᏡᏗᏍᎪᎢ	-11.6067
▁ᏗᎦᏰ	-11.6067
▁ᎡᏦ	-11.607
▁ᎦᏣᏄᎵ	-11.607
ᎩᎷᎯᏍᏗᏱ	-11.608
▁ᏍᎩᏲᏎ	-11.608
ᎿᏬ	-11.6081
▁ᏕᏣᏓᏠ	-11.6081
▁ᏂᏨᏪᏎ	-11.6082
▁ᎠᎩᏰ	-11.6082
▁ᏣᏲ	-11.6082
▁ᏓᏍᏆ	-11.6083
ᎾᏕᎶᏆᏍᏗ	-11.6085
ᎵᏰᎢᎶ	-11.6086
ᏲᎲᏍᎩ	-11.6091
▁ᎤᏬᏢᏅᏅ	-11.6093
▁ᎤᎾᏓᏟᏌ	-11.6093
ᎵᏍᏔᏁᎢ	-11.6093
ᎫᏴ	-11.6105
▁ᏗᎻ	-11.6108
ᏖᎸᎮᏍᎬ	-11.6112
ᏝᏁᎢ	-11.6114
▁ᎤᏔᎷᎩᏍ	-11.6116
ᏗᏅᏗ	-11.6119
▁ᎤᏍᏆᏃᏴ	-11.6119
▁ᎣᏨᏗ	-11.6119
▁ᎠᏥᎸᏉᏙᏗ	-11.6124
ᏗᎧ	-11.6131
ᎾᏓᏗᏍᎪ	-11.6134
▁ᎤᏬᎯᏨ	-11.614
▁ᏚᏂᏣ	-11.6142
▁ᏱᏓᏆ	-11.6142
ᏂᎷᏣ	-11.6143
ᎬᏗᏍᎨᎢ	-11.6146
ᏲᎢ	-11.6148
▁ᏅᏩᏍᏕ	-11.6148
▁ᎠᎾᏗᏒᎯ	-11.6149
ᎵᏱᎶᎸ	-11.6154
ᎴᏂᏓᏍᏗᏱ	-11.6157
ᎸᏉᏛ	-11.6157
▁ᏱᏩ	-11.6159
ᎨᎳᏍᏙᏗ	-11.6162
▁ᎾᏆᎵᏍᏓᏁᎸ	-11.6164
ᎦᏓᏅᏓᏗ	-11.6166
ᏲᎲᏍᎨᏍᏗ	-11.6168
Ꮊ	-11.6172
ᏍᎦᏰᎬᏍᏔ	-11.6175
ᏄᏪᏎ	-11.6179
▁ᏥᏂᎦᎵᏍᏗ	-11.618
ᏍᏔᏅᎾ	-11.6182
ᏍᏔᏁᏍᏗ	-11.6183
▁ᎠᎵᎬ	-11.6183
ᏩᏍᎦ	-11.6183
ᎺᎵ	-11.6183
▁ᏪᎮ	-11.6184
▁ᎢᏓᏙᎴᎰᎯ	-11.6185
ᏲᏂ	-11.6185
ᏡᏔᏅ	-11.6186
ᏓᎦᎶᏐᏂ	-11.6188
▁ᏱᏓᏥ	-11.6189
ᏯᏅᎡᎵ	-11.6189
▁ᏱᏄ	-11.6191
ᏗᎨᎴ	-11.6193
ᏨᏯ	-11.6193
ᎮᎵᎠᏍᎪ	-11.6196
ᏩᎯᏍᏗ	-11.6197
ᎦᎵᎡᎵ	-11.6198
ᎵᏬᏤ	-11.6205
▁ᏗᏌ	-11.6205
ᏕᏓᏓᎪᎲᏳ	-11.6206
ᎩᎦᎨᏍᏛᏱ	-11.6206
▁ᎤᏂᎶᏎ	-11.6209
▁ᎤᏅᏍᎦᎴ	-11.6209
▁ᎤᎵᏍᎪᎸᏔᏁ	-11.6209
▁ᎠᎩᎪᏁᎸ	-11.6209
▁ᏚᏂᎧᎲ	-11.6209
▁ᎤᏓᏙᏎᎴ	-11.6209
▁ᏓᎾᏓᏅᏖᏍᎬ	-11.6209
ᏗᎦᎪᏗᏱ	-11.621
ᎠᏡᏗᏍᎩ	-11.621
▁ᏳᏂᎪᎮ	-11.6211
ᏚᏪᎧᏁᎢ	-11.6211
ᎪᎵᏰᏍᎬᎢ	-11.6212
▁ᎢᏨᏬᏁᏔᏅ	-11.6212
ᎦᎾᏄᎪᏫᏍᎪ	-11.6213
ᏓᎩᎸᏫᏍᏓᏁᎲ	-11.6214
▁ᏩᏂᎦᏛ	-11.6214
▁ᎠᏂᎦᏔᎮ	-11.6214
▁ᏫᏚᏳᎪᏛ	-11.6214
▁ᎢᎬᏬ	-11.6216
ᎤᏓᏅᏒ	-11.6217
ᎤᏬᏚᏨ	-11.6217
ᎠᎳᏑᎶ	-11.6217
▁ᎢᏣᏓᏁᏟᏴᏏᏒ	-11.6218
▁ᎠᏋᏔᏅ	-11.6218
ᏣᏄᏏ	-11.6218
ᏧᏂᎸᏫᏍᏓᏁᎯ	-11.6218
ᎬᏂᏳᏉ	-11.6218
▁ᏥᎦᎷᎪ	-11.6218
▁ᎠᎾᎢᏎ	-11.6219
▁ᏗᏦᏢ	-11.6219
ᏧᏙᎢᏛ	-11.6219
▁ᏚᏂᏂᏴᎮ	-11.622
ᎸᏁ	-11.622
▁ᎠᏐᏢᎢᏍᏗᏍᎬ	-11.6221
ᏧᏪᏥ	-11.6221
▁ᎤᏔᎳᏬᏍᎬ	-11.6222
▁ᎤᏂᏂᎬᏎᎲ	-11.6222
ᏗᏂᎦᏘᏯ	-11.6223
▁ᏚᏪᎧᏁᎴ	-11.6223
ᎣᏏᏉᏍᎪ	-11.6223
ᎡᎳᏂ	-11.6223
▁ᏂᏚᏂᏪᏎᎴ	-11.6224
▁ᏕᏣᎸᏫᏍᏓᏁᎲ	-11.6224
ᎪᏪᎴ	-11.6225
ᎤᏔᎷᎩᏍᎩ	-11.6225
▁ᏥᏄᎵᏍᏔᏁ	-11.6226
▁ᏓᎩᏏᎳᏛ	-11.6226
ᎪᏪᎵ	-11.6227
▁ᎤᎾᎦᏙᏍᏕ	-11.6227
▁ᎤᏁᎸᏔᏁ	-11.6228
▁ᏚᏠᏱᎴ	-11.6229
▁ᏄᏕᏘᏴᎮ	-11.6229
▁ᏂᎨᎬᏁᎸ	-11.623
▁ᏂᏕᎦ	-11.623
ᎪᏪᎸᎢ	-11.6231
ᎵᏍᏙᏔᏅ	-11.6231
▁ᏓᎫ	-11.6231
▁ᏚᏫᏞᏫᏒ	-11.6232
▁ᎠᏟᏍᏛ	-11.6233
ᎠᎨᏴ	-11.6233
▁ᏂᎬᏩᏪᏎᎴ	-11.6233
▁ᎬᏩᏍᏓ	-11.6234
▁ᎢᏥᎪᎲ	-11.6235
ᎵᏍᎪᎸᏓᏁᏗ	-11.6235
ᎰᏂ	-11.6235
ᎠᏎᏗ	-11.6236
▁ᎠᏛᏃ	-11.6237
ᏥᏅᏬᏗ	-11.6237
ᎦᎵᏉᎩ	-11.6239
ᎣᎯᏍᏙᏗ	-11.624
▁ᎠᎵᏍᏓᏴᎲᏍᎬ	-11.624
ᎾᏗᏔᏍᏗ	-11.6241
ᏣᏁᎳ	-11.6241
ᎤᏛᏁᎢ	-11.6241
▁ᎤᏂᏚᎲ	-11.6241
▁ᏕᎫᎪᏓᏁ	-11.6242
ᎮᏗᏱ	-11.6243
▁ᏚᏂᎧᏁ	-11.6243
▁ᎾᏆᏛᏅ	-11.6245
ᏥᎸᏉᏔᏅ	-11.6246
▁ᎤᏂᏇᏓᎸ	-11.6247
ᏂᏬᏂ	-11.6247
▁ᏩᎩᎶᏒ	-11.6247
▁ᏚᏬᏢᏁ	-11.6247
▁ᎠᏒᏛ	-11.6247
▁ᎦᏃᎪ	-11.6248
▁ᏓᏂᏙᎬ	-11.6248
▁ᏥᏄᏪᏒ	-11.6248
ᎦᏪᏍᎬᎩ	-11.6248
▁ᏚᏪᏲᏁ	-11.6249
▁ᏚᏂᎳᏫᏨ	-11.6249
▁ᏓᎩᎪᎲ	-11.6249
▁ᎤᏁᎲ	-11.625
▁ᏕᏥᎳᏫ	-11.6251
▁ᎤᏮ	-11.6252
ᎯᏙᎲ	-11.6253
ᎬᏂᎨᏒ	-11.6253
ᏗᎧᎿᏩᏛᏍᏗ	-11.6254
ᏅᎪᏨ	-11.6254
ᏁᎢᏍᏔᏁ	-11.6256
▁ᎤᏃᎯᏳᏗ	-11.6256
▁ᎤᏁᎢᏍᏔᏁ	-11.6256
▁ᎠᏛᏍᎨ	-11.6257
ᏓᏙᎵᏍᏗᎭ	-11.6257
ᏂᎪᎵᏰᎥ	-11.6257
▁ᏧᎾᏓᏡ	-11.6258
▁ᏭᏂᏃᏁ	-11.6258
▁ᎤᎾᏠᏤ	-11.6258
ᏯᏫᏍᏗ	-11.6259
ᎦᏓᎡᎢ	-11.626
ᏥᏍᏈ	-11.626
▁ᎤᏁᎵᏒ	-11.6261
ᎯᏄᎪᎢ	-11.6261
▁ᏗᏂᎳᏫ	-11.6261
▁ᏥᏍᏚᏂᎩᏍᏗ	-11.6261
ᎫᏈ	-11.6263
ᏪᏎᎢ	-11.6263
ᎩᏓᏟ	-11.6263
ᏲᎱᏎ	-11.6263
▁ᏂᏣᎵᏍᏔᏅ	-11.6264
▁ᏭᏂᏴᎸ	-11.6264
ᎦᏍᎦᏂ	-11.6265
ᎶᏄᎮᏗᏱ	-11.6265
ᏏᏓᏍᏗ	-11.6266
ᏂᏐᏢᎢᏍᏙᏗ	-11.6267
▁ᏱᏚᎸᏫᏍᏓᏁ	-11.6267
▁ᏫᎬᏆ	-11.6267
ᏀᎢ	-11.6268
ᏁᏍᏓᎳ	-11.6268
▁ᏄᏅᏁᎴ	-11.6269
▁ᎠᏧ	-11.6269
ᏲᎱᏒᎯ	-11.627
ᏆᏕ	-11.627
ᏍᏓᏁᎴ	-11.627
▁ᎠᏉᎸ	-11.6272
▁ᏗᎬᏩᏁᎶ	-11.6273
ᏲᎲ	-11.6273
ᏟᏌ	-11.6274
▁ᎦᎾᏄᎪᏥᎸ	-11.6274
▁ᏱᏥᎪᏩᏘ	-11.6274
▁ᏛᏥ	-11.6274
ᎹᎵ	-11.6275
ᏂᏪᏍᎬ	-11.6275
▁ᏱᏣᏚᎵ	-11.6275
▁ᎤᎾᏘᏅᏍᏗ	-11.6276
▁ᎡᎩᏁᎸ	-11.6276
▁ᏧᏳᎪ	-11.6276
▁ᎾᏎᎵ	-11.6276
ᏘᏳ	-11.6277
ᎠᏆᏚᎵ	-11.6279
ᎡᏆ	-11.6279
▁ᏭᏂᎷᎯᏍᏗ	-11.6279
▁ᎢᏳᏂᏪᏍᏗ	-11.6279
▁ᏧᏄᎪᏙᏗ	-11.6279
▁ᎢᏣᏓᏤᎵ	-11.628
▁ᎠᏆᎵᎮᎵᏍᏗ	-11.628
▁ᎤᎾᏓᏡ	-11.628
▁ᎢᏳᏪᏅᏍ	-11.628
ᏪᎳᏅᎯ	-11.628
▁ᏗᎨᏥᎢᏍᏗ	-11.6281
▁ᏇᏗᏂ	-11.6281
▁ᏫᏨᎷᏤᏗ	-11.6281
▁ᎣᎦᎵᏍᏓᏴᏗ	-11.6282
▁ᏥᏄᎵᏍᏔ	-11.6282
▁ᏧᏍᏆᏅ	-11.6282
ᎳᏗᏍᎨᎢ	-11.6282
▁ᏣᎾᏗ	-11.6282
ᏩᏙᎯᏯᏛ	-11.6283
ᏁᎶᏙ	-11.6283
▁ᎤᎾᏄᎪᏫᏍᏗ	-11.6283
▁ᏗᎦᎳᏫᎢᏍᏗ	-11.6283
ᏂᏍᏚᏁ	-11.6283
▁ᏗᎩᎸᏫᏍᏓᏁᏗ	-11.6284
ᏯᏘᏃᎮᎸ	-11.6284
▁ᎠᏰᏙᎳ	-11.6285
▁ᎠᏥᏙᎵᏍᏗ	-11.6285
▁ᎢᏳᎾᎵᏍᏙᏗ	-11.6287
ᏲᎦᏛᏁᏗ	-11.6287
▁ᎢᏣᏛᎦᏅ	-11.6287
ᏂᏨᏁᏍᏗ	-11.6287
ᏍᏚᎢᏎ	-11.6287
ᎨᏳᏣ	-11.6287
▁ᎠᏍᎦᎢᎮ	-11.6288
▁ᏚᎸᏫᏍᏓᏁᎮ	-11.6288
▁ᎠᏫᎾᎨ	-11.6288
ᏣᎳᏁ	-11.6288
▁ᎠᏍᏆᎸᎲ	-11.6289
▁ᏕᎾᏓᎪ	-11.6292
ᏃᎮᎮᎴ	-11.6292
▁ᎦᎸᎳ	-11.6292
ᎨᏅᏕ	-11.6293
▁ᏥᎦᏙ	-11.6293
ᎿᏍᏕᏢ	-11.6293
ᏃᎯᏰ	-11.6294
ᏄᏩᎢᏴ	-11.6294
ᎵᏍᏓᏴᎾᏁᏗ	-11.6295
▁ᎠᏂᎩᎵᏲ	-11.6295
▁ᎨᏣᎵ	-11.6295
▁ᎾᏆᎵᏍᏔᏁ	-11.6295
ᎵᏍᏔᏁᏍᏗ	-11.6295
ᎾᏛᏗᏱ	-11.6295
ᏁᏓᏥᏛ	-11.6295
▁ᎢᏣᏛᎪᏗ	-11.6296
ᎧᎿᏩᏗᏓ	-11.6296
▁ᏄᏟᏂᎬ	-11.6297
▁ᏥᏧ	-11.6298
ᏝᏪᎯ	-11.6298
ᏜᏏᏛᎡᎲᎾ	-11.6298
▁ᎮᎲ	-11.6298
ᎣᏍᏛ	-11.6298
▁ᎦᎸᏉᏗᏳᏰᏃ	-11.6298
ᎨᏢᏔᏅᎭ	-11.6299
ᎦᏛᏂᏙᎯᏉ	-11.6299
ᏅᎵᏰᏓ	-11.6299
ᏅᏍᏓᏕᎴ	-11.63
ᎠᎩᎷᏨ	-11.63
in	-11.63
ᏣᎵᎡᎵᏤᏗ	-11.63
ᏗᏌᏓᏕ	-11.63
▁ᏕᎬᎦᎿᏩᏗᏙ	-11.6301
▁ᎠᏔᎴ	-11.6301
ᎸᎢᏍᏗ	-11.6301
ᎪᏅᏍᏓᎵ	-11.6301
ᏓᏲᎵᏍᏗ	-11.6302
ᏍᏔᏩᏕ	-11.6302
▁ᏣᏅ	-11.6302
ᎤᏍᏕᏎᎸᎯ	-11.6303
▁ᎤᏓᏴᏎ	-11.6303
ᎵᏏᎾᎯᏍᏛᎾ	-11.6303
▁ᏩᎾᎦᎳ	-11.6304
ᎭᏄᏩ	-11.6304
▁Co	-11.6304
▁ᏕᏦᏢᎯᏏ	-11.6304
aire	-11.6304
ichael	-11.6304
reland	-11.6304
ᎦᏨᏩᏍᏙᏗᏱ	-11.6304
ᎶᏄᎲᎵ	-11.6304
ᏂᏍᏋᎦ	-11.6304
ᏍᏕᎵᏌᏕᏒᎭ	-11.6304
ᏓᏂᏲᎰᏍᎪ	-11.6304
ᏓᏅᏖᏔᏂ	-11.6304
ᏓᏓᎾᏁᎶᏂᎨ	-11.6304
ᏔᏕᎶᎰᏏ	-11.6304
ᏚᎸᎡᎸᎩ	-11.6304
ᏩᏛᎱᎦ	-11.6304
▁ᎠᎩᏲᎱᏏᏗ	-11.6304
▁ᎠᎾᎵᏍᏓᏴᏂᏙᎮ	-11.6304
▁ᎠᏂᏯᏙᎯᎯ	-11.6304
▁ᎠᏍᏈᏅ	-11.6304
▁ᎠᏥᏂᏌᎲ	-11.6304
▁ᎡᏣᏁᎳᏁᎸ	-11.6304
▁ᎢᎡᏍᏕᎵᏌᏕ	-11.6304
▁ᎢᏍᏙᏎᎸᎭ	-11.6304
▁ᎢᏨᏰᎳᏗᏙᎸ	-11.6304
▁ᎢᏰᎬᏁᎸᎯ	-11.6304
▁ᎤᎦᏑᎲᎢ	-11.6304
▁ᎤᎳᏍᏚᏒ	-11.6304
▁ᎤᎾᏓᏄᏴᏗ	-11.6304
▁ᎤᎾᏓᏙᎵᏍᏓᏁᎴ	-11.6304
▁ᎤᏁᏄᎳᏍᏔᏁᎢ	-11.6304
▁ᎤᏂᏔᎳᏬᏒᎩ	-11.6304
▁ᎤᏄᏖᏎ	-11.6304
▁ᎤᏍᎫᏓᏁᎦᎸ	-11.6304
▁ᎤᏖᎸᏁ	-11.6304
▁ᎦᏖᏌᏗ	-11.6304
▁ᎨᏤᎳᏗᏙᎮᏍᏗ	-11.6304
▁ᎬᏩᏄᎸᏗ	-11.6304
▁ᎬᏩᏓᏡᏫᏍᏔᏅᎩ	-11.6304
▁ᎬᏬᏍᏔᏅᎯ	-11.6304
▁ᎭᏓᎦᏖᏙᎢᏍᎨᏍᏗ	-11.6304
▁ᎮᏏᎦᏯ	-11.6304
▁ᏂᎠᏂᏪᎭ	-11.6304
▁ᏂᎦᎸᏉᏗᏍᎬᎾ	-11.6304
▁ᏂᎧᏪᏍᎬᎩ	-11.6304
▁ᏂᏓᎷᎸᎥᏍᎬᎾ	-11.6304
▁ᏂᏓᏓᏂᎸᎬᎾ	-11.6304
▁ᏂᏗᎦᎵᏍᏔᏂ	-11.6304
▁ᏂᏥᏪᏍᎪᎢ	-11.6304
▁ᏄᎾᏓᏁᏟᏴᏎᎢ	-11.6304
▁ᏄᏂᎦᏙᎥᏒᎾ	-11.6304
▁ᏅᏓᎨᏥᏅᏏᏛ	-11.6304
▁ᏅᏓᏍᏛᏴᏁᎵ	-11.6304
▁ᏅᏩᏍᏗᏗᏎᏍᏗᏉ	-11.6304
▁ᏈᏯᏏᏱᏆ	-11.6304
▁ᏍᏆᏎᎵᏓᏁᎸᎢ	-11.6304
▁ᏍᏆᏎᎵᏓᏏ	-11.6304
▁ᏐᎣᏁᎵᏁ	-11.6304
▁ᏑᎧᏔ	-11.6304
▁ᏓᎪᏄᎶᏏᏙᎮᏍᏗ	-11.6304
▁ᏓᎵᏖᎸᏂᏙᎮᏍᏗ	-11.6304
▁ᏓᎾᏦᏍᎬ	-11.6304
▁ᏓᏂᏍᏔᏲᎯᎲ	-11.6304
▁ᏓᏂᏏᎳᏛᎥᏍᎨ	-11.6304
▁ᏓᏆᏚᏫᏍᏔᏅᎩ	-11.6304
▁ᏓᏓᏬᏍᏗᏍᎬᎩ	-11.6304
▁ᏓᏛᎯᏍᏓᏁᎮᏍᏗ	-11.6304
▁ᏔᏓᏅᏗᏍᏓ	-11.6304
▁ᏕᎤᎸᏫᏍᏓᏁᎸ	-11.6304
▁ᏕᎦᎶᎴᎬᎢ	-11.6304
▁ᏕᏥᏅᎪᎥᏗᏍᎨᏍᏗ	-11.6304
▁ᏕᏥᏅᏫᏍᎨᏍᏗ	-11.6304
▁ᏗᎩᎸᏫᏍᏓᏁᎯ	-11.6304
▁ᏗᎩᏄᎪᏨ	-11.6304
▁ᏗᏓᏙᏪᏙᎥ	-11.6304
▁ᏙᏓᏳᎸᏫᏍᏓᏁᎵ	-11.6304
▁ᏙᏗᏂᏁᎸᎢ	-11.6304
▁ᏚᎧᏙᏍᏕ	-11.6304
▁ᏚᎾᏁᏢᏔᏅᏒᎢ	-11.6304
▁ᏚᎾᏠᏱᎴᎢ	-11.6304
▁ᏚᏂᏖᎸᏁ	-11.6304
▁ᏚᏃᏣᎶᏤ	-11.6304
▁ᏠᏆᎹ	-11.6304
▁ᏧᎦᏎᏍᏗᏕᎩ	-11.6304
▁ᏧᏃᏕᏍᏗᏍᎩ	-11.6304
▁ᏫᏴᎨᏥᎷᎩ	-11.6304
▁ᏮᏓᎦᎶᏏ	-11.6304
▁ᏯᏓᏬᏍᎨᏍᏗ	-11.6304
▁ᏱᏄᎵᏍᏔᏃ	-11.6304
▁ᏱᏙᎬᏩᎸᏫᏍᏓᏏ	-11.6304
▁ᏱᏚᏓᏌᏝᎮᏍᏗ	-11.6304
▁ᏱᏚᏛᏓᏍᏓᏁᎴᎢ	-11.6304
▁ᏱᏚᏪᏘᎸ	-11.6304
▁ᏱᏨᏲᏪᎳᏁᎭ	-11.6304
▁ᏳᎾᏛᏅᎢᏍᏗ	-11.6304
▁ᏳᏍᎦᏅᏨ	-11.6304
▁ᏴᎬᏂᎷᎩ	-11.6304
ᎵᏰᏑᏍᏚᏬ	-11.6304
ᏍᏇᎵᏰᏗ	-11.6304
ᏓᎾᏫᏛᏗ	-11.6304
▁ᎠᎵᏍᏕᎵᏍᎬ	-11.6304
▁ᎢᏍᏉᏎᎭ	-11.6304
▁ᎵᏆᏗᎻ	-11.6304
▁ᏂᏚᎿᏍᏕᏢᎾ	-11.6304
▁ᏍᎩᎨᏳᎭᏧ	-11.6304
▁ᏕᏓᎧᏂᏍᎬ	-11.6304
▁ᏙᏧᏁᏅᏒ	-11.6304
▁ᏣᏍᏕᏅᏨ	-11.6304
▁ᏫᏙᏓᏨᏯ	-11.6304
ᏥᏍᎩᏅᏛᎯ	-11.6304
▁ᎠᎦᏘᏗᏍᏙᏗ	-11.6304
▁ᎠᎾᏓᏌᎩᏙᎲ	-11.6304
▁ᎠᏂᎫᏌᏩᎩ	-11.6304
▁ᎤᏓᏏᏂᏕᏅ	-11.6304
▁ᎤᏙᎴᎱ	-11.6304
▁ᎤᏦᏔᎮ	-11.6304
▁ᏍᎩᏯᏅᏓᏗᏍᎬᎢ	-11.6304
▁ᏍᎩᏲᎢᏳᎲᎦ	-11.6304
▁ᏓᎦᏓᏅᏏ	-11.6304
▁ᏗᎩᎧᏁᎸᎯ	-11.6304
▁ᏙᏓᎨᏥᏲᎯᏎᎵ	-11.6304
▁ᏚᏢᏫᏎᎴ	-11.6304
▁ᏦᎧᏔᏂ	-11.6304
▁ᏨᏓᎬᏯᏎᎮᎵ	-11.6304
▁ᏩᏂᎦᏖᎢ	-11.6304
▁ᏭᏪᏙᎴᎢ	-11.6304
▁ᏱᏄᏓᎠ	-11.6304
ᎯᎬᏍᎪᎸᎥᏍᎨᏍᏗ	-11.6304
ᏤᏲᎲᏍᎦ	-11.6304
ᏬᎯᎵᏴᏍᏓᏁ	-11.6304
▁ᎠᎻᏗᏏ	-11.6304
▁ᎠᎾᏓᎩᎡᎯ	-11.6304
▁ᎢᏨᏂᏌᏛ	-11.6304
▁ᎢᏯᏂᏪᏍᎩ	-11.6304
▁ᎤᏂᏍᏛᏛᎯ	-11.6304
▁ᎤᏃᎱᎦᏅ	-11.6304
▁ᎤᏉᏔᏗ	-11.6304
▁ᏂᏚᎾᏑᎴᎲᎾ	-11.6304
▁ᏅᏗᏛᏁᎵᏒ	-11.6304
▁ᏇᏣᏱᏗ	-11.6304
▁ᏌᎷᏱ	-11.6304
▁ᏓᎬᏯᎫᏴᎡᎵ	-11.6304
▁ᏓᏍᏆᎸᎮᎬᎢ	-11.6304
▁ᏗᎦᎸᏉᏔᏅᎯ	-11.6304
▁ᏗᎧᏃᎩᏓ	-11.6304
▁ᏗᏂᎭᏲᎯ	-11.6304
▁ᏗᏂᏏᎲᏍᎩ	-11.6304
▁ᏗᏲᎳᏅᎯ	-11.6304
▁ᏙᏛᏂᏲᎯᏎᎵ	-11.6304
▁ᏣᏂᎦᏴᎵ	-11.6304
▁ᏦᎩᎦᏴᎵᎨᎢ	-11.6304
▁ᏱᏄᏩᏁᎸ	-11.6304
▁ᎠᎩᏔᎳᏬᏍᎬ	-11.6304
▁ᎠᎾᎵᏙᎩᏯᏍᎩ	-11.6304
▁ᎢᏨᏁᏤᎸᎢ	-11.6304
▁ᎤᎵᏍᎦᏎ	-11.6304
▁ᎤᏩᎢᏎᎸᎯ	-11.6304
▁ᎤᏲᏏᏌᏁᎢ	-11.6304
▁ᎪᎸᏌᏛᏗ	-11.6304
▁ᎬᏩᎵᏃᎮᏔᏁ	-11.6304
▁ᏍᏇᎵᏎᏗᏱ	-11.6304
▁ᏚᏂᏐᏨ	-11.6304
▁ᏚᏟᎶᏍᏓᏁᎸᎩ	-11.6304
▁ᏣᏗᏫᏍᏓ	-11.6304
▁ᏥᏫᏗᎨᎦᏘᏅᏍᏔᏁ	-11.6304
ᏗᎩᏴᎩ	-11.6304
▁ᎡᎵᏍᏓᎦ	-11.6304
▁ᎣᎦᏛᏅᎢᏍᏗ	-11.6304
▁ᎤᏁᎳᎥᎯ	-11.6304
▁ᏄᎪᎸᎾ	-11.6304
▁ᏅᏓᏲᏣᏛᏁᎵ	-11.6304
▁ᏚᏬᏑᎴ	-11.6304
▁ᏥᏅᏓᎦᎵᏍᏔᏂ	-11.6304
▁ᏧᏂᏍᏚᏗ	-11.6304
▁ᏩᏓᏁᏟᏴᏍᏓ	-11.6304
▁ᏯᏂᎷᎩ	-11.6304
▁ᎠᏂᏇᎵᏏ	-11.6305
▁ᎤᏓᏁᏟᏴᏍᏔᏁᎴ	-11.6305
▁ᎻᎴᎳ	-11.6305
▁ᎾᏂᏴᎬᎾ	-11.6305
▁ᏄᎵᏍᏔᏂᏙᎴ	-11.6305
▁ᏥᏓᎾᏕᏲᎲᏍ	-11.6305
▁ᏩᎦᏘᏅᏍᏙᏗᏱ	-11.6305
▁ᎤᏕᏯᏔᏁᎸ	-11.6305
▁ᏂᏚᎾᎵᏂᎬᎬ	-11.6305
▁ᏄᎵᏍᏚᎸᎾ	-11.6305
▁ᏕᎱᏓ	-11.6305
▁ᎠᎩᎳᏫᏍᏗᏱ	-11.6305
▁ᎠᏆᏙᎴᎰᎯᏍᏗᏱ	-11.6305
▁ᏈᏥᏱ	-11.6305
▁ᏚᏰᎵᎯᏍᏔᏁ	-11.6305
▁ᏦᏓᎻ	-11.6305
▁ᏫᎷᏨᎭ	-11.6305
▁ᏮᏓᎦᏙᎴᎣᏏ	-11.6305
▁ᏴᎨᏦᎯᏳᎲᎦ	-11.6305
▁ᎠᏓᏍᏕᎸᏓ	-11.6305
▁ᎠᏥᏅᏩᏅᎢ	-11.6305
▁ᎤᎾᏕᏯᏔᏁᎴᎢ	-11.6305
▁ᎤᎾᏗᏒᎸ	-11.6305
▁ᎤᏆᎶᎦ	-11.6305
▁ᏓᎾᏗᏔᏍᏗᏍᎨ	-11.6305
▁ᏗᏂᏍᏔᏲᎯ	-11.6305
▁ᏥᎨᏳᎠ	-11.6305
per	-11.6305
▁ᎠᎫᏴᎡᏗᏱ	-11.6305
▁ᎣᏌᏯ	-11.6305
▁ᎤᎾᎵᏛᏔᏅ	-11.6305
▁ᏓᏤᏅᎡᎵ	-11.6305
▁ᏙᏓᏰᏣᏬᏍᏔᏂ	-11.6305
▁ᏚᎵᏘᎾᎥ	-11.6305
▁ᏚᏂᎵᏬᏨᎩ	-11.6305
▁ᏥᏚᏃᎱᎦᏁ	-11.6305
▁ᏧᎳᏏᏗᏱ	-11.6305
▁ᎤᏚᏣᎳᏅᎩ	-11.6305
▁ᎦᏨᏩᏍᏔᏅᎯ	-11.6305
▁ᏂᏙᏓᎦᏪᏎᎵ	-11.6305
▁ᏓᏱᏓᎵ	-11.6305
▁ᏣᎷᎯᏍᏗᏱ	-11.6305
ᎩᏲᎱᏎᎲᎩ	-11.6305
ᏬᏁᏓ	-11.6305
▁ᎠᏂᏃᏟᏙ	-11.6305
▁ᎡᏦᎯᏳᎲᏍ	-11.6305
▁ᎤᎦᏖᏃ	-11.6305
▁ᎤᎾᏣᏪᏐᎸᏍᏙᏗᏱ	-11.6305
▁ᎨᎩᏍᎦᎩ	-11.6305
▁ᎬᏩᎪᎵᏰᏍᎬ	-11.6305
▁ᏓᎦᏥᏁᏉᎢ	-11.6305
▁ᏕᎦᏆᏛ	-11.6305
▁ᏕᎯᏯᏁᎶᏕᏍᏗ	-11.6305
▁ᏗᎾᎵᏍᏓᏴᏂ	-11.6305
▁ᏥᏂᏴᏁᎭ	-11.6305
ᏍᏚᎢᎡᎸ	-11.6305
▁ᎤᏬᎦᏒ	-11.6305
▁ᎾᏂᎦᏔᎾᎥᎾ	-11.6305
▁ᏬᎩᏃᎸᎩ	-11.6305
▁ᏄᏂᏍᎦᏅᏨᎾ	-11.6305
▁ᏙᎦᏠᏒᎩ	-11.6305
▁ᎤᎾᏕᎶᏆᏍᏗᏱ	-11.6305
▁ᎻᏗᏯᏂ	-11.6305
▁ᏗᎬᏩᎾᏛᎪᏙᏗ	-11.6305
▁ᏛᏓᎸᎢ	-11.6305
▁ᏯᏥᏯᏝ	-11.6305
ᏓᎴᏴᏗᏍᎩ	-11.6305
ᏓᏓᎴᏔᏂ	-11.6305
ᏙᏥᎵᏦᏛᎦ	-11.6305
▁ᎢᏥᎪᎵᏰᎥᎭ	-11.6305
▁ᎤᎾᏦᏍᏔᏁ	-11.6305
▁ᏂᏨᎾᏛ	-11.6305
ᎱᏢᏔᏅᎭ	-11.6305
▁ᎤᏅᏘᏛ	-11.6305
▁ᏒᎦᏙᎯ	-11.6305
▁ᏛᏥᎷᏥ	-11.6305
▁ᎠᎵᏃᎮᏗᏍᎬᎢ	-11.6305
▁ᎤᎾᏘᏍᏙᏗᏱ	-11.6305
▁ᏂᏙᏓᎬᏁᎵ	-11.6305
▁ᏅᏓᏨᏴᏁᎵ	-11.6305
▁ᏗᎾᏓᏙᏕᏍᏗᏍᎩ	-11.6305
▁ᏱᏅᏓᎦᎵᏍᏙᏓ	-11.6305
▁ᎠᏂᏁᎢᏍᏗᏍᎩ	-11.6305
▁ᎤᏎᎵᏓᏁᎴᏃ	-11.6305
▁ᎦᏴᏓᏗ	-11.6305
▁ᏕᎦᏕᏲᎲᏍᎬ	-11.6305
▁ᏕᎧᏃᎮᏍᎬ	-11.6305
ᎩᎵᏲᏥᏙᎸᎢ	-11.6305
▁ᎠᏰᎴᎩ	-11.6305
▁ᎣᏥᏯᎥ	-11.6305
▁ᎤᏙᏣᎸᎢ	-11.6305
▁ᎾᎾᏓᏛᏍᎬᎾ	-11.6305
▁ᎤᏍᏆᎷᎪ	-11.6305
▁ᎤᏓᏦᎯᏯ	-11.6305
▁ᏗᏧᎪᏗᏍᎩ	-11.6305
ᏨᏉᏛᎾ	-11.6305
▁ᎦᏅᏃᏫ	-11.6305
▁ᎯᏯᏛᎥᎦ	-11.6305
▁ᏙᎩᎾᏗᏔᎲ	-11.6305
ᏲᎱᎯᏎᎴᎢ	-11.6305
▁ᎦᏢᏍᎩ	-11.6305
▁ᏄᎾᏙᏓᏈᏒ	-11.6305
▁ᏧᏃᏑᎴᏗ	-11.6305
▁ᎤᎦᏛᎴᎯᏍᏗᏱ	-11.6305
▁ᎤᎾᏓᏓᏍᎩᏌᎲ	-11.6305
▁ᎦᏃᎱᎩᏍᎨ	-11.6305
▁ᏅᏗᎦᏪ	-11.6305
▁ᏛᎵᏛᏔᏂ	-11.6305
▁ᎠᏍᏚᎢᏛ	-11.6305
▁ᏗᎬᏩᏂᏯᎢ	-11.6305
▁ᎠᏂᏂᎩᎸ	-11.6305
▁ᎢᏨᏅᎵ	-11.6305
▁ᏛᎬᏯᏘᏃ	-11.6305
▁ᎠᏐᏢᎢᏍᏗᏍᎨᏍᏗ	-11.6305
▁ᎤᏍᏘᏰᎩ	-11.6305
▁ᏄᎵᏌ	-11.6305
▁ᎠᎵᏱᎵᏒᎢ	-11.6305
▁ᎤᏟᏃᎮᏔᏁᎢ	-11.6305
▁ᏄᏂᏧᏈᏍᏕᏍᏗ	-11.6305
ᏑᎶᏨᎯ	-11.6305
▁ᏧᎾᏛᏒᎯ	-11.6305
▁ᎠᎾᎵᏍᎩᏍᎬ	-11.6305
▁ᎠᏃᏢᏅᎥᏍᎩ	-11.6305
▁ᎦᎨᏥᏐᏢ	-11.6305
ᎫᎪᏓᏁᏗ	-11.6305
ᏨᏯᏛᏛᏂ	-11.6305
▁ᎤᎾᎵᏍᏓᏴᏃᏅ	-11.6305
▁ᏥᏄᎾᏍᏛᎢ	-11.6305
▁ᏫᏄᏒ	-11.6305
ᎿᎸᏍᏗᏍᎨᏍᏗ	-11.6305
ᏕᏯᏔᏁᎭ	-11.6305
▁ᎤᏗᎦᎵᏍᏙᏗᏍᎨ	-11.6305
▁ᏂᎨᏣᏛᏁᎮᏍᏗ	-11.6305
▁ᏃᎩᏪᏒᎩ	-11.6305
▁ᏓᏳᏂᏄᎪᏨᎩ	-11.6305
▁ᎤᏗᏛᎲᎩ	-11.6305
▁ᏧᎾᏓᏟᏴᏗ	-11.6305
▁ᏗᎵᏰ	-11.6305
▁ᏙᎩᏃᏢ	-11.6305
ᏣᏓᏅᎡᎸ	-11.6305
▁ᎠᎩᏔᏕᎩᏍᎬ	-11.6305
▁ᏚᎾᎵᏯᏍᏚ	-11.6305
▁ᏚᏥᎸᏒ	-11.6305
▁ᎢᏣᏛᎿᏕᎩ	-11.6305
▁ᎤᏄᏬᎥᎯ	-11.6305
▁ᎾᏆᎵᏍᏓᏁᎵᏕᎬ	-11.6305
▁ᏣᎦᏥᎶᏍᏔᏅ	-11.6305
▁ᏧᎧᏃᏗᏱ	-11.6305
▁ᎠᎩᏟᏲ	-11.6305
▁ᏂᎦᎷᎶᎬᎾ	-11.6305
▁ᏙᏘᏲᎢ	-11.6305
▁ᏚᎵᏥᏙᏁᎴᎢ	-11.6305
▁ᏥᏂᎦᏛᏁᎭ	-11.6305
▁ᏅᏓᏥᏯᏛᏁᎵ	-11.6305
▁ᏗᎾᏓᎯᎯ	-11.6305
ᎬᏣᏝᏅ	-11.6305
▁ᎢᏥᎪᏙᏍᎨᏍᏗ	-11.6305
▁ᏰᏦᏎᎮᏍᏗ	-11.6305
▁ᏚᏄᏮ	-11.6305
▁ᏗᏥᏅᏍᎨᏂ	-11.6305
▁ᎠᏉᎵᏨ	-11.6305
▁ᏗᎩᎪᎶᎯ	-11.6305
▁ᎡᏣᏁᏍᎨᎲᎯ	-11.6305
▁ᏂᎦᎵᏍᏔᏂᏙᎮᏍᏗ	-11.6305
▁ᏧᏁᎩᏳ	-11.6305
ᎳᏫᏎᎮᏍᏗ	-11.6305
▁ᏄᏓᏅᏛᎾ	-11.6305
▁ᎤᏍᎦᎢᏓ	-11.6305
▁ᎠᎵᏍᏆᏛᎭ	-11.6305
▁ᎠᏃᏢᏍᎬ	-11.6305
▁ᎢᏥᎾᏫ	-11.6305
ᎳᏫᏎᏗ	-11.6305
▁ᎡᏣᎵᎡᎵᏤᎮᏍᏗ	-11.6305
▁ᎠᏆᎵᏂᎬᎬᎢ	-11.6305
▁ᏫᎷᎩ	-11.6305
ᏧᎾᏚᎩᏎ	-11.6305
▁ᎢᏨᏯᏅᏓᏗᏍᏗᏍᎬᎢ	-11.6305
▁ᎢᏏᎳᎻ	-11.6305
▁ᎠᏔᏍᎩᏍ	-11.6305
▁ᎾᏐᏂ	-11.6305
▁ᎾᏓᏛᏁᎲᎢ	-11.6305
ᎾᎪᏄᎸ	-11.6305
ᏍᎦᎳᏤ	-11.6305
▁ᎹᏈᎳ	-11.6305
▁ᏱᏩᏍᏔ	-11.6305
▁ᎤᏂᎾᏰᏒᎩ	-11.6305
▁ᏂᏕᎦᏅᎯᏒᎩ	-11.6305
▁ᎢᏣᏛᎩᏍᎨᏍᏗ	-11.6305
▁ᎤᏁᏢᏔᏅᏒᎢ	-11.6305
▁ᏄᏲᎱᏒᎩ	-11.6305
▁ᏗᏓᎪᏗᏍᎩ	-11.6305
ᎩᎵᏲᎨᏍᏗ	-11.6305
ᎬᏲᏎᏗ	-11.6305
▁ᏛᎩᏲᎵ	-11.6305
ᏢᏥᏰᏍ	-11.6305
▁ᏫᏨᏲᎵ	-11.6305
▁ᏥᏓᏓᏂᎸᎪᎢ	-11.6305
▁ᎠᎵᏱᎶᎸᎭ	-11.6305
▁ᎠᏆᏁᎳᏫᏎ	-11.6305
▁ᏙᎨᏥ	-11.6305
▁ᎾᏂᎦᏔᎿᎥᎾ	-11.6305
ᎳᏍᏕᎵᏴᏌ	-11.6305
▁ᎤᏪᏣᏄ	-11.6305
▁ᏒᎯᏰ	-11.6305
▁ᏱᏓᏂᏁᏟᏴ	-11.6305
▁ᎤᎧᎵᏦᏅ	-11.6305
▁ᎠᎨᎾᏂ	-11.6305
▁ᏬᏥᎦᏛ	-11.6305
▁ᏧᏲᏍᏔᏅᎯ	-11.6305
▁ᏳᏍᏆᎸ	-11.6305
▁ᎢᏳᎾᎵᏍᏔᏁᏗ	-11.6305
▁ᏧᎾᎳᏏᏕᏄᎶᏗ	-11.6305
▁ᎤᎾᏁᎳᏛ	-11.6305
▁ᎠᎩᏬᏂ	-11.6305
▁ᏕᎱᎪ	-11.6305
▁ᏫᏚᎾᏘᏃᎮᎸᎩ	-11.6305
▁ᏭᏪᏙᎸ	-11.6305
▁ᏅᏓᏳᏪᏒᎩ	-11.6305
▁ᎠᏆᏛᏛᏅ	-11.6305
▁ᏂᏗᏨᎦ	-11.6305
▁ᏧᎾᎳᏏᏕᏅ	-11.6305
▁ᎠᏍᏆᎾᎸ	-11.6305
▁ᎢᎪᎯᏳᏒ	-11.6305
▁ᏣᎪᏎᎰᎢ	-11.6305
ᎩᏍᏚᎲᎩ	-11.6306
▁ᏂᏥᏲᎯᏍᏗᏍᎬᎾ	-11.6306
ᏲᎱᏒᎾ	-11.6306
▁ᎠᎾᏕᎲᏍᎨ	-11.6306
▁ᎤᏃᏴᎳᏒ	-11.6306
▁ᎤᏅᏫᏍᏗᏍᎩ	-11.6306
▁ᏅᏧᏪᏎᎴᎢ	-11.6306
▁ᏄᎵᏁᏨ	-11.6306
▁ᎠᎪᏩᏘᏍᎩ	-11.6306
ᏍᏇᏲᎲᎦ	-11.6306
▁ᏁᏙᎲᎾ	-11.6306
▁ᏍᎩᏯᏛᏓᏍᏓᏏ	-11.6306
ᏥᏯᏫᏍᎬ	-11.6306
▁ᏚᏂᏲᏏᏍᎬ	-11.6306
ᏟᎶᏍᏔᏂ	-11.6306
▁ᎢᎩᏇᏓᎸ	-11.6306
▁ᏏᏗᎻ	-11.6306
▁ᏚᏂᎦᏘᎸᏎ	-11.6306
▁ᎢᎨᏓᏍᏗᏱ	-11.6306
▁ᎤᏗᎴᎲᏍᎨᎢ	-11.6306
▁ᎤᏙᎵᏍᏙ	-11.6306
▁ᎠᏆᏛᏐᏅᎯ	-11.6306
▁ᎢᏣᏓᏅᏓᏓ	-11.6306
▁ᏚᏬᎥᎩ	-11.6306
▁ᏧᏓᏅᎵᏰᏓ	-11.6306
ᎭᏄᏫ	-11.6306
ᎵᎯᎮᎢ	-11.6306
ᏣᎦᏎᏍᏓ	-11.6306
▁ᎠᎢᏗᏢ	-11.6306
▁ᎠᏂᏲᎵᎮ	-11.6306
▁ᏄᎸᏉᏔᏅᎾ	-11.6306
▁ᏓᏥᎾᏄᎪᏫᏎᎵ	-11.6306
▁ᎤᎵᏒᏍᏔᏁᎢ	-11.6306
▁ᎠᏓᏅᏬᎯᏍᏗᏍᎩ	-11.6306
▁ᎢᏨᏁᏤᎭ	-11.6306
▁ᎣᏣᏓᏅᏟ	-11.6306
▁ᎬᏩᏛᎡᎴᏍᏗ	-11.6306
▁ᎤᎦᏌᏛᎢ	-11.6306
▁ᏓᏳᏠᎠᏒᎩ	-11.6306
▁ᏚᏂᏎᎪᎩᏎ	-11.6306
▁ᎤᏠᎩ	-11.6306
▁ᎠᏎᎵᏛᏍᎬ	-11.6306
▁ᏫᏚᏂᏴᏍᏗᏱ	-11.6306
▁ᏦᏥᏰᎸ	-11.6306
▁ᎠᎾᏓᎸᏉᏗᏍᎩ	-11.6306
▁ᎠᎩᏁᏉᏤ	-11.6306
▁ᎤᎯᏌᏛ	-11.6306
▁ᏕᎤᏲᎯᏎᎴᎢ	-11.6306
▁ᎠᏍᏙᏓ	-11.6306
▁ᏳᏂᏃᎮᎸ	-11.6306
▁ᎢᏨᏲᎵᎦ	-11.6306
▁ᎠᏓᏓᏱᎮᏍᏗ	-11.6306
▁ᎾᎾᎵᏍᏗᎭ	-11.6306
▁ᏕᎦᎦᏙᏍᏛ	-11.6306
▁ᎠᏁᏦ	-11.6306
ᏯᏓᏂᎸᏥ	-11.6306
▁ᎥᏆᏬᏍᏙᏗ	-11.6306
▁ᏭᏗᏢᏍᏔᏅ	-11.6306
▁ᎢᏥᏲᎮᏍᏗ	-11.6306
▁ᎤᏂᏲᎢᏎᎸᎯ	-11.6306
▁ᎢᏥᏁᎢᏍᏗᏱ	-11.6306
▁ᎤᎾᎵᏍᏔᏴᏅ	-11.6306
▁ᏳᏥᏍᎪᎸ	-11.6306
▁ᎠᏉᎯᏳᎲᏍᎨᏍᏗ	-11.6306
▁ᏳᏓᏅᏒ	-11.6306
▁ᎥᎩᏂᎵ	-11.6306
ᎬᏑᎶᏙᏗ	-11.6306
▁ᏚᎾᏂᏏᏁᎢ	-11.6306
▁ᏫᎬᎷᏤᏗᏱ	-11.6306
▁ᏱᎦᏂᏆᏘᎭ	-11.6306
▁ᏗᎪᏏᏐᏗ	-11.6306
▁ᎤᎾᏁᎶᏔᏁ	-11.6306
▁ᏌᎳᏓᏱᎵ	-11.6306
▁ᏫᏚᎵᏍᏘᏂᎸ	-11.6306
▁ᎣᎦᏂᎩᏒᎩ	-11.6306
▁ᏚᏂᎳᏫᏦᎴ	-11.6307
ᏦᎣᏍᏙᏗ	-11.6307
▁ᏫᏍᎩᏩᎯᏏ	-11.6307
▁ᏓᏆᎭᏄᏮ	-11.6307
▁ᎢᏣᏗᏔᏍᎨᏍᏗ	-11.6307
▁ᎤᏛᎸᎮ	-11.6307
▁ᎦᎾᏜᎢ	-11.6307
▁ᏅᏓᏳᎾᏄᎪᎢᏍᏗ	-11.6307
ost	-11.6307
▁ᎠᎦᏘᏅᏍᏗᏱ	-11.6307
▁ᏓᏰᏥᎪᎢ	-11.6307
ᏕᎰᏍᎬᎾ	-11.6307
▁ᎢᏍᎩᎪᏩᏘᏍᎨᏍᏗ	-11.6307
▁ᎤᎾᎦᏙᏍᏛ	-11.6307
▁ᏓᏘᎭᏁᎲ	-11.6307
▁ᏓᏳᏗᏩᏏ	-11.6307
▁ᏫᏓᏂᎷᎦ	-11.6307
er	-11.6307
▁ᏐᏆᎵ	-11.6307
ᎵᏍᏓᏁᎵᏕᎬ	-11.6307
▁ᏌᏗᏏ	-11.6307
▁ᏓᏉᏙᎥ	-11.6307
▁ᎢᏨᏍᏓᏩᏕᏅ	-11.6307
▁ᏧᎾᎭᎾᏬ	-11.6307
▁ᎤᏓᏬᎡ	-11.6307
▁ᏅᏛᎴᏅᏛ	-11.6307
ᏗᎨᏥᏰᎪᎢ	-11.6307
ᏢᏈᏍᎦ	-11.6307
▁ᏙᏓᏲᏣ	-11.6307
▁ᎡᏥᎸᏉᏗᏍᎨᏍᏗ	-11.6307
▁ᎣᎦᏁᎳᎩ	-11.6307
▁ᏫᏗᏍᎩᏯᏅᏏ	-11.6307
ᎶᏄᎮᎸᎩ	-11.6307
▁ᎤᏂᎦᎾᏍᏓ	-11.6307
▁ᎤᏪᎧᎮ	-11.6307
▁ᎠᏓᏅᏖᏍᎩ	-11.6307
▁ᎤᎵᏏᏂᏕᎾ	-11.6307
ᎨᎲᏒᎩ	-11.6307
▁ᏱᏍᎩᎪᏩᏘᏍᎨᏍᏗ	-11.6307
▁ᎢᏓᎢᏎᏍᏗ	-11.6307
▁ᎢᎨᎳᏗᏙᎭ	-11.6307
▁ᎢᏣᏓᏄᎸᏗ	-11.6307
ᏃᏪᎳᏁ	-11.6307
▁ᎠᏉᎯᏳᎲᏍᎩ	-11.6307
▁ᎢᏳᎾᏓᎵ	-11.6307
▁ᎫᏘᏍᎬ	-11.6308
▁ᏙᏂᏍᎩ	-11.6308
▁ᎢᎤᏂᎷᏨ	-11.6308
▁ᎡᎳᏆᏘ	-11.6308
▁ᎤᎾᏓᏅᎡᎸᎩ	-11.6308
▁ᏕᏣᏏᎳᏛ	-11.6308
▁ᏙᏥᏲᎦ	-11.6308
▁ᏥᏥᏃᎮᎭ	-11.6308
▁ᎢᏰᏨᏁᏗᏱ	-11.6308
▁ᎣᏦᎯᏳᎲᏍᎦ	-11.6308
▁ᎠᏆᏎᎵᏙᏔᏅ	-11.6308
▁ᎣᎩᎾᏟᏃᎮᎸ	-11.6308
▁ᏱᏂᎬᏩᏍᏗᏉ	-11.6308
▁ᏚᏰᎵᏏᏙᎴᎢ	-11.6308
ᎴᎬ	-11.6308
▁ᏚᏍᏕᎸᎯᎸ	-11.6308
▁ᏕᏥᏁᏤᎮᏍᏗ	-11.6308
▁ᏭᏂᎧᏁ	-11.6308
▁ᏱᏍᎩᏃᎯᏎ	-11.6308
▁ᎤᎵᏍᏚᎸᎩ	-11.6308
▁ᎤᏩᏃᏫᏍ	-11.6308
▁ᏗᏤᎵᏏ	-11.6308
▁ᏚᏂᏐᏈ	-11.6308
▁ᏴᏗᏓᎴᎲᏍᎦ	-11.6308
▁ᏗᎫᎪᏗᏱ	-11.6308
▁ᎠᏇᏙᏅ	-11.6308
▁ᏚᎳᏫᏛ	-11.6308
▁ᏕᏣᎸᏫᏍᏓᏁᎮᏍᏗ	-11.6308
▁ᏓᎾᎴᎯᏌᏅ	-11.6308
▁ᎢᏗᏜ	-11.6308
▁ᏌᎵᎹ	-11.6308
▁ᏚᎾᏠᏱᎸᎩ	-11.6308
▁ᎭᎵᏍᏓᏴᎲᎦ	-11.6308
▁ᎠᏆᏣᏅᏓᏕ	-11.6308
▁ᎢᎪᎯᏳᏅ	-11.6308
▁ᎡᏣᏓᏅᏛᎵ	-11.6308
▁ᏱᏓᎨᏏ	-11.6308
▁ᎤᎩᎴᏍᏗ	-11.6308
▁ᎤᏍᏆᏄ	-11.6308
▁ᏗᎬᏩᏂᎾᏝᎢ	-11.6308
▁ᎠᎬᏂᏗᏳ	-11.6308
▁ᏕᏣᏓᏅᏖᏍᏗ	-11.6308
▁ᎤᏓᏅᎵᏰᏓ	-11.6308
▁ᏂᏥᎾᏰᏍᎬᎾ	-11.6308
▁ᏴᎨᏤ	-11.6308
▁ᎢᎫᏓᎴᏍᏗᏱ	-11.6308
▁ᎢᎬᏴᏁᏗᏱ	-11.6308
ᏗᏔᏍᏔᏁ	-11.6309
▁ᏝᏬ	-11.6309
▁ᏥᏗᎧᎸᎪ	-11.6309
▁ᏯᏬᏅ	-11.6309
▁ᏖᏒ	-11.6309
▁ᎦᏓᏙᎵᏍᏗᏍᎨᏍᏗ	-11.6309
▁ᏗᏂᏂᏙᎯ	-11.6309
▁ᏗᎦᎾᎯᏍᏙᏗ	-11.6309
▁ᏥᎨᎳᏗᏙᎮ	-11.6309
▁ᎢᏥᏫᏅ	-11.6309
▁ᏥᎾᏂᎥ	-11.6309
▁ᏭᎦᏔᎲᏍᏔᏅ	-11.6309
▁ᏕᏣᏓᎨᏳᏒ	-11.6309
▁ᎠᏅᏍᎬᎢ	-11.6309
ᏍᎦᏞᎢ	-11.6309
▁ᏚᏂᏃᎸᎩ	-11.6309
▁ᏩᏎᎯ	-11.6309
▁ᎠᎾᏙᎴᎰᏍᎨᏍᏗ	-11.6309
▁ᎠᏱᏍᎨᏍᏗ	-11.6309
▁ᎤᏃᏒᏅ	-11.6309
▁ᎠᏕᏄ	-11.6309
▁ᏂᏍᎩᏴᏁᎸ	-11.6309
▁ᏚᏍᏚᏤ	-11.6309
ᎵᏴᏌ	-11.6309
▁ᎢᏗᎬᏓ	-11.6309
▁ᎤᏁᏍᎨᎴ	-11.6309
▁ᎤᏂᏏᏁᎢ	-11.6309
ᏍᏕᏓᎵᏴᏌ	-11.6309
▁ᏧᏪᏲᏅᎯ	-11.6309
▁ᏭᎵᏰᎢᎶᎸ	-11.6309
▁ᏕᏨᏰ	-11.6309
▁ᏧᏕᏲᏗᏱ	-11.6309
▁ᎨᏣᎵᏍᏕᎸᏙᏗ	-11.6309
▁ᎢᏥᏂᎬᏎᎲᎢ	-11.6309
▁ᏍᎩᏯᏓᏅᏏ	-11.6309
ᎩᎩᎡᎵ	-11.6309
ᏳᎪᏛᎾ	-11.6309
▁ᏍᏆᏕᏁᎸ	-11.6309
▁ᏓᏳᏍᏕᎸᎯ	-11.6309
▁ᎦᏁᏐᎠᏍᎬ	-11.6309
▁ᎠᏕᎰᎯᏍᏗ	-11.631
▁ᎤᏤᏥᏍᏗ	-11.631
▁ᎤᏂᏯᏙᎴ	-11.631
▁ᏅᏩᏛᏁᏍᏗ	-11.631
▁ᎢᏳᏥᎶᏓ	-11.631
▁ᎢᏨᏲᎢᏳ	-11.631
▁ᏗᏣᏠᏱᎸᎩ	-11.631
ᏓᏄᏴᏛᎾ	-11.631
▁ᏚᏅᏫᏍᏔᏅ	-11.631
▁ᎹᏚ	-11.631
▁ᏧᏓᎴᏅᏔᏅᎯ	-11.631
▁ᏫᏨᏲᏪᎳᏁᏗᏱ	-11.631
▁ᏄᎾᏍᏕᏍᏗ	-11.631
▁ᎢᎤᎷᏤ	-11.631
▁ᎠᎦᏬᎥ	-11.631
ᏴᎳᏎᎢ	-11.631
▁ᏕᎦᎶᏍᎬ	-11.631
▁ᏄᏓᎨᏒ	-11.631
▁ᎠᎾᎵᏍᏔᏴᎲᏍᎬ	-11.631
▁ᎢᏲᎦᏛᏁᏗᏱ	-11.631
▁ᏤᏥᎤᏍᏕᏎᏗᏱ	-11.631
▁ᎯᏅᎦᎸ	-11.631
▁ᎢᏕᎮᏍᏗ	-11.631
▁ᎣᏣᏓᏙᎵᏍᏓᏁ	-11.631
▁ᏧᎾᏁᎳᏗᏍᏗᏱ	-11.6311
▁ᏋᏗᏱ	-11.6311
▁ᎤᎾᏓᏙᎵᏍᏗ	-11.6311
▁ᎦᏁᎵᏛ	-11.6311
▁ᎯᏁᏒᎭ	-11.6311
▁ᏯᏆᏛᎦ	-11.6311
ᏙᎰᏎ	-11.6311
ᎩᏌ	-11.6311
▁ᏛᎨᏥ	-11.6311
ᎦᏎᏍᏔᏅ	-11.6311
▁ᏱᏙᎦᏰ	-11.6311
▁ᎢᏨᏯᏛᏁᏗᏱ	-11.6311
▁ᏂᎦᏁᎲᎾ	-11.6311
ᏕᎰᎯᏍᏙᏗᏱ	-11.6311
▁ᎠᎾᏔᏍᎩᏍᎩ	-11.6311
▁ᎢᏤᎳᏗᏙᎭ	-11.6311
▁ᎢᏥᎷᎨᏍᏗ	-11.6311
ᎥᏍᎩᏱᎩ	-11.6311
▁ᏳᏲᏤᎢ	-11.6311
▁ᎢᏣᏓᏯᏫᏍᎨᏍᏗ	-11.6311
▁ᎠᏝᎲ	-11.6311
▁ᎢᏳᏪᏍᏘ	-11.6312
▁ᏥᏄᏪᏎᎴᎢ	-11.6312
▁ᏍᎩᏯᏘᏃᎮᎸᎭ	-11.6312
▁ᏣᎾᏓᎾᏏᏂᏙᎭ	-11.6312
▁ᏥᎦᎷᎯᏍᏗᎭ	-11.6312
▁ᏗᎦᏅᏍᏙᏗ	-11.6312
▁ᏂᏥᏪᏒᎭ	-11.6312
▁ᎾᎾᏓᏁᏟᏴᏏᏒ	-11.6312
▁ᏱᏦᎵᎦ	-11.6312
▁ᎢᏣᏣᏪᏐᎸᏍᏓ	-11.6312
▁ᏅᏓᏳᏄᎪᏨᎯ	-11.6312
▁ᏗᎦᏚᏗᏱ	-11.6312
▁ᎤᏂᏑᎵᎪᏤ	-11.6312
▁ᎤᏩᎦᏘ	-11.6312
▁ᎾᏥᏪᏎᎸ	-11.6312
▁ᏓᏂᎾᏌᏛ	-11.6312
▁ᏱᏣᏰᎸᏅ	-11.6312
▁ᎢᏳᏩᎪᏗ	-11.6312
ᎶᏅᎮᎸ	-11.6312
▁ᎠᏂᎵᏫ	-11.6312
▁ᎯᏫᏅ	-11.6312
ᏯᎷᎦ	-11.6312
▁ᎡᏙᏙᏱ	-11.6312
▁ᏗᎨᎪᏍ	-11.6312
▁ᎬᎩᎷᏤᏗᏱ	-11.6312
ᏠᎯᏍᏗᏱ	-11.6312
▁ᏕᏨᏁᏍᏗ	-11.6312
▁ᏱᎾᏥᎸᏉᏙ	-11.6312
ᏎᏒᎮ	-11.6312
▁ᏗᏑᏫᏍᎩ	-11.6312
▁ᎡᏥᏯᎡᏍᏗ	-11.6312
▁ᎤᏓᏅᏘᏌᏅ	-11.6312
▁ᏥᏯᎵᎪᏁᎯ	-11.6312
ᏓᏐᎴ	-11.6313
st	-11.6313
▁ᎠᎩᏁᎢᏍᏗᏱ	-11.6313
▁ᎠᏥᏌᎳᏓᏅ	-11.6313
▁ᏍᎩᏂᏌᏅᎭ	-11.6313
▁ᏍᎩᏩᎯ	-11.6313
▁ᏦᏥᎦᏔᎭ	-11.6313
▁ᎢᏨᎥᏏ	-11.6313
▁ᎢᏦᎯᏳᏅ	-11.6313
▁ᏗᏋᏅ	-11.6313
ᏡᎦ	-11.6313
▁ᎤᏰᏥᏍᎩ	-11.6313
▁ᏗᏣᏚᏙ	-11.6313
▁ᎡᏦᎢᏳᏗᏱ	-11.6313
▁ᎬᏩᏂᏴᎮᎢ	-11.6313
▁ᎠᏯᏖᏂ	-11.6313
▁ᎨᏥᏁᎢᏍᏗᏍᎬ	-11.6313
▁ᏚᏂᎵᏦᏛ	-11.6313
▁ᎤᏂᏴᏔᏂᎯᏍᏗᏱ	-11.6313
ᏯᏓᏅᏏ	-11.6313
▁ᏥᎦᏁᎭ	-11.6313
▁ᏥᏰᎸᎥ	-11.6313
▁ᏗᏂᏃᎩᏍᎩ	-11.6313
▁ᏚᏃᎸᏎᎢ	-11.6313
ᏄᎵᏍᏓᏁᎴ	-11.6313
▁ᎢᏨᎪᏩᏛᏗᏱ	-11.6313
▁ᎭᎴᎲᎦ	-11.6313
▁ᏱᏥᏩᏘᎭ	-11.6313
▁ᏥᏚᏙᎠ	-11.6313
▁ᏫᎯᎶᎯ	-11.6313
▁ᎤᎾᏓᏅᏔᏩᏕ	-11.6313
▁ᎢᏨᎷᏤᏗᏱ	-11.6314
▁ᏂᎪᎵᎬᎾ	-11.6314
▁ᏚᏃᎯᏳ	-11.6314
▁ᏕᏨᏗᏍᎨᏍᏗ	-11.6314
▁ᎤᏓᎵᏁᎯᏕ	-11.6314
▁ᏕᏥᎸᏉᏕᏍᏗ	-11.6314
▁ᎰᎯᏳᎲᎦ	-11.6314
▁ᏕᎨᏥᎵᎥᏂ	-11.6314
▁ᎠᏆᏙᎴᎰᏒ	-11.6314
▁ᎤᏬᎯᏳᎯᏍᏛ	-11.6314
▁ᎠᎦᎸᏥ	-11.6314
▁ᎥᎩᏍᏕᎸᏗᏱ	-11.6314
ᏰᏫᏒ	-11.6314
▁ᏯᏲᎱᎯ	-11.6314
▁ᏱᎦᏕᎣᏍᎦ	-11.6314
ᏩᎵ	-11.6314
▁ᎤᏓᏅᏓᏛᎩ	-11.6314
▁ᏣᏍᏉᏂᎪᏗ	-11.6314
▁ᏱᎾᏛᏁᎮ	-11.6314
▁ᎢᏯᏆᎵᏍᏓᏁᏗ	-11.6314
▁ᎤᎵᏍᏆᏙᏅ	-11.6314
▁ᎠᎫᏣ	-11.6314
▁ᎦᏓᏆᏟ	-11.6314
ᏠᏱᎸᎩ	-11.6315
ᎪᎲᏍᏔᏂ	-11.6315
▁ᎦᎶᏐᏅ	-11.6315
▁ᏚᏰᎵᏒ	-11.6315
▁ᎤᏂᏲᏍᏙᏗᏱ	-11.6315
▁ᎠᎾᎵᏍᏓᏴᎲᏍᎩ	-11.6315
▁ᎯᏲᏍᏗᏍᎩ	-11.6315
▁ᎤᏍᏆᎸᎯᏗᏒᎩ	-11.6315
▁ᎠᎩᎸᏗᏍᎩ	-11.6315
▁ᎠᎩᎾᏄᎪᏫᏎᎸᎩ	-11.6315
▁ᎣᏣᎢᏒ	-11.6315
▁ᏧᏂᎦᏯᎷᏗ	-11.6315
▁ᎠᎾᏓᏁᏟᏴᏏᏒ	-11.6315
▁ᏓᏆᎴᎸ	-11.6315
▁ᎤᎾᏓᏙᎵᏍᏙᏗᏱ	-11.6315
▁ᏩᏲᎯ	-11.6315
▁ᎨᎪᏢᏅᎯ	-11.6315
▁ᎭᏓᏙᎵᏍᏗᏍᎬ	-11.6315
▁ᎬᏩᏍᏚᎢᏍᏗ	-11.6315
▁ᏧᏩᎿ	-11.6315
ᏥᏰᎸᏂ	-11.6315
▁ᎢᏥᎷᏤᏗ	-11.6316
▁ᏣᏓᏅᏖᏗᏱ	-11.6316
▁ᎤᏓᏴᏒᎩ	-11.6316
▁ᏭᏕᎵᎨ	-11.6316
ᎱᏩ	-11.6316
▁ᏧᏓᏂᎸᎢᏍᏗᏳ	-11.6316
▁ᏥᎦᏘᏏᏗᏢ	-11.6316
▁ᏥᎦᏡᎦ	-11.6316
▁ᎤᎧᏲᏓ	-11.6316
▁ᏂᎬᏩᏍᏛ	-11.6316
▁ᎤᎱᏍᏕᏎᎴ	-11.6316
▁ᎤᎵᏍᎫᏮ	-11.6316
▁ᎤᎵᏍᏛᏧᏅ	-11.6316
▁ᎤᏯᏍᏚᏎᎢ	-11.6316
▁ᎤᎵᏬᎢᏍᏗ	-11.6316
▁ᏚᎾᎵᏂᎬᎬ	-11.6316
▁ᏫᏄᏩᏁᎴ	-11.6316
▁ᏳᏩᏛᎮᎢ	-11.6316
▁ᎨᏥᏛᎦ	-11.6316
▁ᏣᏴᏍᏗ	-11.6316
ᏑᏩ	-11.6316
▁ᎠᎩᏁᎫ	-11.6316
▁ᎠᏆᏎᎵᏔᏅ	-11.6316
▁ᎢᏣᏓᏅᏓᏗᏍᏗᏱ	-11.6316
▁ᏅᏛᏁᎵ	-11.6316
▁ᎠᎵᏍᏓᏴᎲᏍᎩ	-11.6316
▁ᎤᏅᎦᎳᎲ	-11.6316
▁ᏧᏂᏲᎱᎯᏍᏗ	-11.6316
▁ᎢᏣᏗᏔᏍᏗᏱ	-11.6316
▁ᎤᎿᏬᎡ	-11.6316
▁ᏥᏁᏣᏛᏁ	-11.6316
▁ᎾᏆᎵᏍᏔᏁᎸ	-11.6316
▁ᎠᎩᏁᎢᏍᏔᏅ	-11.6317
▁ᎤᏟᎶᎥᎩ	-11.6317
▁ᎪᎵᎦᏓ	-11.6317
▁ᏥᏂᎬᏁᎭ	-11.6317
▁ᎡᎩᏩ	-11.6317
▁ᏄᏛᏁᎵᏙᎸ	-11.6317
▁ᏥᎦᏘᏯ	-11.6317
▁ᎠᎾᎵᎲᎢ	-11.6317
▁ᏧᏟᏴ	-11.6317
▁ᎠᎶᎻ	-11.6317
▁ᎢᏣᎴᏂᏓᏍᏗᏱ	-11.6317
▁ᏗᎦᏁᎶ	-11.6317
▁ᏙᏛᎠᎴ	-11.6317
▁ᏭᏗᏅᏎ	-11.6317
ᏂᎶᏌ	-11.6317
▁ᏚᏄᎪᏫᏎ	-11.6317
▁ᏓᏍᏕᎵᏍᎬᎩ	-11.6318
▁ᎢᏤᏙᎮᏍᏗ	-11.6318
▁ᎣᎦᏅᏅᎩ	-11.6318
▁ᎯᏃᎮᏍᎩ	-11.6318
▁ᎹᏌ	-11.6318
▁ᎤᏰᏣ	-11.6318
▁ᏄᏛᏁᎳ	-11.6318
▁ᏤᏣᏛᏅᎩ	-11.6318
▁ᎤᎾᏓᏄᎸᏗ	-11.6318
ᏥᏲᎤᎯ	-11.6318
ᏥᏍᎦᎢᎭ	-11.6318
▁ᏳᏪᎵᏎ	-11.6318
ᏯᏠᎢᏍᏓᏁᎵ	-11.6318
▁ᎤᎭᏄᏮ	-11.6318
ᏋᎨᏫ	-11.6319
▁ᏧᎭᎾᏬ	-11.6319
▁ᎤᏂᎷᎯᏍᏗ	-11.6319
ᏂᎦᏛᏁᎰᎢ	-11.6319
▁ᏧᎾᏓᎵ	-11.6319
ᏴᎲ	-11.6319
▁ᎥᏘᏍᎩ	-11.6319
ᎤᏰᎸᏗ	-11.6319
ᏅᏮᎦ	-11.6319
▁ᎢᏳᎾᏕᏘᏴᏛ	-11.6319
▁ᏧᏪᏲᎲᏍᎩ	-11.6319
▁ᎠᏆᏦ	-11.6319
▁ᎢᎬᏩᏂᎩᏍᏔᏁ	-11.6319
▁ᎤᏗᏩᏒᎩ	-11.6319
▁ᎦᏃᏙᏗ	-11.6319
▁ᎠᏯᎣᎢ	-11.6319
ᏍᏚᎢᏏ	-11.6319
▁ᏓᎪᏩᏘᏍᎬ	-11.632
▁ᏚᎭᏁᎦᎸ	-11.632
▁ᎠᏓᎦᏘᏕᎯ	-11.632
▁ᎠᏆᏢᏈᏍᏗᏱ	-11.632
▁ᏧᎬᏩᏟ	-11.632
▁ᏗᏓᏘᏍᏗ	-11.632
▁ᎠᏛᏁᎮᏍᏗ	-11.632
ᏧᎧᎸᏨ	-11.632
▁ᏗᎾᏟ	-11.632
▁ᏱᏦᎯᏳᎲᎦ	-11.632
▁ᏫᏚᎧᎾᏅ	-11.632
ᎩᏩᏛᎲᎩ	-11.632
ᎴᎳᏛᏅ	-11.632
▁ᎢᏥᎦᏔᎯᏳ	-11.632
▁ᏚᏍᏚᎢᏎ	-11.632
▁ᎢᏯᎩᏪᏍᏗᏱ	-11.632
▁ᎣᎾᏫᏱ	-11.632
▁ᎠᏆᏍᎦᏱ	-11.632
▁ᎠᏓᏬᏍᏗᏱ	-11.632
▁ᎤᏂᎪᎵᏰᏗᏱ	-11.632
▁ᏣᏱᎵᏙᎯ	-11.6321
▁ᎠᏥᎸᎨᎳᏍᏙᏗ	-11.6321
▁ᎤᏍᏆᎸᎮ	-11.6321
ᏲᏅᎵ	-11.6321
▁ᏧᏪᏙᎵᏍᏗᏱ	-11.6321
▁ᎢᎩᏍᏕᎵᎭ	-11.6321
▁ᏫᏗᎦᏘ	-11.6321
▁ᎠᎵᏍᎩᏍᏗ	-11.6321
▁ᎦᏓᏫᏔᏅ	-11.6321
ᏕᏙᎲᎩ	-11.6321
▁ᎢᏥᏙᎾ	-11.6322
▁ᎤᎾᏓᏅᏍᏗ	-11.6322
▁ᏫᎾᏛᎦ	-11.6322
▁ᎭᏅᏓᏓ	-11.6322
▁ᏗᎦᏘᏍᏗ	-11.6322
▁ᎠᏂᎪᏩᏘᏍᎩ	-11.6322
ᏬᏍᎪᎢ	-11.6322
ᏣᏘᏃᎸᎭ	-11.6322
▁ᏧᏴᎴ	-11.6322
▁ᎤᎸᏁ	-11.6322
ᎦᎧᎲᏍᎨᏍᏗ	-11.6322
▁ᏥᏚᎦᏒᏍᏙ	-11.6322
▁ᏱᏄᎾᏍᏗ	-11.6322
▁ᏔᎷ	-11.6323
▁ᏭᎷᎯᏍᏗ	-11.6323
▁ᎻᏌ	-11.6323
ᏏᏏᏍᎩ	-11.6323
▁ᏧᏌᎨ	-11.6323
ᎵᏯᎻ	-11.6323
▁ᎢᏣᏙᎴᎰᎯᏍᏗᏱ	-11.6323
▁ᏫᏥᏤᎢ	-11.6323
▁ᏭᎳᏛ	-11.6323
▁ᎢᏣᏓᏅᏙ	-11.6323
ᏁᏢᏙᏗᏱ	-11.6323
▁ᎦᏐᏂ	-11.6323
▁ᏱᏚᎾᏓ	-11.6323
▁ᎯᎦᏔᎮᏍᏗ	-11.6323
▁ᏥᏕᏙᎭ	-11.6323
▁ᎾᏑᎵᎪᎬᎾ	-11.6324
▁ᏧᏄᎪᏤᎢ	-11.6324
▁ᎬᏁᏤᎲᎢ	-11.6324
▁ᎢᏨᏁᎢᏍᏗᏍᎬᎢ	-11.6324
▁ᏚᏃᏪᎸᎢ	-11.6324
▁ᏧᎾᏄᎪᏤᎢ	-11.6324
▁ᏧᏁᏢᏔᏅᏒᎢ	-11.6324
▁ᎠᏂᏍᎦᏰᎬᏍᏔ	-11.6324
▁ᎡᏤᏲᏅᎢ	-11.6324
▁ᎤᎾᏓᏁᏟᏴᏒᏒᎢ	-11.6324
▁ᏓᎪᏄᎴᎢ	-11.6324
▁ᏚᏪᏣᎦᎸᎮᎢ	-11.6324
▁ᎤᏓᏅᏔᏕᎢ	-11.6324
▁ᏄᏍᏗᏕᎬᎢ	-11.6324
▁ᎢᏣᏛᎩᏍᎬᎢ	-11.6324
▁ᎠᎦᏬᎡᎢ	-11.6324
▁ᎤᎾᏁᏢᏔᏅᏒᎢ	-11.6324
▁ᏱᏥᏩᏘᏍᎪᎢ	-11.6324
▁ᎧᏄᎦ	-11.6324
ᏓᏨᎾᏄᎪᏫᏎᎵ	-11.6324
▁ᎠᎩᏃᎮᏍᎬᎢ	-11.6324
ᏍᏓᏩᏕᎪᎢ	-11.6325
▁ᏧᏂᎶᏒ	-11.6325
▁ᏕᎬᏩᏘᏃᎮᎴᎢ	-11.6325
▁ᎨᏣᏓᏑᏴ	-11.6325
▁ᏂᎦᏪᎠ	-11.6325
▁ᎧᏁᏉᏥᏎ	-11.6325
ᏕᏁᎵ	-11.6325
▁ᏕᎭᏕᏲᎲᏍᎬᎢ	-11.6325
▁ᏝᏬᏚ	-11.6325
▁ᏓᎾᎵᏍᏓᏴᎲᏍᎨᎢ	-11.6325
▁ᎤᎬᎥᏍᎬ	-11.6325
▁ᎬᏃᏓ	-11.6325
▁ᏄᏪᎵᏍ	-11.6326
▁ᎤᏴᏨ	-11.6326
▁ᏗᏣᏏᎳᏛᏗ	-11.6326
▁ᏕᎯᏬᏁᏗᏍᎬ	-11.6326
▁ᏧᎦᏙᏍᏙᏗ	-11.6326
▁ᏫᎤᏂᎶᏎᎢ	-11.6326
▁ᎤᏂᏁᎢᏍᏗ	-11.6326
▁ᎹᎳ	-11.6326
▁ᏚᏄᏬᎡᎢ	-11.6326
▁ᎯᎶᏁᎥᎭ	-11.6326
▁ᏗᏣᎵᏂᎪᎯᏍᏙᏗᏱ	-11.6326
▁ᏫᏂᎬᎦ	-11.6326
▁ᎬᏩᎨᏳᎯ	-11.6326
ᏋᏕᏨ	-11.6326
ᏓᎵᏅᏟ	-11.6326
▁ᏄᏟᏂᎬᎬ	-11.6326
▁ᏍᎩᏁᏥ	-11.6326
▁ᏭᏅᎪᏤ	-11.6327
ᏖᏍᎬᎢ	-11.6327
▁ᎤᏌᎨ	-11.6327
▁ᏩᏥᎳᎨ	-11.6327
▁ᎠᎬᏔᏅᏛ	-11.6327
▁ᎤᏚᎢᏍᏓᏁᎸ	-11.6327
▁ᏚᏂᎵᏬᏤᎢ	-11.6327
▁ᏅᏓᎦᏛᏁᎵ	-11.6327
▁ᏅᏛᎾᎵᏍᏔᏂ	-11.6327
▁ᏚᏂᏴᎲ	-11.6327
▁ᏨᏗᎦᏚᎭ	-11.6327
▁ᏭᏙᎯᏳᎲ	-11.6327
▁ᎤᎾᏁᎳᏗᏍᏗᏱ	-11.6327
▁ᏍᎩᏍᏕᎳ	-11.6327
▁ᎠᎻᎳᎻ	-11.6327
▁ᏓᎪᏪᎳᏂ	-11.6327
▁ᏧᏂᏣᏔ	-11.6327
ᎧᎲᏍᎩ	-11.6327
▁ᎦᎳᎨᏰ	-11.6328
▁ᏚᏅᏩᏁᎢ	-11.6328
▁ᏓᏂᎧᎿᏩᏗ	-11.6328
▁ᎭᎵᏘ	-11.6328
▁ᏣᏫᏎᎢ	-11.6328
▁ᏓᏰᏥᏁᎵ	-11.6328
▁ᏗᏩᎾᎨ	-11.6328
▁ᎤᏩᏓᎴ	-11.6328
▁ᏃᎦᏛᏁᎸ	-11.6328
▁ᎢᎦᎵᏍᏓᏁᏗ	-11.6328
▁ᎤᏗᎦᎵᏍᏙᏗᏍᎨᏍᏗ	-11.6328
▁ᎤᏂᏛᏗᏍᎩ	-11.6328
▁ᎠᏓᏏᏎ	-11.6328
▁ᎢᏳᏩᏁᏗ	-11.6328
▁ᎤᏰᎾᎥ	-11.6328
▁ᎠᏆᏓᏅᏖᏙᏗ	-11.6329
▁ᎤᏓᏙᎵᏣᏘ	-11.6329
▁ᎦᎷᎨᏍᏗ	-11.6329
▁ᏚᏅᏴ	-11.6329
ᎪᏪᎸᎾ	-11.6329
▁ᏱᎦᏗᎭ	-11.6329
▁ᎢᎳᏍᏓ	-11.6329
▁ᏱᏥᏁᎦ	-11.6329
▁ᏧᏂᎷᏤᎸ	-11.6329
▁ᎨᏥᏃᎮᏍᎬᎢ	-11.633
▁ᏳᎵᏬᏨ	-11.633
▁ᎦᎬᏙᏗ	-11.633
▁ᏂᏯᏛᏂᏏ	-11.633
▁ᏱᏂᏙ	-11.633
▁ᎤᎦᏔᏔᏁᎢ	-11.633
▁ᎤᎾᎳᏍᏓᎡᏗ	-11.633
▁ᎢᏳᏏᏗ	-11.633
▁ᏱᎾᏰᏍᎨᏍᏗ	-11.6331
▁ᎦᎵᏦᏩᏛ	-11.6331
▁ᏱᏅᏗᎦᎵᏍᏙᏗᏍᎨᏍᏗ	-11.6331
▁ᏅᎩᏗᏂᏅᏌᏗ	-11.6331
ᏮᏕᏨ	-11.6331
▁ᎣᎦᎵᏍᏓᏴᏗᏱ	-11.6331
▁ᎢᏳᏅᏁᎯ	-11.6331
▁ᎤᎪᎵᏰᏗᏱ	-11.6331
▁ᎤᏗᏍᎦᎶᏗ	-11.6331
▁ᎠᏆᏤᎵᎪᎯ	-11.6331
▁ᏗᎨᏥᏰᎯ	-11.6331
ᎾᏍᏆᎶᏍ	-11.6331
ᎵᎲᏲᎵ	-11.6332
▁ᎤᏗᎴᎬ	-11.6332
▁ᏂᏚᏂᎨᏳᏒ	-11.6332
▁ᎠᏂᎪᏩᏗᏍᎬ	-11.6332
▁ᎠᏲᏍᏗᏍᎪ	-11.6332
ᏚᏁᎢ	-11.6332
▁ᎡᏤᎵᏎ	-11.6332
▁ᎤᏂᎿᎥᎢ	-11.6332
▁ᎤᏰᎸᏐᎢ	-11.6332
▁ᎤᏂᎧᎭᏲ	-11.6332
ᏍᏚᎢᎡᎴ	-11.6332
▁ᎠᏆᏅᏛ	-11.6333
ᏍᏆᏃᏴᎪ	-11.6333
▁ᏓᎫᏩ	-11.6333
▁ᏗᎦᏅᎬ	-11.6333
▁ᏓᏕᏲ	-11.6333
▁ᎤᏍᏗᎩᎨ	-11.6333
▁ᏯᏃᎯᏳᎲ	-11.6333
▁ᎬᏩᏂᏍᎦᎩ	-11.6333
ᏲᎯᏍᏗᏱ	-11.6333
▁ᏂᏗᎬ	-11.6333
▁ᎠᏴᏓᏆᎶᏍᎬ	-11.6333
▁ᎢᏗᎹ	-11.6333
▁ᎠᎵᏰᎢᎶᎦ	-11.6333
ᏓᏁᏏ	-11.6333
▁ᎠᎭᎾᏬ	-11.6333
▁ᎢᏣᎵᏂᎬᏁ	-11.6334
▁ᎬᏩᏕᎰᎯᏍ	-11.6334
▁ᎣᏥᏃᎮᎭ	-11.6334
▁ᎠᏣᎳᎩ	-11.6334
ᏄᏬᎥᎭ	-11.6334
▁ᎡᎵᎻ	-11.6334
▁ᏚᏂᏂᏴᎲ	-11.6334
▁ᎨᏥᏙᎵᏍᏗ	-11.6334
ᏛᏅᎢᏍᏓᏁᏗᏱ	-11.6334
▁ᏥᏚᎾᏚ	-11.6334
▁ᎠᏯᏛᎥ	-11.6334
▁ᎢᎶᏂ	-11.6334
▁ᏙᏛᏁᎵ	-11.6335
ᏴᎳᏏ	-11.6335
▁ᏙᏓᏨ	-11.6335
▁ᎠᏒᏛᏓ	-11.6335
▁ᎠᏂᏃᎲᏍᎨ	-11.6335
▁ᏫᏚᏩ	-11.6335
▁ᎠᎾᎵᏥᏙᎲᏍᎦ	-11.6335
▁ᏓᏐᏴᎢ	-11.6335
▁ᎠᏃᏎᎮ	-11.6335
▁ᎡᏥᏲᎭ	-11.6335
▁ᎣᎩᎪᎲᎯ	-11.6335
▁ᎤᎧᎭᏲ	-11.6335
▁ᎤᏬᎯᏤ	-11.6335
▁ᏗᏣᏘᏄᎦ	-11.6335
ᏗᎦᏔᏫᎢᏍᏗᏱ	-11.6335
▁ᎤᏲᎱᏏᏕᎾ	-11.6335
▁ᎤᏬᏍᎩᎵ	-11.6335
▁ᏗᏍᏆᏂᎪᏗᏍᎩ	-11.6336
▁ᎦᏃᏟ	-11.6336
▁ᏚᏯᏙᎮᎴ	-11.6336
ᎦᏂᏍᎬ	-11.6336
ᏱᎵᏕᎲᎢ	-11.6336
ᎠᏗᏒ	-11.6336
▁ᎤᎵᏛᏔᏁᎢ	-11.6336
▁ᏧᏌᎴᏅ	-11.6336
ᏅᎬᏛ	-11.6336
ᏛᎦᏅᎢ	-11.6336
▁ᏫᎦᎶᏍᎬ	-11.6336
▁ᎠᏆᎵᎮᎵᏍᏗᏱ	-11.6337
▁ᎤᏍᏚᏅ	-11.6337
▁ᎤᏣᎢᏒ	-11.6337
▁ᎠᏍᏆᎸᎲᎭ	-11.6337
▁ᏣᏂᏃᎮᎭ	-11.6337
▁ᎠᏆᎵᎮᎵᏨᎩ	-11.6337
▁ᏚᎪᏓᏁᎯ	-11.6337
ᏅᏨᎾ	-11.6337
ᏐᏲ	-11.6338
▁ᎤᎵᏦᏔᏁᎢ	-11.6338
▁ᎨᎪᏣᎴᏛ	-11.6338
▁ᏖᏒᎭ	-11.6338
▁ᎤᏩᏂᎴᎢ	-11.6339
ᎦᏓᎴᏅᎯ	-11.6339
▁ᎠᏲᏍᎩ	-11.6339
▁ᏚᏙᎡᏍᏗ	-11.6339
ᏅᎥᏏ	-11.6339
▁ᏚᎾᏓᏡᎬ	-11.6339
▁ᏱᎨᏩ	-11.6339
▁ᏱᏣᏚᎵᎭ	-11.6339
▁ᏚᏯᏅᎮᎢ	-11.6339
▁ᏣᏁᏤᏗᏱ	-11.6339
▁ᏓᏃᏎᎰ	-11.6339
▁ᏫᏥᎶᎢ	-11.634
▁ᏳᏰᎸᏅ	-11.634
▁ᏄᎾᎵᏍᏔᏁᎲ	-11.634
▁ᎤᎸᏖᎴ	-11.634
▁ᏍᎩᏁᎮᏍᏗ	-11.634
▁ᏳᏇᏗ	-11.634
ᎧᏔᏁ	-11.634
ᏂᏜ	-11.634
▁ᏑᏥᎶ	-11.634
▁ᎤᎸᏓᎸᎥᏍᎩ	-11.634
▁ᎦᎧᎮ	-11.6341
▁ᎤᎾᏤᎸᎯ	-11.6341
ᎵᏍᏓᏁᎵᏒ	-11.6341
▁ᎤᏒᎦᎸᎩ	-11.6341
ᎶᎩᎯ	-11.6341
▁ᎠᏂᏔᏲᎯᎮᏍᏗ	-11.6341
▁ᏦᎩᎾᏫᏱ	-11.6341
▁ᎠᏓᏍᏕᎵᏍᎩ	-11.6342
▁ᏕᎨᏥᏂ	-11.6342
▁ᏣᏛᏁᎸ	-11.6342
ᏰᏗᎭ	-11.6342
ᏯᏛᎩᎭ	-11.6342
ᎵᏂᎪᎯᏍᏙᏗᏱ	-11.6342
▁ᏓᎩᎧᎭ	-11.6342
ᏅᏓᎨᏨᏁᎵ	-11.6342
▁ᏗᏁ	-11.6343
▁ᏧᎵᏠᏯᏍ	-11.6343
▁ᎬᏁᏤᎸᎢ	-11.6343
▁ᏗᎪᏍᏓᏯ	-11.6343
▁ᎡᎳᎻ	-11.6343
▁ᎠᏯᏨᏗ	-11.6343
▁ᎢᏣᏓᏁᎮᏍᏗ	-11.6343
▁ᎤᎾᎵᏍᏓᏴᏅᎩ	-11.6343
▁ᏗᎦᏥᏯ	-11.6344
▁ᎪᎶ	-11.6344
▁ᏱᎾᎩ	-11.6344
ᏛᏂᎸᏉᏔᏂ	-11.6344
▁ᏱᏅᏗᎦᎵᏍᏙᏗᏍᎨ	-11.6344
▁ᎤᏂᏴᎲ	-11.6345
ᏓᏕᎵᏎ	-11.6345
ᏏᏔᏗᏍᏗᏱ	-11.6345
▁ᎢᏨᏃᏁᎸᎯ	-11.6345
▁ᏙᏨᏗᏍ	-11.6345
▁ᎤᎵᏍᎪᎸᏓᏁᎸᎩ	-11.6345
▁ᏥᎨᎲ	-11.6345
▁ᏧᏂᏒᏍᏗᏱ	-11.6345
▁ᎤᎾᏎᎸ	-11.6346
▁ᏄᏦ	-11.6346
▁ᎤᏍᏚᏞ	-11.6346
▁ᎤᏂᏍᎦᎢᏍᏗ	-11.6346
▁ᎬᏩᏡᏗᏍᎬᎢ	-11.6346
ᏣᎦᏔᎲᏛ	-11.6346
▁ᎣᏥᏁᎦ	-11.6346
▁ᏧᏓᏂᎸᎢᏍᏗ	-11.6347
▁ᎦᏬᏂᏍᏗ	-11.6347
▁ᏄᏃᎯ	-11.6347
▁ᏄᏓᏛᏁᎴ	-11.6347
ᏆᎧᎿᏅ	-11.6347
▁ᎤᏴᎴᎢ	-11.6347
ᏟᏂᎬᏁᎰ	-11.6347
▁ᎠᏆᏕᏗ	-11.6348
ᏗᎨᎳᏍᏙᏗ	-11.6348
ᏓᏙᎵᏣᏘᏳ	-11.6348
ᎦᎪᎯᏳᏗ	-11.6348
▁ᎤᎾᏓᏅᏖᏛ	-11.6348
▁ᏕᏥᎨᏳᏒ	-11.6348
▁ᏣᏚᎵ	-11.6349
▁ᎾᏂᏪᎭ	-11.6349
ᎥᏍᎪᎢ	-11.6349
ᏕᎰᏏ	-11.6349
▁ᎠᏅᏬᎳᏕᏍ	-11.6349
▁ᎦᏰᏣ	-11.6349
▁ᎡᎩᏍᏕᎸᏗᏱ	-11.6349
▁ᏍᏔᎵ	-11.635
▁ᏚᎾᏙ	-11.635
▁ᎤᎾᏚᎸᏅᏗ	-11.635
▁ᎡᏥᏯᏅᎲ	-11.635
ᏙᏓᏆᏛ	-11.635
▁ᎻᎵ	-11.635
▁ᎦᏢᏗ	-11.635
▁ᏣᏣᏪᏐᎸᏍᏙᏗ	-11.6351
▁ᎤᏁᎷᏅ	-11.6351
▁ᏄᎵᏍᏓᏁᎲ	-11.6351
ᏕᎶᏆᎡ	-11.6351
▁ᎤᏍᏆᏗᏍᏗᏱ	-11.6352
▁ᏓᏁᎶᏛᎩ	-11.6352
▁ᏳᏬ	-11.6352
▁ᎤᏂᏂᎩᏛ	-11.6352
▁ᎩᎦᎨᎠᏗᏔᏍᏗ	-11.6353
ᎵᏍᏓᏴᏁᎢ	-11.6353
▁ᎤᎦᏌᏯᏍᏗᏕᎩ	-11.6353
▁ᏗᎤᎷᏨ	-11.6353
▁ᎠᏓᏁᎳ	-11.6353
▁ᎤᏄᎸᏅ	-11.6353
▁ᎨᏥᏛᏙᏗᏱ	-11.6353
▁ᎤᎵᏏᎲᏎ	-11.6353
ᏨᏌ	-11.6353
▁ᏣᎷᏨ	-11.6353
ᎨᎦᏛᏅᎢᏍᏓᏁᎸ	-11.6354
▁ᎤᏩᎾᏬᏒ	-11.6354
▁ᏕᎦᏯᎸ	-11.6355
▁ᎣᎩᏍᎦᏅᏨᎢ	-11.6355
▁ᏥᏓᎩᏂᏴ	-11.6355
ᏓᏁᎲᎾ	-11.6355
▁ᎠᎵᏌᎳᏗᏍᎬ	-11.6355
▁ᏓᏂᏐ	-11.6355
▁ᎤᏓᏅᏖᏗᏍᎨᎢ	-11.6355
▁ᏗᏗᏙᏗ	-11.6355
▁ᎪᎯᏍᏗᏍᎩ	-11.6355
▁ᎢᏳᏂᏁᎫᏥ	-11.6355
▁ᎤᏅᎪᏨ	-11.6356
▁ᎤᎵᎦᎵᏴ	-11.6356
▁ᎤᎾᏨᏏ	-11.6356
▁ᎤᏂᏲᎸᎯ	-11.6356
▁ᏚᏁᏒ	-11.6356
▁ᎠᏂᎶᏍᎬ	-11.6356
▁ᎤᎩᏓᏟ	-11.6357
▁ᎠᎾᏙᎴᎰ	-11.6357
▁ᎪᏪᎳᏅ	-11.6357
▁ᏄᏓᏪᏎᎴ	-11.6357
▁ᏕᎦᎵ	-11.6357
ᎵᏍᏙᏗᏱ	-11.6357
▁ᏂᏣᎵᏍᏓᏁᎲᎢ	-11.6357
▁ᎤᎾᏓᏴᎳᏛ	-11.6357
ᏱᎵᏓᏍᏗᏱ	-11.6357
▁ᎤᏬᏁᏔᏅᎢ	-11.6357
▁ᏄᎾᏛᎿᏕᎬᎢ	-11.6357
▁ᏕᎦᎸᏫᏍᏓᏁᎸᎢ	-11.6357
▁ᏥᏮᎦᏙᎢ	-11.6357
ᏓᏅᏫᏍᎩ	-11.6357
▁ᎠᏩᏘᏍᎪᎢ	-11.6358
▁ᎤᏁᎳᏫᏎᎲᎢ	-11.6358
▁ᏨᏓᎸᎢ	-11.6358
▁ᏭᏓᎾᏫᏛᎮ	-11.6358
▁ᏗᎪᏢᏙᏗ	-11.6358
▁ᎤᏗᏔᎮᎢ	-11.6358
▁ᎠᏌᏍᏛ	-11.6358
▁ᎠᏴᏈᏛ	-11.6359
▁ᏭᏩᎦᏘᏗᏒᎢ	-11.6359
▁ᏗᏣᎸᏫᏍᏓᏁᏗᏱ	-11.6359
ᎷᎨᏍᏗ	-11.6359
▁ᏧᎶᎯᏍᏗ	-11.636
▁ᏂᎨᏐᎢ	-11.636
▁ᎢᏍᏛᏯ	-11.636
▁ᎤᏞᎩ	-11.6361
▁ᏥᏄᏍᏙ	-11.6362
▁ᎤᏩᏛᏛ	-11.6362
▁ᎣᏥᏬᏂ	-11.6362
▁ᏇᏓᏁᎳᎻᏱ	-11.6362
▁ᏧᏂᎧᎿᏩᏛᏍᏗᏱ	-11.6362
▁ᎠᏓᎴᏂᏍᎩ	-11.6362
▁ᎦᏥᎪᎥ	-11.6362
▁ᎢᏣᎢᏒᎢ	-11.6363
ᏙᎯᏳᎲᎦ	-11.6363
▁ᎤᏲᎰᏒ	-11.6363
▁ᎠᏓᎨᏗᏱ	-11.6363
▁ᎢᏣᎵᎪᎯ	-11.6363
▁ᎠᏥᏍᏙᏗ	-11.6363
▁ᎠᎩᏰᎸᏗᏱ	-11.6364
▁ᏂᏣᎵᏍᏔᏅᎩ	-11.6364
▁ᏚᏂᎳᏫᏨᎩ	-11.6364
▁ᎤᏁᎵᏒᎩ	-11.6364
▁ᎧᏁᎦ	-11.6365
▁ᎤᏓᏅᏖᏗᏍᎬ	-11.6365
▁ᏥᏄᏪᏒᎩ	-11.6365
ᏏᏕᏅ	-11.6366
▁ᎤᏓᎢᏅ	-11.6366
▁ᏱᏂᏣᎵᏍᏓᏁ	-11.6366
▁ᏓᎩᎪᎲᎩ	-11.6366
ᏌᏛᏅᎩ	-11.6366
▁ᏤᏆᏂ	-11.6366
▁ᎤᎾᎵᏖᎸᏅᎩ	-11.6367
▁ᎴᏈ	-11.6367
▁ᎠᎾᏗᎭ	-11.6367
ᎤᏂᏃᏕᏅ	-11.6367
▁ᏚᏬᏁᏔᏁᎢ	-11.6367
▁ᏓᏍᏔᏅᏅ	-11.6367
▁ᎬᏩᏂᎪᏩᏛᏗ	-11.6368
▁ᏴᏛᎾ	-11.6368
▁ᎠᎦᎸᎢᏛ	-11.6368
▁ᏥᏍᏓᏱ	-11.6368
ᏅᏨᎩ	-11.6368
ᎧᎪ	-11.6369
▁ᎢᏣᏓᎳ	-11.6369
▁ᏤᏅᏍᏗᏱ	-11.6369
▁ᎬᏩᎾᏝᎢ	-11.6369
▁ᏳᏁᏐ	-11.637
▁ᎬᏬᏎᎸᎩ	-11.637
▁ᏫᏚᎧᎿᏅ	-11.637
▁ᏭᏍᏆ	-11.637
▁ᎭᏗᏛ	-11.637
▁ᏕᎩᎸᏫᏍᏓᏁᎸ	-11.6371
▁ᏗᏓᎾᏅ	-11.6371
ᎦᎴᏂᏙᎭ	-11.6371
ᏍᏆᏗᏍᏗᏍᎩ	-11.6372
ᎭᏁᎦᎸ	-11.6372
▁ᏍᎩᏃᎯᏏ	-11.6372
▁ᏚᏰᎵᎯᏍᏔᏅ	-11.6372
▁ᏍᎩᏯᏅᏛ	-11.6372
ᏍᏙᏗᏍᎨ	-11.6372
▁ᏕᎫᎪᏗᏍᎬ	-11.6373
ᏂᏩᏛᎮ	-11.6373
▁ᎤᏍᏚᎩᏎ	-11.6373
ᏰᎢᎸᏍᏗᏱ	-11.6373
▁ᏫᏚᎾᎧᎿᏅ	-11.6373
▁ᏫᏚᏠᏎ	-11.6373
▁ᏚᎸᏫᏍᏓᏁᎰᎢ	-11.6373
▁ᎤᎾᏓᏅᎦᎸᏛ	-11.6373
▁ᏅᏂ	-11.6373
▁ᎤᎾᎷᏒ	-11.6374
▁ᏂᏣᏛᏁᎲᎾ	-11.6374
▁ᎨᏥᏰᎸᎢ	-11.6374
▁ᏥᏫᎾ	-11.6375
▁ᎤᏍᎫᏕ	-11.6376
ᏂᏐᏗ	-11.6376
ᏯᏛᏂᏏ	-11.6376
▁ᏕᎨᏥᏰ	-11.6376
ᎪᎲᏍᏔᏅ	-11.6376
▁ᏣᏰᎸᏗ	-11.6377
ᏱᎵᏙᎯ	-11.6377
▁ᎤᏓᏓᏍᎬ	-11.6378
ᏁᏙᎮ	-11.6378
▁ᎡᏥᏍᎦᏅᏤ	-11.6378
▁ᎤᏂᏔᏲᏎᎴ	-11.6378
▁ᎤᏂᏲᎰᎢ	-11.6378
▁ᎤᏂᎪᏁ	-11.6379
▁ᏭᏂᎦᏐᎠ	-11.6379
▁ᏳᏚᎵᏍᎬᎾ	-11.638
▁ᎤᏛᏗᏕᎨ	-11.638
▁ᏱᏙᎨᏗ	-11.638
▁ᎠᎩᏍᏚ	-11.638
▁ᎠᏂᎷᎬ	-11.6381
▁ᏚᏟᎶᏍᏓᏁᎴᎢ	-11.6382
▁ᏗᎪᏪᎳᏅᎯ	-11.6382
▁ᎤᏅᏓᏛ	-11.6382
ᏪᏒᏛ	-11.6382
▁ᏑᎠ	-11.6383
▁ᏱᏮ	-11.6383
▁ᎤᏃᏴᎩ	-11.6384
▁ᎤᎾᎵᏍᎪᎸᏔᏅᎯ	-11.6384
▁ᎤᏂᏃᎴ	-11.6384
ᏒᏗᏱ	-11.6384
▁ᏂᏥᏃᎯ	-11.6384
▁ᏕᏥᎵᎷ	-11.6384
ᎷᎳ	-11.6385
▁ᎡᏣᏙ	-11.6385
ᏫᏂᏴ	-11.6386
▁ᎰᎵᏈ	-11.6386
▁ᎢᎵᎻ	-11.6386
ᏘᎭᏁ	-11.6386
▁ᏗᏓᎨ	-11.6387
▁ᎢᏳᏪᏍᏗᏱ	-11.6387
▁ᎤᎦᏘᏗᏍᏗᏱ	-11.6387
▁ᏩᎩᎶᏒᎩ	-11.6387
▁ᏲᎩᎾ	-11.6387
ᏠᎠᏒᎩ	-11.6388
▁ᎤᎾᏁᎶᏔᏅᎩ	-11.6389
▁ᎠᎩᏰᏨ	-11.6389
▁ᎤᏍᏆᎸᎭ	-11.6389
▁ᎧᏁᏉᎨᎢ	-11.6389
▁ᏕᏚ	-11.639
▁ᎢᏣᏛᏓᏍᏗᏍ	-11.639
▁ᎤᏮᏔᏅᎩ	-11.639
▁ᏧᎦᎿᏁ	-11.639
▁ᏓᏂᏍᎦᎢ	-11.639
▁ᎠᏯᎡᎢ	-11.6391
▁ᏳᏰᎸᎭ	-11.6392
ᏝᏅᎯ	-11.6392
▁ᏕᎨᎶ	-11.6392
▁ᎤᏍᏗᏰᎬ	-11.6392
ᏍᎩᎳᏛ	-11.6392
▁ᎤᏂᏄᎪᎢᏍᏗ	-11.6392
▁ᎠᎾᎢᏎᎢ	-11.6392
▁ᏥᏫᎯ	-11.6393
ᎩᏠᏫᏍ	-11.6393
▁ᏱᏂᎬᎦ	-11.6393
▁ᎪᏙᎯ	-11.6393
▁ᎣᏥᎩᎵᏲᎬ	-11.6393
ᏰᎩ	-11.6393
ᏘᏁᎪᎢ	-11.6394
▁ᎤᏁᎢᏍᏔᏁᎢ	-11.6394
▁ᎤᏍᏆᏂᎪᏔᏅ	-11.6394
▁ᎤᎾᏏᏁ	-11.6394
▁ᎠᎾᏓᏅᏖᎵᏙ	-11.6394
ᏚᎾᏚᏫᏍᏔᏁᎢ	-11.6394
▁ᏒᏍᎦ	-11.6394
▁ᎮᏙᎲ	-11.6395
▁ᎤᎵᏠᏯᏍᏛ	-11.6395
▁ᎢᏣᏓᏁᏟᏴᏏᏒᎢ	-11.6395
▁ᎢᏧᏓ	-11.6395
▁ᎤᏘᏃᎴᎢ	-11.6395
▁ᏥᏄᎵᏍᏔᏁᎢ	-11.6396
▁ᏂᎦᏅᏅ	-11.6396
▁ᎤᏃᏢᏅᎯ	-11.6396
▁ᎤᏪᎲᎢ	-11.6396
▁ᎠᏂᏁᏉᏍ	-11.6396
▁ᎭᎧ	-11.6397
▁ᏥᎦᎷᎪᎢ	-11.6397
ᏛᎿ	-11.6397
▁ᏱᏍᎩᏃᏁᎴ	-11.6397
▁ᎠᏂᏲᎯᎲ	-11.6397
▁ᎢᏣᎨᏳᏅ	-11.6398
▁ᎤᏪᏘᏁᎢ	-11.6398
▁ᏫᎲᎦ	-11.6398
▁ᎤᎾᏖ	-11.6398
ᎶᏒᏍᏙᏗᏱ	-11.6398
▁ᎤᏁᏉᏤᎢ	-11.6398
▁ᎠᏂᎫ	-11.6399
▁ᏕᎯᏁ	-11.6399
▁ᏳᏬᎵᏤ	-11.6399
▁ᏓᏂᏅᎬ	-11.6399
▁ᎤᎾᎵᏍᎪᎸᏔᏅ	-11.64
▁ᎠᏟᏂᎬᏁ	-11.64
▁ᏫᏚᏯ	-11.64
▁ᎾᎾᏛᏁᎮ	-11.6401
▁ᎢᏣᏓᏅᏓᏛ	-11.6402
▁ᏥᏅᏗᎦᎵᏍᏙᏗᏍᎨ	-11.6403
▁ᎠᏐᏢᎢᏍᏗᏍᎬᎢ	-11.6403
▁ᎠᏥᏁᏗᏱ	-11.6403
▁ᎠᏍᎧ	-11.6403
▁ᎤᏁᎸᏔᏁᎢ	-11.6403
▁ᎠᏂᏱᏙ	-11.6404
▁ᏄᏅᏁᎴᎢ	-11.6404
ᏗᎦᎵᏍᏙᏗᎭ	-11.6405
▁ᏱᎦᎷᎩ	-11.6405
▁ᎦᎶᏐᎲᏍ	-11.6406
▁ᎤᏪᎷᎩ	-11.6406
▁ᏤᎪᎢ	-11.6406
▁ᏗᏁᎶᏗ	-11.6407
▁ᎤᎾᏏᏅ	-11.6407
▁ᎤᏅᏕᏨ	-11.6407
ᏯᏅᎮᎢ	-11.6408
▁ᏗᎪᏒ	-11.6408
▁ᏧᏂᏁᏗᏱ	-11.6409
▁ᎠᏍᏆᎵ	-11.6409
ᏂᏙᎸᎯ	-11.6409
▁ᏣᏍᏆᏂᎪᏙᏗᏱ	-11.6409
▁ᎤᏍᏆᎳ	-11.641
▁ᎠᎾᎵᏥᏙᎲᏍᎩ	-11.641
▁ᎤᎦᎾᏬᏍᎬ	-11.6411
▁ᎠᏂᎱ	-11.6411
▁ᎠᎿᎥᎢ	-11.6411
▁ᏥᏂᎦᎵᏍᏗᏍᎪ	-11.6413
ᏥᏅᎦᎸᎡ	-11.6413
▁ᏧᎪᏄᎶ	-11.6413
▁ᏚᏆᎵ	-11.6413
▁ᏕᎪᏢᏒᎩ	-11.6414
▁ᏫᎬᏍᏗ	-11.6414
▁ᏱᎪᎯᏳᎲ	-11.6414
▁ᏄᎾᎵᏍᏓᏁᎲ	-11.6414
ᎦᎷᎩ	-11.6415
▁ᏚᏲᏍᏔᏅ	-11.6415
▁ᏗᏄᎪᏗᏍᎩᏱ	-11.6415
▁ᎾᎬᏁᎸᎭ	-11.6415
▁ᎢᏥᎩᎬ	-11.6416
▁ᏚᏅᏒᎩ	-11.6416
ᏰᎵᏎᏗ	-11.6416
▁ᎤᏲᎱᎯᏎᎸᎯ	-11.6416
▁ᎬᏩᎯᏍᏗᏱ	-11.6416
ᏢᏔᎮ	-11.6417
▁ᎮᎲᎢ	-11.6417
▁ᎤᏂᏲᏍᏔᏁ	-11.6417
ᏗᏔᎲᎭ	-11.6417
▁ᎤᎾᎵᏖᎸᏅ	-11.6418
ᏣᏘᏃᎯᎮᏍᏗ	-11.6418
▁ᎡᏣᏛᎦᏁᎸ	-11.6419
▁ᎯᏴᎭ	-11.6419
▁ᏂᏓᏅᏁᎲ	-11.6419
▁ᏗᎦᏐᎯ	-11.6421
ᏇᏓᏍᏗ	-11.6421
▁ᏱᏅᏩᏍᏗᏗ	-11.6422
ᏢᏔᎲ	-11.6423
ᏌᏙᎭ	-11.6423
ᏑᏢᏛ	-11.6423
ᏕᎬᏲᎯᏏ	-11.6424
▁ᎠᏒᎨᏍᏗ	-11.6424
▁ᎠᎵᏍᏓᏴᎲᏍᎬᎢ	-11.6425
▁ᏫᎦᎾᏄᎪᎢ	-11.6425
▁ᏗᏌᏂ	-11.6426
▁ᎤᏓᏅᏙᎩᎯ	-11.6427
▁ᏚᏂᏢᎬᎢ	-11.6427
▁ᏕᏣᎸᏫᏍᏓᏁᎸᎢ	-11.6427
▁ᎠᏄᎯᏍᏗᏍᎬᎢ	-11.6427
▁ᏚᏍᎫᏓᏛᎢ	-11.6427
▁ᏓᏅᏗᏍᎬᎢ	-11.6427
▁ᏚᏄᎪᏔᏅᎢ	-11.6427
▁ᎤᏃᎯᏳᏁᎢ	-11.6428
▁ᎤᎷᏤᎸᎯ	-11.6428
▁ᎢᏲᎩ	-11.6428
▁ᏍᏆᏛᎦᏁ	-11.6428
▁ᎤᏅᏎᏍᏗ	-11.6428
ᏍᎬᏰᏃ	-11.6428
▁ᎯᎲᎦ	-11.6428
▁ᎤᎾᏟᎶᎥ	-11.6429
▁ᏥᏙᏓᎦ	-11.6429
▁ᎠᏯᎡᏍᏗ	-11.6431
▁ᏧᎪᏩᏛᏗ	-11.6431
ᎵᏂᏆᏅᏁ	-11.6431
▁ᎢᎦᏅᎯᏛ	-11.6431
▁ᏧᏴᏫ	-11.6432
▁ᏓᏂᏁᎵ	-11.6432
▁ᏚᏟᎶᏍᏓᏁᎴᏃ	-11.6433
ᏥᏯᏁᎶᏗ	-11.6433
ᎵᏍᏓᏴᎾᏁᏗᏱ	-11.6433
▁ᎤᏓᎴᏅᎯ	-11.6433
▁ᎦᏓᏅᏖᏍᎪ	-11.6434
▁ᎤᎾᎵᎪᏒᎢ	-11.6434
▁ᎠᏛᏍᎨᎢ	-11.6434
▁ᏛᏨ	-11.6435
▁ᎤᎾᎵᏗᎩ	-11.6435
ᎨᏠᎮ	-11.6435
▁ᎢᏳᏩᏁᎸ	-11.6435
▁ᎤᏢᎬᎢ	-11.6436
▁ᎢᎬᏩᏁᏗᏱ	-11.6437
▁ᎪᎪ	-11.6438
▁ᎠᏥᎢᏍᏗᏱ	-11.6438
▁ᏧᎾᏄᏬᏍᏗ	-11.6438
ᏓᏓ	-11.6439
▁ᎤᏥᏍᏛ	-11.6439
ᏞᏒ	-11.644
▁ᎢᏣᎵᎪ	-11.644
▁ᎤᏬᏛ	-11.6441
▁ᎠᏆᎫᏴ	-11.6441
▁ᏁᏨᏁ	-11.6442
▁ᏳᏲᎰ	-11.6442
ᎾᏍᏉ	-11.6443
▁ᎤᏩᏴᏒ	-11.6443
▁ᎠᏁᏙᎮᏍᏗ	-11.6444
ᏰᎢᎵᏙᎲᎢ	-11.6445
ᏚᏓᎸ	-11.6445
▁ᏥᏯᎠ	-11.6445
▁ᏓᏥᏁ	-11.6446
▁ᏓᏕᏲᎲᏍᎨᎢ	-11.6446
ᏍᏔᏁᏗ	-11.6446
▁ᏗᎦᏅᏆᎶ	-11.6446
▁ᎤᏍᏕᏓᎵᏴ	-11.6447
▁ᏄᏅᏁᎸᎩ	-11.6448
▁ᎢᏳᏍᏗᏓᏂ	-11.6448
▁ᏓᏰᏍ	-11.6448
▁ᏱᎬᏅ	-11.6449
▁ᏧᏂᎷᏤ	-11.6449
▁ᏗᎧᏃᎩᏍᏗᏱ	-11.645
ᏐᏅᏤᎸᎩ	-11.645
▁ᏥᎸᏉᏗ	-11.645
ᏙᏳ	-11.645
▁ᎢᎬᏩᎷᏤᎴ	-11.6451
ᏒᎲᏍᏗᏱ	-11.6452
ᏴᏎᎸᎩ	-11.6453
ᎭᎵᏙᎩ	-11.6453
▁ᎣᎩᎦᎵᏍᏓᏗᏍ	-11.6453
ᎸᏉᏔᏅᎩ	-11.6453
▁ᏯᏆᏚᎵᎭ	-11.6454
ᎪᎲᎯ	-11.6454
▁ᎤᏬᏱ	-11.6454
▁ᎠᏯᏙᎵ	-11.6454
ᏓᏨᏁᎵ	-11.6455
▁ᏕᎨᏥᏅᏩ	-11.6456
▁ᎤᏪᎴ	-11.6456
ᎦᏥᏲᏎᎸ	-11.6457
ᏓᏏᏒ	-11.6457
▁ᏭᏯᏅᎲᎩ	-11.6457
▁ᏣᎦᏛ	-11.6457
▁ᎢᏣᏓᏅᏛᎢ	-11.6458
▁ᎤᏓᏅᏁᎢ	-11.6458
ᏓᏡᏗᎭ	-11.6459
▁ᎠᎩᏁᎸᎯ	-11.6459
▁ᏤᏙᎰ	-11.646
▁ᎢᏤᎮᏍᏗ	-11.646
▁ᎤᏍᎩᏓᏒᎢ	-11.646
▁ᎠᎾᏗ	-11.646
▁ᏣᏓᏅᏘ	-11.646
▁ᎠᎩᏂᎬᏎᎲ	-11.6461
▁ᏚᎾᏦᏎ	-11.6461
▁ᎤᏓᏙ	-11.6461
▁ᎠᎾᏕᎲᏍᎬᎢ	-11.6462
▁ᎤᏃᎯᏳᏒᎢ	-11.6462
▁ᎨᏥᎸ	-11.6462
▁ᏧᏬᏢᏁ	-11.6463
▁ᎣᎯᏍᏗ	-11.6463
ᏓᏁᎸᎭ	-11.6463
▁ᏂᎦᏪᏏ	-11.6463
▁ᏚᏪᎧᏁᎢ	-11.6465
▁ᏗᎦᎷᏫᏍᏔᏁ	-11.6465
▁ᎤᏂᏃᏁᎴ	-11.6466
ᏦᏩ	-11.6466
▁ᎠᏲᏍᏗᏍᎬ	-11.6466
▁ᎤᏃᎮᎸᎩ	-11.6466
▁ᎠᎩᏍᏛᏗᏍᎬᎢ	-11.6467
▁ᎠᎾᎵᏍᏓᏴᏗᏍᎬ	-11.6467
ᎩᏩᏛᏗᏱ	-11.6468
▁ᏧᏩᏒ	-11.6469
ᎴᎲᎦ	-11.647
▁ᏤᎮᏍᏗ	-11.647
▁ᏧᏔᏂ	-11.647
▁ᏥᎪᏩᏘᎭ	-11.647
ᏅᏅᎢ	-11.6471
▁ᎠᏥᎦᏘᏗᏍᏗᏱ	-11.6471
▁ᏗᎪᏱ	-11.6471
▁ᎬᏣ	-11.6471
ᎵᏥᏙᏁᎲᎢ	-11.6472
▁ᎦᏌᎴ	-11.6473
▁ᏣᏂᏅᎩ	-11.6473
▁ᏥᏚᏲᏎ	-11.6474
ᎧᏒᎢ	-11.6475
ᎵᏍᏙᏔᏁ	-11.6475
ᎧᏁᏍᏗ	-11.6476
▁ᏱᎯᎦᏔᎮ	-11.6477
▁ᎠᏂᎩᎵᏲᎬᎢ	-11.6478
▁ᏓᏍᏓ	-11.6478
▁ᎡᎯᏍᏗᏳ	-11.6479
▁ᏓᏲᎩ	-11.6479
▁ᎥᏘ	-11.6479
ᏓᏬᏍᏙᏗ	-11.6479
ᏂᏱᏍᎩ	-11.648
▁ᎤᎪᎵᏰᏗ	-11.648
▁ᏂᏥᏴ	-11.648
ᎨᎬᏁᎵ	-11.6482
▁ᏗᎦᎵᏍᏙᏗ	-11.6483
▁ᏥᏍᎩᏯ	-11.6483
▁ᎤᎵᏍᏕᎸ	-11.6483
▁ᎤᏂᎾᏗᏅᏎ	-11.6483
ᏂᏕᏅ	-11.6484
ᏲᏍᏗᏍᎩ	-11.6484
▁ᎠᎩᏩᏛᎲᎩ	-11.6484
ᎫᏴᎡᎸ	-11.6484
▁ᎵᏓ	-11.6484
▁ᎠᎫᏬᏰ	-11.6484
▁ᎤᏓᏴᏍᏗᏱ	-11.6485
ᎦᏎᏍᏙ	-11.6485
▁ᏕᏣᎴ	-11.6485
▁ᏫᏚᎷᏤᎸ	-11.6486
▁ᏂᎦᎵᏍᏙ	-11.6486
ᏓᏦᏍᎬ	-11.6487
ᏣᏛᎩᎭ	-11.6487
▁ᎠᏞ	-11.6488
ᏓᏚᎪᏓᏁᎭ	-11.649
▁ᏂᏪᏏ	-11.6491
▁ᏚᎷᎬᎢ	-11.6492
▁ᎤᏔᏲᏎᎸᎩ	-11.6492
ᏍᏢᏂᏍᏔᏅ	-11.6493
ᏔᏁᎸᎯ	-11.6494
▁ᏐᎭ	-11.6495
▁ᎦᎴᏂᏙᎲ	-11.6496
▁ᎠᏓᏪᎵᎩᏍᎬᎢ	-11.6497
▁ᎢᏳᏩᎬ	-11.6498
▁ᎤᏁᎷᎬᎢ	-11.6499
▁ᎡᏗᎨᏳᎢ	-11.6499
▁ᎦᏓᎥᎢ	-11.6499
▁ᎤᎵᏦᏛᎢ	-11.6499
▁ᎤᎾᏤᎵᎪ	-11.6499
▁ᏚᏇ	-11.6499
▁ᏤᏥᏃ	-11.65
ᎾᏰᎯᏍᏛ	-11.65
▁ᏯᏃᎵ	-11.6501
▁ᎤᎳᏏ	-11.6501
▁ᎤᏂᏖᎸᏅ	-11.6501
▁ᏪᏙᎲ	-11.6501
▁ᎪᎯᏳᏙᏗ	-11.6501
ᏓᏂᏱ	-11.6502
ᎾᏋᏁᎸ	-11.6502
▁ᏧᏂᎬ	-11.6502
ᏗᎬᏩᎧᏃᏗ	-11.6502
ᎭᏯᎸ	-11.6502
ᎤᏏ	-11.6504
▁ᎾᎾᏛᏁᎭ	-11.6504
▁ᏓᏓᎯ	-11.6504
▁ᏂᎦᎵᏍᏗᏍᎪᎢ	-11.6504
▁ᏣᎯᏍᏗᏱ	-11.6504
ᏤᎵᎯᏍᎪ	-11.6505
▁ᎡᎭᏏ	-11.6505
▁ᏓᏂᏢ	-11.6505
▁ᏗᎧᎵᎢ	-11.6506
ᎿᏬᏍᏗ	-11.6507
▁ᏱᏝ	-11.6507
▁ᏱᏄᏍᏕᎢ	-11.6507
▁ᎤᏰᎯᏍᎩᏂ	-11.6507
▁ᏚᎸᏌᏓ	-11.6508
ᏤᏯᏙᏤᎮᏍᏗ	-11.6508
▁ᏚᏓᏓᎴᏔᏁ	-11.6509
▁ᏧᏍᎦ	-11.6509
▁ᎦᎷᏥ	-11.651
▁ᏚᏘᏃᎴ	-11.651
▁ᎢᏥᏁᏗᏱ	-11.6511
▁ᏱᏥᎦᏔᎮᎢ	-11.6511
ᏃᎮᎵ	-11.6512
▁ᏱᏔ	-11.6513
▁ᎪᏢᏒᎩ	-11.6514
▁ᏂᏙᏔᏘ	-11.6516
ᏪᎵᏏ	-11.6517
▁ᏄᏩᏁᎲ	-11.6517
▁ᏅᏩᏓ	-11.6517
▁ᎤᏍᏗᏰ	-11.6518
▁ᎣᏨᏗᏍᎬ	-11.6518
ᏱᎩᎵ	-11.6519
▁ᎤᏂᎯᏍᏗ	-11.6519
ᎧᏁᎬ	-11.6519
▁ᎤᏁᎳᏛ	-11.652
ᎰᎯᏍᏗ	-11.652
▁ᏄᏬᏚᏒ	-11.652
▁ᎠᏓᎴᏂᏍ	-11.6521
▁ᎤᏂᏬᏂᎯᏍᏗᏱ	-11.6521
▁ᎠᏆᏚᎸᎲ	-11.6522
▁ᎠᏆᏓᏤᎵᎦ	-11.6522
ᎾᎵᎩᏛ	-11.6523
▁ᏗᎦᏲᏥ	-11.6525
▁ᎦᏛᎬᎦ	-11.6525
▁ᏥᏂᎩ	-11.6526
▁ᏥᏃᎮᏍᎬᎢ	-11.6527
▁ᏧᏙᏢ	-11.6528
▁ᎤᎾᏓᏙᎵᏍᏔᏁ	-11.6529
▁ᎠᏥᏁᎸᎯ	-11.6529
▁ᏍᏆᎳ	-11.6531
▁ᎨᏛᎢ	-11.6531
▁ᏙᏓᏆᏍᎬᎢ	-11.6533
▁ᏂᎦᏔᎲᎾ	-11.6534
ᏂᏍᏗᎭ	-11.6534
▁ᎠᎩᏌ	-11.6534
ᎳᏑᎳ	-11.6534
▁ᏃᏥᎥ	-11.6534
ᎾᏕᎨ	-11.6535
ᎷᎸᏁ	-11.6537
ᏍᏓᏩᏗᏙ	-11.6537
ᏌᏙᏯ	-11.6538
ᏁᎳᏕᎢ	-11.6538
▁ᏂᏚᏩᏁ	-11.6542
ᏍᏔᏲᏍᏙᏗ	-11.6542
ᏥᏂ	-11.6544
▁ᏚᏂᏰᎵᏒ	-11.6546
ᏂᏓᏅᏁᎰ	-11.6546
▁ᏂᏍᏛ	-11.6547
▁ᎨᏌ	-11.6548
ᏯᎦᏎᏍᏗ	-11.655
▁ᏙᎦᏠᎯᏍ	-11.6551
▁ᏍᎩᏯᏕᎶᏆᎡ	-11.6551
ᏛᎲᏃ	-11.6552
ᏟᏃᎮᏔᏁ	-11.6552
▁ᏂᎬᏁᎰ	-11.6553
ᏍᏚᎶᏙᏗ	-11.6556
▁ᏗᎬᏅ	-11.6557
▁ᎯᎦᏘ	-11.6558
ᎫᏴᎲᎾ	-11.6558
▁ᎠᎩᏁᏨᎩ	-11.6558
▁ᎬᏩᏂᏃᎮᏗ	-11.6559
▁ᏕᎭᏘᏁ	-11.656
▁ᏱᎾᎾᏛᏁᎰ	-11.656
▁ᎬᏩᎾᏓᏅᎡ	-11.6561
▁ᏂᏣᏪᏎᎸ	-11.6561
▁ᎤᎶᎯᏍᏗᏱ	-11.6561
▁ᏫᎬᏪᎧᏁ	-11.6563
▁ᎯᎩᏍᎪ	-11.6564
▁ᏂᏣᏛᏁᎰ	-11.6565
ᎵᏉᎩ	-11.6566
▁ᎤᎾᏂᎩᏍᏗ	-11.6566
▁ᏗᎦᏅᏬᎢ	-11.6568
▁ᏂᎦᏛᏁᎰᎢ	-11.657
▁ᎤᏁᏉᎡ	-11.6571
▁ᏓᏳᏪ	-11.6571
▁ᏫᎬᏩᏂᏴ	-11.6572
▁ᏱᏚᏩᏛᎲ	-11.6572
▁ᏁᎵᏍᎬᎾ	-11.6574
▁ᎤᏃᎭ	-11.6574
▁ᎤᏩᏌᏆ	-11.6574
ᎣᎸ	-11.6575
▁ᎤᏅᏁᎢ	-11.6575
▁ᎤᎧᎭ	-11.6576
▁ᏧᎬᏩᎴ	-11.6576
ᏯᎪ	-11.6576
ᏍᏛᏗᏍᏗ	-11.6578
▁ᎠᏓᏰ	-11.6579
▁ᎤᏩᏛᎲᎩ	-11.6581
ᏅᏍᎬᎾ	-11.6582
ᏯᏛᎦᏁᎵ	-11.6584
▁ᏤᎲᎢ	-11.6584
ᎾᏓᏙᎵᏍᏗᏍᎪᎢ	-11.6585
ᏪᏌᏆᎴ	-11.6586
▁ᎤᎾᏌ	-11.6587
ᏲᏍᏗᏍᎨᏍᏗ	-11.6587
▁ᎠᏉᎯᏳᏅ	-11.6587
ᏕᏲᎲ	-11.6589
▁ᏂᏨᏪᏎᎸ	-11.6589
ᎧᎭᏲ	-11.6589
▁ᎤᏍᏕᎸᏗ	-11.6589
▁ᎤᏥᏯ	-11.659
ᎪᏛᎢ	-11.659
▁ᏱᏍᎩᏯ	-11.659
▁ᏯᎩᏍᏆᎸᎡ	-11.6591
ᏁᏟᏴᏍᏔᏁ	-11.6592
ᏓᏇ	-11.6592
ᎬᏇᎯᏍᏗᎭ	-11.6594
▁ᎦᏁᎵᏒ	-11.6594
▁ᏚᎾᏘᏃᎸ	-11.6595
▁ᏧᏁᎯ	-11.6595
▁ᎠᎧ	-11.6595
▁ᎤᎵᏦᎯ	-11.6596
▁ᎢᏥᎦᎵᏍᏓᏗᏍ	-11.6596
▁ᏧᎾᏙᏅ	-11.6596
ᎠᏴ	-11.6597
▁ᎤᏂᏄᎸᏅ	-11.6599
▁ᎤᏚᎢᏍᏔᏅᎢ	-11.6599
▁ᎢᏳᏩᏁ	-11.6599
▁ᎠᎦᏯ	-11.66
▁ᏁᏩᏔᎵᏃ	-11.66
▁ᎤᎾᎵᎮᎵᏤᎢ	-11.66
ᏓᏁᎰᎢ	-11.6601
ᏰᏍᏔᏁᎢ	-11.6603
▁ᎤᎵᏘᏎ	-11.6603
▁ᎤᏩᏓ	-11.6603
ᏛᏗᏍᎨᏍᏗ	-11.6604
▁ᏙᎦᏘᏁ	-11.6604
▁ᏕᎤᎴᏔᏅᎢ	-11.6604
ᎥᏍᎦ	-11.6605
▁ᏍᎩᏅᎦᎸ	-11.6605
▁ᏱᏕᏍᏗ	-11.6605
▁ᎣᎩᏰᎸ	-11.6605
▁ᏤᎵ	-11.6606
▁ᏄᏂᏪᏒᎢ	-11.6606
▁ᏫᏓᏗ	-11.6607
▁ᏂᎦᎵᏍᏗᏍᎨᎢ	-11.6607
ᎦᏙᏍᏙᏗ	-11.6608
ᏤᏍᏙᎩᎯ	-11.661
▁ᏂᎦᏛᏅᎢ	-11.661
▁ᏧᏂᏴ	-11.6611
▁ᏴᎬᏩ	-11.6612
ᎵᏔᏕ	-11.6613
▁ᏘᎦᎵᏍᏙ	-11.6613
ᏓᏅᏔᏩᏕᎬ	-11.6617
ᏓᏅᏓᏗᏍᏔᏅᎯ	-11.6618
▁ᎤᏕᏒᏅ	-11.6619
ᏚᏓᏴᎳᏛ	-11.6619
ᏦᎯᏳᎲᎦ	-11.6619
ᏚᏳᎯᏛ	-11.6621
▁ᎠᏂᏁᎩ	-11.6621
ᏨᏁᎰ	-11.6622
▁ᎤᎷᏤᏗ	-11.6622
▁ᏂᎦᏥᏴᏁᎸ	-11.6624
▁ᏓᏄ	-11.6625
▁ᎤᎶᏒᎢ	-11.6626
▁ᎤᎿᎸᏤ	-11.6626
▁ᎤᏰᏥ	-11.6627
▁ᎳᏏ	-11.6627
▁ᏓᏘᏁ	-11.6629
▁ᎤᎾᏗᏔᎲ	-11.6631
ᎴᏎᎢ	-11.6635
▁ᎤᎾᏓᏅᏖᏔᏁ	-11.6635
▁ᎢᎦᏛᏁᏗ	-11.6635
▁ᏕᎨᏲᎲᏍᎨ	-11.6635
ᏌᏕᎢ	-11.6636
▁ᎦᎸᎥ	-11.6636
▁ᎨᏥᏍᏗ	-11.6637
▁ᎦᎳᎩ	-11.6639
▁ᎢᎬᏩᎵᏍᏓᏁ	-11.664
▁ᎤᏁᎵᏎᎢ	-11.6641
▁ᎤᏂᏩᏛᎲ	-11.6641
ᎾᎥᎾ	-11.6642
ᏔᎷᎩᏍᎬ	-11.6644
▁ᏱᏅᎨᏣ	-11.6645
ᏓᏴᏍᏗ	-11.6646
▁ᎠᏢᏛ	-11.6649
▁ᎠᏂᎦᎵ	-11.6649
▁ᏱᏗᏍᎩ	-11.6652
▁ᏱᏧ	-11.6656
▁ᏚᎸᏫᏍᏓᏁᎸᎩ	-11.6658
▁ᎤᏂᎾᏝᎾᎥ	-11.6659
▁ᎦᎨᏣ	-11.666
▁ᏥᎶᏃ	-11.6661
▁ᏚᏑᎦ	-11.6661
▁ᎢᏥᏪᏍ	-11.6663
ᏝᏁ	-11.6664
ᏥᏰᎸᎾᏁᎰᎢ	-11.6667
▁ᎾᏆᎵᏍᏓᏁ	-11.667
ᏯᏂᏍᎬᎢ	-11.6671
ᏰᎶᎴ	-11.6673
▁ᏗᏥᏰᎸᎢ	-11.6674
▁ᎡᏙᎰ	-11.6674
ᎾᏬᏍᏔᏁᎢ	-11.6675
▁ᏧᏲᎰ	-11.668
▁ᏱᎾᏅ	-11.6681
ᏣᏛᏁᎮᏍᏗ	-11.6681
▁ᏥᏄᏛᏁᎴ	-11.6682
▁ᎠᏗᏔᏍᏗᏱ	-11.6683
▁ᎦᏰᏌᏛᎢ	-11.6683
▁ᎬᎳ	-11.6685
ᎪᏪᎶᏗ	-11.6686
ᎮᏙᎮ	-11.6686
▁ᎡᏥᎷᏤᎸ	-11.6689
▁ᎤᏪᎶ	-11.6689
ᏇᎵᏎ	-11.669
ᏍᏗᏰ	-11.6693
ᏓᏙᎵᎨᏍᏗ	-11.6693
ᏍᏆᏛᎯ	-11.6694
▁ᏚᏬᏎᎴ	-11.6694
▁ᎤᏪᎵᏒ	-11.6694
ᏲᎱᏍᎬ	-11.6695
ᏥᏍᏓᏱᏕᎸ	-11.6695
ᏂᎨᏒ	-11.6696
ᏂᏏᏅᎩ	-11.6697
▁ᏓᏲᏣ	-11.67
▁ᎠᏓᏅᏖᏍᎨᎢ	-11.6701
ᏉᏎᏗ	-11.6704
▁ᏳᏂᎬ	-11.6705
ᏛᏂᎲ	-11.6708
▁ᏣᎬᎩ	-11.671
▁ᏚᎸᏌᏛᎢ	-11.6712
ᎪᎰᏍᎬ	-11.6712
▁ᎢᏣᏓᏑᏴ	-11.6712
▁ᏘᏲ	-11.6712
▁ᎠᏁᎵᏍᎨᎢ	-11.6713
▁ᎤᏂᏍᎫᏕᏒ	-11.6714
ᏛᏙᏗᏱ	-11.6715
▁ᏲᎪ	-11.6716
▁ᏗᎬᏩᏂᏐᏢ	-11.6717
ᏔᏛ	-11.6718
▁ᎢᏓᏓ	-11.672
ᎠᎩᏲᏏ	-11.6722
▁ᎤᏂᏁᏨᎢ	-11.6723
▁ᎠᏚ	-11.6724
▁ᎢᏳᏓ	-11.6725
ᏱᏉᏍᎩᏂ	-11.673
▁ᏳᏔᎳᏬ	-11.6732
ᏥᏏ	-11.6733
ᎪᎮ	-11.6734
ᏑᏰᏎ	-11.6735
ᎩᏎᎢ	-11.6736
ᏓᏛᏁᎭ	-11.6736
▁ᎢᏨᏁ	-11.6737
▁ᎠᎪᏎᎴ	-11.6742
▁ᏕᎰ	-11.6742
▁ᎤᏂᏁᎸ	-11.6744
ᏨᏗᏍᎨᏍᏗ	-11.6744
ᏘᏍᎬᎾ	-11.6745
▁ᏒᏟ	-11.675
▁ᎠᏯᎠ	-11.6751
▁ᎠᏎᏍᏗ	-11.6751
ᏯᏛᏅ	-11.6751
ᏏᏲ	-11.6754
ᏍᎩᏘ	-11.6754
ᏑᏯᎩᏍᏗ	-11.6754
ᏓᏂᎸᏤ	-11.6754
▁ᏳᏯ	-11.6755
▁ᏂᎦᎷᎬ	-11.6755
▁ᏗᎬᏩᏁ	-11.6756
ᎬᏍᎪᎸᏅᎢ	-11.6758
ᏙᏓᏋ	-11.6758
▁ᏚᏲᎴ	-11.6761
ᎵᏩᏛᎡᎲᎢ	-11.6762
ᎾᏟᏃᎮᎸ	-11.6764
▁ᎤᏛᏗ	-11.6764
ᏓᏅᏛ	-11.6766
▁ᏛᎾᎢ	-11.6767
▁ᎠᏥᎪᎵᏰᎥ	-11.6769
▁ᎤᏭᏓᎸᏤ	-11.677
▁ᏚᏑᏰᏎ	-11.6771
▁ᏧᏁᏨᏃ	-11.6772
▁ᎠᏁᏙᎮᎢ	-11.6774
ᏣᏙᎴᎰᎯᏍᏗᏱ	-11.6774
▁ᏳᎾᏚᎵᏍ	-11.6775
ᏱᏐ	-11.6776
ᏍᏓᏱᏕ	-11.678
▁ᎠᎵᏍᎪᎸᏙᏗᏱ	-11.6782
ᎬᏙᏗ	-11.6785
▁ᎤᏂᎷᏤᎭ	-11.6787
ᎵᏃᎮᏗᏍᎨᏍᏗ	-11.6789
ᏲᏒ	-11.6789
▁ᏂᎦᏪᏒ	-11.679
ᏅᏍᏙᏗᏱ	-11.6792
▁ᎭᏕᎶᎰ	-11.6792
▁ᎠᏲᎵᏃ	-11.6796
▁ᏥᏂᎦᏪᏍᎬ	-11.6798
ᏓᎦᎵᏍᏙᏓ	-11.68
▁ᏧᎾᏓᏕ	-11.6804
ᏅᎾᏉ	-11.6805
▁ᏗᏑᏫ	-11.6807
▁ᎢᏨᏗᏍᎪ	-11.681
ᏄᏪᏎᎢ	-11.6813
ᎵᎦᎵᏴ	-11.6818
▁ᏄᏛᎾᏕ	-11.6818
▁ᏩᏥᏯᏅ	-11.682
▁ᎣᎩᎸᏉᏗ	-11.682
ᏙᎴᎰᎯᏍᏙᏗ	-11.6821
▁ᎣᎬᏔᏅ	-11.6823
ᏍᏔᏁᎯ	-11.6824
▁ᎤᎾᎵᏍᎦᏍᏙ	-11.6824
▁ᎤᏚᎵᏍᎨᎢ	-11.6826
▁ᎦᎵᎭ	-11.6826
ᎳᎨᏯᏛ	-11.683
▁ᎦᏙᎥ	-11.6831
ᏩᏗᏍᎬ	-11.6832
▁ᎤᏲᏨᎩ	-11.6832
▁ᏕᏦ	-11.6834
▁ᏚᏕᏲᏅ	-11.6838
▁ᎢᏫ	-11.6839
ᏐᏢᎢᏍᏗᎭ	-11.6839
▁ᎠᎪᏢᏅ	-11.6846
ᎫᏓᎸ	-11.6848
▁ᏲᎨ	-11.6849
▁ᎠᏍᎪᏒ	-11.685
ᎪᏫᏎ	-11.6856
ᏚᏅᏁᎴ	-11.6857
▁ᎠᏥᏰ	-11.6859
▁ᏛᎵ	-11.6859
▁ᎤᏕᏯ	-11.686
▁ᎠᎩᏍᏆᏛ	-11.686
ᏁᏤᎸᎩ	-11.6861
▁ᎠᏆᎩᎸ	-11.6862
▁ᎦᏛᎢ	-11.6864
ᏗᏎ	-11.6865
ᏥᏃᎲᏏ	-11.6865
▁ᎣᏣᏓᏙᎵᏍᏗᏍ	-11.6866
ᎾᏓᏡᎬ	-11.6866
▁ᏩᎩᎶᎯ	-11.6868
▁ᏚᏂᏯᏪ	-11.6873
ᏃᎸᏔᏅᎩ	-11.6875
▁ᎤᎦᏘᏗᏍ	-11.6875
ᏰᏗ	-11.6877
ᏛᏁᎴᎢ	-11.688
▁ᎬᎩᎸᏉᏗ	-11.6882
ᏴᏍᎪᏳᏁ	-11.6882
ᏗᎦᏚᎲ	-11.6883
ᎢᏎᏗ	-11.6884
ᏯᏂᏍᎨᏍᏗ	-11.6884
▁ᏱᏚᏩᏛᎮ	-11.6886
▁ᎦᏰᏗ	-11.689
ᎨᎵ	-11.6891
▁ᏍᎩᎾᎾᏂ	-11.6893
ᏥᏯᎵᏍᎪᎸᏓᏁ	-11.6894
ᎧᎯᏴᎩ	-11.6895
▁ᏙᏓᎦᏅ	-11.69
▁ᏕᏥᎾ	-11.6901
▁ᏱᏗᎩ	-11.6906
▁ᏂᎠ	-11.6909
▁ᏓᏍᏆᎵᏍ	-11.6912
ᏅᏏ	-11.6912
ᎦᏚᏢ	-11.6915
ᎵᏑᏫᏓ	-11.6916
▁ᎠᏆᏚᎵᏍᎬᎢ	-11.6916
▁ᎠᏂᎳᎨᏴ	-11.6919
▁ᏙᏥᏩᏛᎲ	-11.6923
ᎩᎷᏨᎩ	-11.6925
ᎪᏢᏁᎢ	-11.6926
ᏎᎲᎢ	-11.6929
▁ᏗᏂᏂᎨ	-11.6931
ᏕᎪᏢᎾ	-11.6932
ᏁᏟᏴᏎ	-11.6934
▁ᏘᎪ	-11.6935
▁ᏦᏥᏩᎾᎦᎳ	-11.6939
ᎸᏔᏅᎯ	-11.6941
ᎾᎵᏙᎩᏯ	-11.6943
▁ᎤᏍᎪᏍᏗ	-11.6946
▁ᏣᎾᎢ	-11.6946
▁ᏥᎩᏁᎸ	-11.6947
▁ᎤᏞ	-11.6947
ᏓᎴᏍᏗ	-11.6948
▁ᏳᏃᎯᏳ	-11.6952
▁ᏚᎾᏗᏩᏍᎨ	-11.6953
▁ᏚᏂᏅᏁ	-11.6958
▁ᏯᎩᏍᏕᎵ	-11.6961
▁ᏧᏂᏙ	-11.6962
ᎨᏰᎢ	-11.6967
▁ᎣᏥᏁ	-11.697
ᏩᎾᎨ	-11.6971
▁ᎠᏍᏓᏲ	-11.6973
ᎣᏐᏅ	-11.6974
ᎦᎵᏯ	-11.6975
▁ᎬᏩᏓᏅᏘ	-11.6976
▁ᏍᏊ	-11.6977
▁ᏗᎨᎩ	-11.6979
▁ᎤᏫᏒ	-11.698
▁ᏫᏥᎷᏤᎸ	-11.6981
▁ᏂᎤᏪᏎ	-11.6981
▁ᏙᏍᎩ	-11.6981
▁ᎠᏍᏓᏱᏗᏍᏗ	-11.6981
▁ᎢᏨᏃᏁᎸ	-11.6983
ᎬᎾᏬᏙᏗᏱ	-11.6985
ᎡᏥᏍᏓᏩᏕᎩ	-11.6986
▁ᎤᎾᏛᏓᏍ	-11.6989
▁ᎠᎪᎵᏰᏍᎨ	-11.6991
▁ᎢᏳᎾᏛᏁᎸ	-11.6992
ᏒᏍᏗᏱ	-11.6995
ᏚᏓᎸᏙ	-11.6997
▁ᎤᏴᏔᏁ	-11.6997
▁ᎤᏙᏩᏗᏍ	-11.6998
ᏗᎦᎸᏉᏗ	-11.7001
ᏙᎳᏅ	-11.7002
ᏂᏆᏘᎸ	-11.7002
▁ᏂᏍᎩ	-11.7002
ᎸᏒ	-11.7004
ᎫᏴᎡᎮᏍᏗ	-11.7004
▁ᏣᏚᎳ	-11.7009
ᎿᏕᎬ	-11.7011
▁ᎠᎾᏓᏱ	-11.7012
▁ᏧᏩᏅ	-11.7012
▁ᏂᏗᎩ	-11.7012
▁ᏂᏨᏃᏁ	-11.7013
ᏩᏔᎰ	-11.7015
▁ᎬᎩᏰᎸ	-11.7017
▁ᏓᏂᏃᎩᏍ	-11.702
ᏐᏍᏔᏅ	-11.7021
ᏤᎸᎩ	-11.7022
ᎫᏴᏗᏱ	-11.7024
ᏂᎬᎬᎢ	-11.7024
ᏯᏔᎲ	-11.7024
ᏯᎩᏍᎪ	-11.7026
▁ᎤᎴᏅᏔᏅ	-11.7028
▁ᎦᎵᏥᏙᎲᏍ	-11.7029
▁ᎤᏰᎶ	-11.7029
▁ᏓᏂᎾ	-11.703
ᏓᏁᏘ	-11.7031
▁ᏚᏄ	-11.7031
▁ᎠᎴᏂᏓᏍᏗ	-11.7032
▁ᎷᎦ	-11.7035
ᏪᏅᏎ	-11.7041
▁ᏚᎾᏓᏅ	-11.7042
ᏔᏛᎩ	-11.7043
▁ᏧᎾᎦ	-11.7043
ᎵᏖᎸᏂᎴ	-11.7054
ᏴᏍᎪᎢ	-11.7055
ᎪᏪᎸ	-11.7056
ᏆᏒᎦᎸ	-11.7057
▁ᏗᏣᏓᏅᏙᎩ	-11.7057
ᏅᎦᎸᎮᎢ	-11.7057
▁ᎤᏲᎮᏍᏗ	-11.7058
ᎦᏔᎿᎥᎾ	-11.7062
ᏯᏂᏍᎬ	-11.7068
▁ᎠᏍᏚᎩ	-11.7068
▁ᎤᏬᏢᎾᏁ	-11.7076
ᏍᎦᎢᎮ	-11.7077
ᎴᏍᏗᏱ	-11.7082
ᎬᏍᎦᎸ	-11.7086
▁ᎠᏛᏁᎵᏍ	-11.7086
ᏆᏗᏅᏛ	-11.7088
▁ᎦᏓᏅ	-11.7089
▁ᏱᏗᏥᏳᎪᏓᏁ	-11.709
▁ᎢᏥᎦ	-11.7091
▁ᎤᏲᏉᏍᎩᏂ	-11.7092
ᏒᏓᏅ	-11.7093
▁ᎬᎵ	-11.7098
▁ᎤᏅᏗᏱ	-11.7098
▁ᏚᎾᎵᏂᎪ	-11.7099
▁ᎦᎪᏗᏱ	-11.7099
ᏗᏍᎦᎳᏁ	-11.711
ᎯᏥᎨ	-11.7111
▁ᎤᎵᏂ	-11.7111
ᎾᎵᏖᎸᏂ	-11.7114
ᏂᏎ	-11.7116
ᎫᏴᎲ	-11.7121
ᎾᏏᏗ	-11.7122
▁ᎠᏂᏟ	-11.713
▁ᎤᏩᏒᎯ	-11.7133
▁ᎠᏂᎲᏍᎨ	-11.7139
▁ᎤᏁᏅᎢᏍᏗ	-11.714
▁ᎠᏢᏈᏍᏗ	-11.7141
ᎦᏙᎥᎯᏍᏗ	-11.7141
ᏚᏛᏛᏅᎩ	-11.7141
▁ᎢᏣᎴ	-11.7144
ᏲᏞᏒ	-11.7147
ᎪᎸᏏ	-11.7148
▁ᏧᏂᎭ	-11.715
▁ᎤᎶᏒᏍᏓᏁ	-11.7155
ᎵᎥᏂ	-11.7163
▁ᏓᏂᏱ	-11.7167
ᏟᏫᏛᏗ	-11.7168
▁ᎤᏓᏂᏴ	-11.7168
ᎬᎾᏉ	-11.7169
▁ᎤᏩᏛ	-11.7173
▁ᏣᏍᏆᏂᎪ	-11.7173
▁ᏯᏆᏓᏅᏓᏗᏍ	-11.7174
▁ᎬᏩᏂᎾᏄᎪᏫᏒ	-11.7176
▁ᎦᏥᏔᏲᏎ	-11.7179
▁ᏱᏕᏣ	-11.7181
▁ᏗᎬᏂ	-11.7183
▁ᏄᏩᎾ	-11.7183
▁ᏛᎠ	-11.7184
ᎩᎬ	-11.7189
▁ᎤᏍᏕᎸᎮ	-11.7189
ᏪᏣ	-11.7191
ᏥᎪᎵᏰᏗᏱ	-11.7192
▁ᏗᎦᎬ	-11.7195
▁ᏕᏥᏁ	-11.7196
▁ᏱᏄᏅᏁ	-11.72
▁ᎣᎩᏂᏙ	-11.7201
ᎧᎾᏂ	-11.7204
ᏆᎶ	-11.7206
ᏛᏎᎢ	-11.7209
▁ᎡᏥᏃᏁ	-11.7212
ᎫᏤᎵ	-11.7212
▁ᏗᎲᎢ	-11.7212
▁ᏗᏤᎷ	-11.7213
▁ᎠᏓᎩᎡ	-11.7213
ᏛᏓᏍᏓᏁᏗᏱ	-11.7219
ᎾᏣᏪᏐᎸᏍᏙᏗ	-11.7222
▁ᏚᎩᏎ	-11.7225
ᏂᏴᎭ	-11.7226
ᏫᏱ	-11.7231
ᎵᏎᎯ	-11.7239
ᏙᎰᎢ	-11.724
▁ᏧᏪᏰ	-11.7242
▁ᏫᏚᏂᏲᎯᏎ	-11.7242
ᏂᏴᎲᎩ	-11.7243
ᎥᏍᎬᎾ	-11.7248
▁ᏚᏅᏅ	-11.7253
▁ᎠᏆᎵᏃᎮᏔᏅ	-11.7257
▁ᏓᎾᏁᎶ	-11.726
ᏬᎦ	-11.7263
▁ᎤᏪᏅᎡ	-11.7265
▁ᏂᎦᎵᏍᏗᏍᎬᎢ	-11.7267
ᏩᏘᎭ	-11.7269
▁ᎠᏥᏴ	-11.7272
ᎾᏗᏅᏒᎩ	-11.728
▁ᎤᏬᏘ	-11.728
ᏩᏛᎡᏗᏱ	-11.7283
ᏒᏁ	-11.7287
▁ᎢᏨᏴᏁ	-11.729
ᏅᏍᏓᏕ	-11.7293
ᏂᏍᎩᏴᎦ	-11.7296
ᏫᏒᎯ	-11.7296
▁ᏣᏓᏅᏖ	-11.7297
ᎪᏗᏱ	-11.7299
▁ᎤᏑᎸ	-11.7299
ᏚᏙᎥ	-11.7305
▁ᏗᎦᎴᏅ	-11.7308
ᏂᎥ	-11.7308
ᏎᎦ	-11.731
ᏅᏎᏃ	-11.7316
ᏍᏓᎦᏴᎯᏓ	-11.7317
▁ᎠᎩᏰᎸᏒ	-11.7327
ᏲᎸᎩ	-11.733
ᏯᏅᎯᎸ	-11.7332
ᏍᏆᏗᏍᏗᏱ	-11.7332
ᏱᏍᎪᎢ	-11.7332
ᏔᏂᎴ	-11.7333
ᏒᎲ	-11.7333
▁ᎨᏣᎪᏩᏛᏗ	-11.7334
ᏕᎶᏆᎥ	-11.7335
ᏓᏦᎲ	-11.7337
▁ᏧᏐ	-11.7338
ᎦᏔᏂᎴ	-11.7338
ᎶᏄᎮᏍᎩ	-11.734
ᏥᏂᏐᏗᏱ	-11.7341
ᏥᎦᏖᏃᎭ	-11.7341
ᏂᏴᏙᏗ	-11.7342
▁ᎬᏍᎬ	-11.7343
▁ᎠᏂᎧᎵ	-11.7343
ᏰᏙᎳᏛᏅ	-11.7351
ᎦᏟ	-11.7356
▁ᎤᏂᎦᏙᎥᎯᏍᏗ	-11.7357
ᎷᏤᎰᎢ	-11.7358
▁ᏓᏂᎯᏯᏍ	-11.7361
ᏎᏛ	-11.7364
▁ᏧᎾᏓᎯᏍᏗ	-11.7364
▁ᎠᎩᏩᏒ	-11.7367
▁ᎢᎸᏍᎩᏉ	-11.7368
ᎫᏴᎡᏗ	-11.7371
▁ᏓᏚ	-11.7372
▁ᎤᏲᎰᏎ	-11.7374
ᎫᏍᏛᏗ	-11.7375
▁ᎢᏏ	-11.7375
▁ᎪᏍᏗ	-11.7375
▁ᎬᏩᏍᏆᏗᏍ	-11.7376
ᎧᎵᎢᏍᏔᏅ	-11.7377
▁ᎡᏥᎩᎵᏲᎢᏍᏗᏍ	-11.7378
ᎸᏫᏍᏓᏁᎸᎯ	-11.7378
ᏓᏯ	-11.7379
▁ᏧᎾᏁ	-11.7379
▁ᏚᎪᎲᏃ	-11.7384
ᏯᏙᎮᎮᏍᏗ	-11.7385
ᎾᏓᏨᏯᏍ	-11.7385
ᏳᎲᏍᎩ	-11.7386
▁ᎡᏥᏍᏕᎸ	-11.7389
ᏍᎪᎳ	-11.739
▁ᎤᏲᎴᎢ	-11.7397
▁ᏭᏖᎳ	-11.7399
ᏥᏚᎢᏍᏓᏁᎸ	-11.74
ᏲᎲᎩ	-11.7402
▁ᏱᏂᏨᏁ	-11.7402
▁ᏥᏅᏏᏓᏍᏗᏃ	-11.7404
▁ᎤᎾᎵᏍᏓᏴ	-11.7406
ᏲᎱᏎᎸᎯ	-11.741
▁ᏍᏆᏛᏓᏍᏓ	-11.7411
ᏓᏁᏟᏴᏒ	-11.7419
▁ᎨᏥᏯᏅ	-11.7423
▁ᏳᏗᏔ	-11.7423
▁ᏗᏥᏁᎸ	-11.7429
ᎬᏎ	-11.7435
▁ᎤᏂᏟᏌᏅ	-11.7435
▁ᏥᏳᎯᏃ	-11.7443
▁ᎠᏓᏔᎶᎯ	-11.7444
ᏄᏬᎥ	-11.7445
ᏍᎪᎸᏨ	-11.7447
▁ᎤᎾᏕᏯᏙᏗ	-11.7451
▁ᏯᏓ	-11.7456
ᏭᎪ	-11.747
▁ᏙᏓᏥᏃᎩ	-11.7471
ᏥᏁᎢᏍᏗᏍᎬ	-11.7471
ᎵᏃᎮᏔᏅᎩ	-11.7475
▁ᏙᎤᏁᏅ	-11.7476
▁ᎣᏥᏅ	-11.7477
▁ᎢᏣᏪᏍᏗ	-11.7479
ᎧᏲᏗ	-11.7482
ᏂᏯᏫᏍᎬ	-11.7486
▁ᏧᏃᎯᏳᏗ	-11.7491
ᎧᎿᏩᏗᏙᎮᏍᏗ	-11.7492
▁ᎤᎵᏍᏙᏰ	-11.7493
ᏟᎶᏍᏗ	-11.7495
ᎾᏓᏛᏁᎭ	-11.7503
ᏲᎱᏍ	-11.7504
ᎩᎵᏲᎢᏍᏗᏍᎬᎢ	-11.7505
▁ᎧᏅᏂᏍᎩᏉ	-11.7506
▁ᎢᏣᏙᎴᎰ	-11.7507
ᏯᏘᏃᎯᏏ	-11.751
ᎷᎪ	-11.7511
ᏐᏈᎵ	-11.7514
ᎯᏯᏍᏗ	-11.7514
▁ᎤᏛᎯᏍᏗ	-11.7518
▁ᎤᏍᏓ	-11.7525
▁ᎤᎵᎬᏚ	-11.754
▁ᏏᎻ	-11.7541
ᎩᏁᏥ	-11.7547
▁ᏆᏙ	-11.7554
ᎾᏓᏛᏁᏗᏱ	-11.7554
ᎶᎨ	-11.756
ᎸᏨ	-11.7561
ᎦᎵᏍᏓᏗᏍᏗᏱ	-11.7564
ᎦᎴᏍᏗ	-11.7571
ᏍᏔᏯ	-11.7572
ᏨᏁᏗᏱ	-11.7577
▁ᏒᏕ	-11.7578
ᏥᎷᏤᎸ	-11.7579
▁ᎨᏦᎯᏳᏗ	-11.7581
▁ᎠᎩᏛ	-11.7582
▁ᎠᏆᏓᏅᏘ	-11.7589
ᎳᏑᎸ	-11.7591
▁ᎢᏨᎪ	-11.7593
▁ᎦᏙᎬᎢ	-11.7593
▁ᎤᎾᏙᎴᎰᏒᏃ	-11.7596
▁ᏒᏃ	-11.7605
▁ᏄᎨᏳᏎ	-11.7607
▁ᎠᏲᎪ	-11.761
ᏤᎶᎯ	-11.762
▁ᎭᎵᏍ	-11.762
▁ᏏᏂ	-11.7622
ᎲᏍᏔᏅ	-11.7623
ᎯᏙᎸ	-11.7626
ᎶᏁᎥ	-11.763
ᏥᎾᏌᎢ	-11.7642
ᏅᎡᎯ	-11.765
ᏙᏯᏅᎯᏕᎢ	-11.7656
ᏂᏏᏁ	-11.7656
ᎮᎸᎯ	-11.7656
▁ᎠᏍᏚᎢᏍ	-11.7659
ᏘᏅᏍᏗᏱ	-11.766
ᏗᎦᏄᎪᎪ	-11.7661
ᏂᏅᏫᏍᏗᏍᎩ	-11.7668
ᏤᏙᎭ	-11.7672
▁ᎠᏎᏛ	-11.7672
▁ᎤᎵᏘᏒ	-11.7679
ᏥᎵᎥᏂᎵ	-11.7697
ᏒᎨ	-11.7699
ᏓᏅᏖᎭ	-11.77
ᎫᏓᎴ	-11.7702
▁ᎢᏳᎵᏍᏔᏁ	-11.7705
ᎬᏔᏅᎯ	-11.771
▁ᎦᏂᎩ	-11.7715
ᏣᏛᎦᏁᎸ	-11.7719
▁ᎣᎨ	-11.7719
▁ᎯᏃᎮᏍᎬ	-11.772
▁ᏚᏃᏒ	-11.7723
ᎦᎵᏍᏙᏗᏍᎨᏍᏗ	-11.7724
ᎪᏗᏍᎩ	-11.773
ᏐᏗᏱ	-11.7731
▁ᎤᏪᎵᏎᎢ	-11.7734
ᎦᏔᏂᎸ	-11.7736
ᎦᏥᏯᏓᏙᎵᏍᏓᏁᎭ	-11.7739
ᎯᎦᏔᎭᏍᎪ	-11.7739
ᏍᏕᏓᎵᏴᏍ	-11.7743
ᏏᏙᎸ	-11.775
▁ᎠᏍᎦᏰᎬᏍ	-11.775
ᏅᏍᏔ	-11.7751
▁ᎦᏰᎪ	-11.7754
ᏍᏓᏩᏗᏙᎭ	-11.7756
▁ᎦᏙᎨᎢ	-11.7757
ᏈᏃ	-11.7762
▁ᎧᎾ	-11.7763
ᏕᏙᏛ	-11.7768
ᎾᏓᏂᎸᏤ	-11.7785
▁ᎠᎾᏡᏗ	-11.7785
ᎵᏁᏌ	-11.7786
ᏣᏓᏅᏔ	-11.7788
ᏂᎦᎸ	-11.7788
ᏰᎸᏅ	-11.7789
▁ᎢᏍᏗᎪ	-11.7793
▁ᏣᏂᎧᏔᎮ	-11.7796
ᎮᎭ	-11.7796
p	-11.7798
ᎾᎵᏍᏓᏴᏗ	-11.78
▁ᏗᏣᏛ	-11.7802
ᏂᏎᎢ	-11.7805
ᏥᏬᏁᏔᏅ	-11.7807
ᏢᎾ	-11.7813
▁ᎤᏂᏔᏲ	-11.7813
ᎸᎾᏉ	-11.7814
▁ᎦᏕᎶᎣᏍ	-11.7814
▁ᎤᏱᎶ	-11.7817
▁ᏚᏏᎳᏛᎢ	-11.7817
ᏥᏯᏅᎲ	-11.7819
▁ᎠᏙᎴᎰ	-11.7824
▁ᎦᎸᏅ	-11.7825
▁ᏥᏕᎲ	-11.7827
ᏩᏂᏌᏁ	-11.783
▁ᏍᏆᏂ	-11.7835
▁ᎠᎩᎬ	-11.7836
▁ᎤᏓᎵᏓᏍ	-11.7836
▁ᎯᏍᏚ	-11.7837
▁ᎣᏂᏍᎩᏂ	-11.7839
ᏴᏍᏕᏍᏗ	-11.784
ᏥᏫ	-11.7841
ᏂᏴᏍᏗ	-11.7843
▁ᏘᏅᎵ	-11.7844
▁ᏥᏣᏓ	-11.7846
▁ᏔᎵᏉ	-11.7848
▁ᎧᏁᏉᎨ	-11.7854
▁ᏂᎬᏅᎩ	-11.7859
▁ᎤᏂᎩ	-11.7866
ᎵᏍᎪᎸᏓᏁ	-11.7868
ᎪᎸ	-11.7881
▁ᎤᏪᎳᏗᏍ	-11.7882
ᎷᏤᎲ	-11.7885
ᏥᏴᎩ	-11.7886
ᏂᎦᎵᏍᏓ	-11.7887
▁ᏧᏬᏢ	-11.7887
ᎾᏰᏍᎬᎢ	-11.7888
▁ᏓᏆᎴ	-11.7905
▁ᎠᏆᏍᏗ	-11.7905
▁ᏓᎩᎧ	-11.7905
▁ᏂᏥᎦᏔ	-11.791
ᏛᏁᎰᎢ	-11.791
▁ᏕᎩᏂᏴ	-11.7911
ᏥᏍᎪᎵ	-11.7912
ᏏᎾᏍᏛ	-11.792
▁ᏓᏥᏃ	-11.7925
ᎷᏏ	-11.7925
▁ᏧᏂᏍ	-11.7926
ᏓᎦ	-11.7934
▁ᏧᏬᏚ	-11.7934
ᏅᏫᏍᏗᏍᎨ	-11.794
ᏍᏓᎡ	-11.7941
▁ᎤᎷᏨᎢ	-11.7941
▁ᏂᎬᏴ	-11.7942
▁ᎠᎵᏍᎩ	-11.795
ᎭᏂᏍᏔᏅ	-11.7952
ᏓᏙᎵᏍᏙᏗᏱ	-11.7954
▁ᎢᏤᎵ	-11.7957
ᎾᎦᏔᎲ	-11.7957
ᎧᎮ	-11.7959
ᏰᎸᎰ	-11.7962
▁ᏚᏂᏲᏒ	-11.7964
▁ᎤᎾᎴᏗ	-11.7964
▁ᏓᏁᎶᏛ	-11.7968
ᎬᏂᏐᏗᏱ	-11.7968
ᏬᎡ	-11.7969
ᏯᎪᎦ	-11.7976
ᎴᏅᏗᏱ	-11.7978
ᎯᏎᎴ	-11.7981
ᏕᏨᎩ	-11.7981
▁ᎤᎨᎢ	-11.7987
▁ᎤᏔᏕᎩᏍᎨ	-11.7989
ᎩᏙᎵᏍᏗᏱ	-11.7991
▁ᎤᎵᏃᎯᏰ	-11.7992
ᏔᎶ	-11.7994
▁ᏧᎾᏁᎳ	-11.8
▁ᏓᎪᏩᏘᏍᎨ	-11.8
ᏰᏅ	-11.8001
▁ᎢᏍᏓᏛ	-11.8003
▁ᏅᎬ	-11.8008
ᏯᏨ	-11.8008
▁ᎾᏗᏍ	-11.8008
ᎵᏎᏗ	-11.8008
▁ᎢᏍᎪ	-11.8011
▁ᎤᏤᎸᏅ	-11.8012
▁ᏫᎦᏅ	-11.8014
ᏘᏍᏓᏁᎯ	-11.8015
ns	-11.8025
▁ᎬᏯᏛᏁ	-11.8035
▁ᏫᏓᎾ	-11.8035
ᎿᎸ	-11.8036
ᏕᏔᏅᎯ	-11.804
ᏫᏍᏔᏁ	-11.8041
▁ᏚᎦᏙᏍᏔᏁ	-11.8045
▁ᏛᎾᎵᏍᏓᏴ	-11.8049
ᏍᏚᏣ	-11.8061
▁ᎬᏩᏯᎢ	-11.8061
ᎦᏡᏓ	-11.8063
ᏆᏓᎾᏰᏍ	-11.8064
▁ᎬᏬᎯᏳᎲᏍᎨ	-11.8066
▁ᎦᏓᏬ	-11.8069
ᏍᎩᏰᏲᎲ	-11.8071
▁ᎤᏃᎮ	-11.8077
ᎵᏲ	-11.8078
ᏰᎵᏎᎭ	-11.808
▁ᏥᏯᏙᎵ	-11.8082
▁ᏓᏂᏃᎮ	-11.8091
▁ᎤᏍᎦᏍᏓᏁ	-11.8092
▁ᎢᏤᎵᏎ	-11.8092
▁ᏂᏚᎾ	-11.8092
ᏓᏁᎮᎢ	-11.8093
▁ᏭᎪᎲ	-11.8094
ᎳᏍᏛ	-11.8094
▁ᏚᏪᏯ	-11.8104
ᏔᏲᏎᎸ	-11.8104
▁ᎬᏩᏲ	-11.8108
▁ᏱᏥᏲ	-11.8108
ᎦᎵᏴ	-11.8121
ᏂᏌᏙᏴ	-11.8128
▁ᎤᏂᎦᏯᎷ	-11.8132
▁ᎡᏣᎵ	-11.8137
ᏑᏱ	-11.8141
ᎧᎸᎩ	-11.8142
ᎾᏓᏂᎸᏨ	-11.8145
ᎦᎵᏍᏓᏛ	-11.8145
▁ᏍᏆᏓᏅ	-11.8154
ᏁᎳᏗᏍᎨ	-11.8158
▁ᎤᏐ	-11.8167
ᎯᏎᎸᎢ	-11.8169
▁ᎠᎪᎵᏰᏍᎪ	-11.817
ᎸᏫᏍᏓᏁᎴ	-11.8174
▁ᎤᏂᏁᏎ	-11.8176
▁ᏚᏒᏁ	-11.8184
▁ᎠᏓᏯᏅ	-11.8187
▁ᎢᏥᏰᎸᏒ	-11.8188
▁ᏯᏍᎦᎢᎮ	-11.8189
▁ᏚᏏᏔᏕ	-11.8193
ᎩᏂᎬᎦ	-11.8199
▁ᏧᎪᎲ	-11.821
ᎾᎩᏪᏒ	-11.8213
▁ᎤᏂᏣ	-11.8214
ᎧᏘ	-11.8221
ᎢᏍᏓᏁᏗᏱ	-11.8223
▁ᏧᎾᎵ	-11.8229
▁ᎢᏍᏆ	-11.8232
▁ᎤᎾᎵᏍᎪᎸᏙᏗ	-11.8234
ᏙᎴᎢ	-11.8239
▁ᎨᏦᎯᏳ	-11.8245
▁ᎬᏩᏛᏓᏍᏓᏁ	-11.8245
ᎾᏲᎪ	-11.8252
▁ᏗᏓᎴᎲᏍᎨ	-11.8256
ᏣᎶᏁ	-11.8261
ᏎᎩ	-11.8264
▁ᏭᏂᏴᏍᏗ	-11.8266
ᎦᏑᏰᏛ	-11.8267
▁ᎤᏬᏎ	-11.8269
▁ᏓᏰᏥ	-11.8269
▁ᎤᎾᏦᏗ	-11.8273
ᏏᏌᏅ	-11.8274
ᎸᏍᏔᏅ	-11.8283
ᎯᏎᎸᎯ	-11.8286
▁ᎠᏥᎪᏗ	-11.8287
ᎫᏍᏛ	-11.8295
ᎳᏅᏓᏕᎸ	-11.8297
ᏥᎩᏍᏗ	-11.8298
ᏣᏃᏁᎵ	-11.8304
ᎨᏙᎰ	-11.8309
▁ᏚᏂᏅ	-11.8309
ᎣᎢ	-11.8314
ᏓᎴᎲᏍᎩ	-11.8321
▁ᏙᏤ	-11.8323
▁ᏥᏓᎾ	-11.8324
ᎾᏉᎯ	-11.8332
ᏓᏅᎦᎸ	-11.8333
ᎩᎸᏔᏁ	-11.8337
▁ᏥᏲ	-11.8339
ᏎᎪᎩ	-11.8339
▁ᏱᏓᎩᏯ	-11.8343
▁ᎥᎩᏁᎸ	-11.8345
ᏬᏂᎯᏍᏗᏱ	-11.8347
▁ᏂᎨᏥ	-11.8351
ᏓᏰᏅ	-11.8351
ᏪᎸ	-11.8353
ᏆᏅᏔ	-11.8354
▁ᏗᏕ	-11.8355
ᏂᏟ	-11.8355
▁ᎬᏆᏕ	-11.8358
ᏤᏅ	-11.8363
▁ᏱᏂᏣᏛ	-11.8364
ᏉᏑᎴ	-11.8364
▁ᏱᏚᏂᎸᏫᏍᏓᏁ	-11.8368
▁ᎠᎾᏅ	-11.8369
▁ᏳᏝ	-11.8374
▁ᎥᎬᏩ	-11.8374
ᏅᎦᎵᏍᎬᎢ	-11.8383
ᎵᎮᎵᏥ	-11.8384
▁ᎤᎧᏙᏍ	-11.8387
▁ᎤᎵᎮᎵᏤᎸ	-11.8389
ᏔᎳᏬ	-11.8398
ᎸᎥᏍᎩ	-11.84
ᎸᏃᏘᎭ	-11.8404
ᎴᏫᏍᏗᏍᎨ	-11.8404
ᏨᎦ	-11.8406
ᏟᏌᏅᎩ	-11.8406
▁ᎤᏍᏆᏂᎪ	-11.8422
ᏍᎦᏃᎸ	-11.843
ᎵᏍᏓᏴᎲᏍᎨᎢ	-11.843
ᎦᏢᏈ	-11.8432
ᏂᏯᏍᏗ	-11.8433
ᎵᏲᎩ	-11.8434
▁ᎠᎾᏛᎩ	-11.8434
▁ᎬᎩᏯ	-11.8434
ᏝᎴ	-11.8438
ᎾᎴᏫᏍᏔᏁ	-11.844
ᏣᏅ	-11.8441
ᎵᎴ	-11.8442
▁ᎬᏯᏛᏁᎸ	-11.8444
ᏥᏯᏬᎥ	-11.8448
▁ᏥᏅᏩᏍᏗ	-11.8448
▁ᎤᏪᏙᎵᏨ	-11.845
ᏒᎦᎳ	-11.8451
ᏛᎦᏁᏗᏱ	-11.8453
▁ᎠᎩᎷᏤᏗ	-11.8454
ᏗᏔᏍᏗᏱ	-11.8465
▁ᏗᏂᏲᎵᏉ	-11.8467
▁ᏙᏓᏥᏯ	-11.8469
ᎾᏗᏅ	-11.8471
ᏯᏛᏗ	-11.8475
ᎬᏩᎪᎲ	-11.8478
ᎾᏄᎪᎨᏍᏗ	-11.8479
▁ᏧᏅᏙᏗ	-11.848
▁ᎲᏂ	-11.8481
▁ᎡᏣᏚ	-11.8482
▁ᏗᎦᎨ	-11.8483
▁ᎤᏛᏓᏍ	-11.8487
ᏩᏉ	-11.8491
▁ᎤᏁᎳᏗᏍᏗ	-11.8492
ᏥᏰᎵᏒ	-11.8494
▁ᏙᏛᏃ	-11.8497
▁ᎤᏬᏪᎳ	-11.85
ᎯᏓᏍᏗᏱ	-11.85
ᏂᏍᏚᎩ	-11.8504
ᎯᏍᏗᏍᎩ	-11.8511
ᏓᎪᏩᏘᎭ	-11.8512
ᏲᏍᏙᏗ	-11.8515
ᎵᏍᏔᏴᎲᏍᎬ	-11.852
ᎩᎧᏏ	-11.8521
ᎾᏚᎵᏍᎨᏍᏗ	-11.8525
ᎬᏁᏗᏱ	-11.8534
ᏌᎾ	-11.8535
ᎫᏱᏍᎨᏍᏗ	-11.8535
ᎦᏥᏴ	-11.8538
▁ᎤᏂᏯᎸ	-11.8547
▁ᏗᎦᏍᎩᎶ	-11.855
▁ᎦᎧᎲ	-11.8555
ᏍᎪᎸᏓᏏ	-11.8555
▁ᏚᏙᏪ	-11.8559
▁ᏕᎶ	-11.856
ᏍᎩᎦᏔᎭ	-11.8562
▁ᏂᎬᏅᎢ	-11.8565
▁ᎬᏩᏁ	-11.857
▁ᏚᏪᎧ	-11.8577
ᏍᎩᏲᏎᎭ	-11.8578
ᏥᏃᏍᏛ	-11.858
ᏕᏋᎯᏍᏗ	-11.8581
ᎾᎿ	-11.8584
ᏛᏁᎵᏍᎩ	-11.8588
ᏣᏲᎭ	-11.86
ᏓᏂᎸᎨᏍᏗ	-11.86
▁ᏧᏂᏁᏤ	-11.8604
ᎦᏄᎪᎬᎢ	-11.8614
ᎵᏎᎭ	-11.8616
ᏫᎨᏙᎲ	-11.8622
▁ᏄᏧᏈᏍ	-11.8622
ᏪᏙᎵᏨᎩ	-11.8626
ᏆᏂᏏ	-11.8629
▁ᎤᎵᏠᏯᏍ	-11.8629
▁ᏚᏙᎥᎩ	-11.8631
ᎾᏓᏅᏖᎸ	-11.8632
▁ᎠᏥᏍᏚ	-11.8633
▁ᎦᏗᏔ	-11.8641
▁ᏂᎬᏂᏏ	-11.8655
▁ᎣᏣᏓ	-11.8655
ᎨᏓᎵ	-11.8657
▁ᎠᏓᎾᏏᏂ	-11.8658
ᏅᏎᎢ	-11.8663
▁ᎠᎩᏩᏛᏗ	-11.8668
▁ᏩᏂ	-11.8669
ᎵᏍᏚᎶ	-11.8671
▁ᏴᎦᏥᏍᎦ	-11.8672
ᎩᎡᎴ	-11.8673
ᎮᏍᎬᎾ	-11.8673
▁ᏳᏴ	-11.8676
ᏛᏓᎴᎲᏍᎩ	-11.8684
ᎸᏉᏗᏍᎨᏍᏗ	-11.8685
▁ᎤᎵᏍᎪᎸᏙᏗ	-11.8686
ᏘᏂᏙᎯ	-11.8687
▁ᏕᎦᏂᏱᏍ	-11.8695
ᏃᎭᏝ	-11.8696
ᎵᏨ	-11.8696
▁ᎤᏂᏲᎰᏎ	-11.8697
▁ᎠᏂᎾᎷᏍ	-11.8702
▁ᏚᎸᏫᏍᏓᏁ	-11.8703
▁ᎢᏥᎧᎵᎢ	-11.8704
▁ᎠᎹᏉ	-11.8707
▁ᎯᏩᏛ	-11.8717
ᎵᏍᏓᏁᏗ	-11.8717
▁ᎨᏥᏰᎸ	-11.8719
ᎦᎸᏓ	-11.8724
ᏣᏓᏱᎸ	-11.8725
ᎾᏄᎪᎬ	-11.8725
▁ᎠᎾᎵᏥᏙᏂᏙ	-11.8728
ᎩᏠ	-11.8729
▁ᎨᏣᏁᎢᏍᏗ	-11.8732
ᏓᏬᎠ	-11.8738
ᏄᎪᏤ	-11.8744
▁ᎲᎾ	-11.8747
ᏄᎪᏫᏍᎦ	-11.8757
ᎦᏔᎲᎢ	-11.877
ᎦᏛᎴᎯ	-11.877
ᏓᏅᏓᏗᏍᏗᏱ	-11.8771
ᏥᏓᏍᏗ	-11.8803
ᏓᏁᎵ	-11.8803
▁ᎦᏁᏟᏴ	-11.8809
ᎦᏙᏍᏕᎢ	-11.8811
▁ᎨᏥᏁ	-11.8812
ᏙᏢᏒᎢ	-11.8813
ᏠᏯ	-11.8838
▁ᎤᏛᏂᏗ	-11.8845
ᏂᏚᏪᏎᎸᎩ	-11.8846
ᏰᎲᎾ	-11.8848
ᏆᏕᏘᏴᎲ	-11.8853
▁ᎠᎵᏍᎪ	-11.8864
ᏱᎵᏙᎭ	-11.8876
▁ᎠᎩᏁᏤ	-11.888
ᏲᎩ	-11.8881
▁ᏄᏪᎡ	-11.8882
ᎾᏰᎯ	-11.8883
ᏑᎵᎪᎬ	-11.8883
▁ᏧᏍᏆᏂᎪᏙᏗ	-11.8892
ᎡᎾ	-11.89
ᏟᏴᎭ	-11.8912
ᏕᏙᎭ	-11.8914
ᏙᎨᏍᏗ	-11.8919
▁ᎯᏃᏁᎸ	-11.8919
▁ᎤᎪᎮᏃ	-11.8925
▁ᏚᏃᏴ	-11.8928
▁ᏨᏛ	-11.8929
ᎧᏁᏥ	-11.8939
▁ᎦᎾᏍ	-11.894
ᏂᏩᏛᎲ	-11.895
ᏄᎮᎵ	-11.8953
ᏁᏙᎯ	-11.8956
▁ᎠᏓᏙᎵᏍ	-11.8956
▁ᏓᏥᎶᏍ	-11.896
▁ᏥᏚᏄᎪ	-11.8963
ᎧᎾᏅ	-11.8974
ᏥᏲᎢᏎ	-11.8976
▁ᏓᏰᎵ	-11.8983
▁ᎢᏣᎫᏱᏍ	-11.8983
ᎷᎬᎾ	-11.8984
ᏂᏍᎪ	-11.8986
▁ᏯᏂᏁ	-11.8994
▁ᎠᎸᎯ	-11.9007
ᎦᏘᏰᎢ	-11.9007
ᎧᎿᏩᏛᏍᏗ	-11.9016
▁ᎢᎦᏓᏅᏓᏗᏍᏗ	-11.9023
▁ᏕᎬᎩ	-11.9024
ᏛᏓᏍᏔᏂ	-11.9034
ᎵᏍᎪᎸᏓᏁᎸᎩ	-11.9044
▁ᏓᎬᏯ	-11.9071
▁ᏣᏄᏬ	-11.9071
ᏂᏍᏘᏰᎬ	-11.9078
ᏯᏑᏰᏛ	-11.9086
▁ᏛᎪ	-11.909
▁ᎢᏤᏓᏍᏗ	-11.909
▁ᎬᏴ	-11.9093
▁ᎯᏍᏕᎸᏗ	-11.9094
▁ᏧᏳ	-11.9094
ᏓᎴᎲᏍᎨ	-11.9096
▁ᎢᏤᏲ	-11.9099
ᎨᎮ	-11.911
ᏣᏢ	-11.9124
▁ᎤᏂᏁᎦ	-11.9125
▁ᎠᏂᎶᏏᏙ	-11.9127
ᏁᎵᏙᎸ	-11.9133
ᏁᎢᏍᏓ	-11.9135
ᎩᏂᏆᏘᎯ	-11.9154
ᏥᏁᏤᎸᎯ	-11.9162
ᏗᏒᏅ	-11.9164
▁ᎬᏔᏅ	-11.9167
ᎧᎾᏩᏗᏙ	-11.9174
ᏖᏆᎶ	-11.9177
▁ᎤᏂᏍᏘᏰ	-11.9184
▁ᏥᏂᏨ	-11.9185
▁ᏧᎵᏍᏚ	-11.919
ᏞᏤ	-11.9192
ᎦᏃᏥ	-11.9195
▁ᏕᏧᎪᏗᏍ	-11.9199
▁ᏧᎫᏴ	-11.9218
ᏧᏣ	-11.9219
ᎾᎦᏔᎲᏍᎬ	-11.9221
ᏉᎯᏳ	-11.9222
ᏤᎵᎦᏯ	-11.9223
▁ᏴᏓᎦ	-11.9224
ᏂᏔᏲᎴ	-11.9226
ᏴᎭᎦ	-11.9234
ᏦᏱ	-11.9249
ᎩᎡᏗ	-11.9253
pi	-11.9255
▁ᎤᏍᏆᎸᏗ	-11.9255
▁ᏣᏕ	-11.9257
ᏓᏑᏴᎢ	-11.9259
▁ᏞᎦᏉ	-11.9262
ᏓᏥᎩᏏ	-11.9269
ᎦᏰᏃ	-11.9271
ᏓᎨᏛ	-11.9271
▁ᎤᏂᏲᎯᏍᏔ	-11.9277
ᏣᏁᎵ	-11.9277
ᏛᏛᏅᎩ	-11.9279
▁ᎠᎧᏔ	-11.928
ᏯᏖᏃ	-11.9282
▁ᏓᎦᏂ	-11.9291
▁ᎬᏭᎯᏍᏗᏍ	-11.9293
▁ᏘᏏ	-11.9295
ᎾᏁᏍᎨᏗ	-11.9299
ᎡᎮ	-11.9302
ᏐᎸ	-11.9302
ᎷᎯᏍᏓᏁ	-11.9305
ᏥᏩᏛᏓ	-11.9314
▁ᎨᎪ	-11.9314
ᏲᎦᏘ	-11.9314
ᏎᎵᏙ	-11.9315
▁ᎢᏥᎪᏩᏛ	-11.9315
ᎶᏂ	-11.932
ᏃᎯᏏ	-11.9332
▁ᏥᎨᏣ	-11.9334
ᎪᏎᎮᏍᏗ	-11.934
▁ᏯᎦᎵ	-11.9343
ᎵᏙᎮᏍᏗ	-11.9346
ᏓᏂᎸᎦ	-11.9353
ᏂᏲ	-11.9358
ᏗᏤᎾ	-11.9362
ᏩᏘᏍᎬ	-11.9366
ᏓᎴᏅᏓ	-11.9372
▁ᎠᎩᏁᎵᏍ	-11.9378
▁ᏧᎾᏓᏁᎳ	-11.9383
ᎵᏂᎪᎯᏍᏓ	-11.9384
ᏑᎴᏗ	-11.9389
▁ᎤᏁᎳᏗᏍ	-11.9392
ᎵᎥᏂᎵ	-11.9395
ᎾᏕᎪ	-11.9396
ᎪᎸᏒ	-11.9397
ᎾᏯ	-11.9399
▁ᏗᏆᏓ	-11.9401
ᏃᏴᎬ	-11.9404
▁ᏗᎦᎶᎯᏍᏗ	-11.9409
ᏆᎵᏍᎪᎸᏓᏁ	-11.9412
ᎶᏍᎨᏍᏗ	-11.9415
ᏩᎯᏎᎴᎢ	-11.9422
ᏩᏁᎲ	-11.9425
▁ᎤᏓᎾ	-11.9428
ᏏᏁᎩ	-11.9428
▁ᏳᎾᏗᏅ	-11.9434
▁ᎢᏥᎦᎵ	-11.9449
ᏁᎵᏍᎨ	-11.9452
ᏩᏐ	-11.9455
ᏴᏢ	-11.9457
ᎦᏘᏯ	-11.9458
▁ᏥᏯᏓᏅᏖᏍ	-11.9459
ᎦᏘᏰᏍᏗ	-11.9465
ᎳᏑᎶ	-11.9471
▁ᏫᏓᏯᏂᏍ	-11.9471
▁ᎤᏂᎶᎯᏍᏗ	-11.9472
▁ᏓᏂᏅ	-11.9477
ᎬᏩᏂ	-11.9477
▁ᎣᏆ	-11.9479
▁ᏳᏔᏲᏎ	-11.9479
ᎧᏅᎩ	-11.9499
ᏬᎥᎢ	-11.9505
ᏥᎪᎥ	-11.9506
▁ᎠᏂᎦᏗ	-11.9506
ᏭᎾ	-11.9507
ᏑᏰᏒᎢ	-11.9508
▁ᎤᏒᎴ	-11.9513
▁ᎠᎦᏘᏃᎮ	-11.9514
▁ᎤᎵᏏ	-11.9516
ᏣᏛᏁᎵ	-11.9521
▁ᏧᎶ	-11.9523
ᏒᏗᏍᎬ	-11.9552
ᏓᏅᏒᎭ	-11.9552
ᏩᏕᎨ	-11.9561
ᏛᏔᏁ	-11.9561
▁ᎠᎩᏁᏤᎸ	-11.9563
ᏓᏙᎵᏍᏓᏁᎮᏍᏗ	-11.9564
▁ᏧᏂᎸᏫᏍᏓᏁ	-11.9565
ᎦᎵᏱ	-11.9566
ᏗᏕᎬᎢ	-11.9569
ᏦᎯᏳᎲᏍᎦ	-11.9574
▁ᎢᏣᏍᏗ	-11.9581
ᏍᏛᏗᏍᎬᎢ	-11.9584
ᏕᏘᏴᏛ	-11.9588
▁ᎠᏂᏯᏫᏍ	-11.9594
▁ᏳᎾᏚᎵ	-11.9596
ᎴᎦ	-11.9598
ᎫᏏ	-11.96
ᏯᎦᏔᏂ	-11.9607
ᏰᎸᎾᏁᏗ	-11.9611
ᏘᏃᎯᏏ	-11.9613
ᏖᎳᏗ	-11.962
ᏩᏛᎡᎮ	-11.9623
▁ᏱᏥᏲᏍ	-11.9625
ᏍᎦᏅᎪᎢ	-11.9628
▁ᏧᏃᎯᏳ	-11.9631
ᏯᎩᏍᎬ	-11.9635
▁ᏧᏬᏎ	-11.9638
ᎩᎵᏲᎢᏍᏙᏗᏱ	-11.9639
ᏐᏯᏍᏗ	-11.9645
ᏗᏫᏎᏗ	-11.9646
▁ᏳᏂᏁ	-11.9653
ᏓᎤᎦ	-11.9664
ᎵᎪᏔᏅ	-11.9665
ᏂᎰ	-11.9675
▁ᏥᎦᎳ	-11.9678
ᎭᎷᎨ	-11.9678
ᎧᎳ	-11.9682
ᏂᎪᎯᏍᏗᏍᎨᏍᏗ	-11.9684
ᏏᏃᎴ	-11.9684
ᎵᏖᎸᎲᏍᎦ	-11.9686
ᏪᏍᏗᏱ	-11.9698
▁ᏱᏣᏛᏓᏍᏔ	-11.9709
▁ᎣᎦᎵᏍᏔᏴ	-11.971
ᏈᏴ	-11.971
▁ᎠᎩᏯ	-11.9711
▁ᎠᏂᎶᏍᎨ	-11.9717
ᏠᏎ	-11.9718
▁ᎤᎴᎾ	-11.9721
ᎵᏍᏔᏁᏗ	-11.9721
ᏓᏅᎡᏗᏱ	-11.9722
ᏓᎩᏅ	-11.9723
ᎵᎪᎲ	-11.9725
▁ᏱᎨᎦ	-11.9728
ᏬᏯᏁᏎᎢ	-11.973
ᏣᏅᏔ	-11.9732
ᎼᏏ	-11.9733
▁ᎦᎾᏄᎪᏫᏎ	-11.9734
ᎸᏅᎩ	-11.9735
ᎨᏳᏒᎾ	-11.9737
ᏕᏯᏙᏓ	-11.9741
ᏙᎻ	-11.9742
▁ᏝᏰ	-11.9744
▁ᎠᏂᎦᏔ	-11.9747
▁ᏭᏭᏓᎸ	-11.975
ᏁᎵᏍᎪ	-11.9751
▁ᏛᏛ	-11.9754
▁ᏕᎦᏥ	-11.9756
ᏡᏗᎭ	-11.9756
ᎴᎲᏍᎬᎩ	-11.9757
ᏪᎶ	-11.9759
▁ᏂᏕᎤᏍ	-11.9761
ᏍᏆᏗᏍᏗ	-11.9763
▁ᎠᏂᏃᎯ	-11.9768
▁ᎢᎾᎯ	-11.9771
▁ᎠᎿᏬ	-11.9773
▁ᏂᏚᎾᏓ	-11.9779
ᏘᏒᎴᎢ	-11.9782
ᏄᏙᎬ	-11.9784
ᎵᏍᏔᏴᎾ	-11.9788
ᏗᏥᏂᏴ	-11.979
ᏗᏓᎴᎲᏍᎪᎢ	-11.9795
▁ᏂᏙᏓ	-11.9799
▁ᏚᏛ	-11.9802
▁ᎤᎵᏍᏔᏁ	-11.9811
▁ᏫᏚᏃᏁ	-11.9815
▁ᎥᎠᎩ	-11.9829
ᏍᏆᏂᎪᏙᏗ	-11.9829
▁ᎣᏍᏕᏙ	-11.9831
ᎪᎯᏳᏗᏱ	-11.9833
ᏲᏍᏙᏓᏁᎸᎩ	-11.9838
ᏂᎶᏒᎯ	-11.984
▁ᎤᏓᏦ	-11.9844
▁ᎤᎵᏍᏚ	-11.9845
ᎡᎲ	-11.9848
▁ᏅᏓᏳᏂ	-11.9852
ᎮᎴᎢ	-11.9854
ᏄᏣ	-11.9856
ᏕᏯᏙᏗᎭ	-11.9865
ᏗᎦᏔᎭ	-11.9865
▁ᎠᏍᏆᏂᎪᏗᏍ	-11.9866
ᏂᎪᏩᏛ	-11.9869
ᏂᏩᏛᎯᏙ	-11.9871
ᎯᏍᏗᏍᎨᏍᏗ	-11.9874
ᎶᏒᎯ	-11.9876
ᏲᏏᏍᎨᎢ	-11.9876
ᎾᏗᎾ	-11.9878
ᏍᏓᎥ	-11.9878
ᏍᏗᎧ	-11.9885
▁ᏗᏠᎯᏍ	-11.989
▁ᎠᎯᏯ	-11.9891
▁ᏣᏓᏅᎦᎸ	-11.9891
lo	-11.9903
▁ᏣᏍᏕᎸ	-11.9911
ᏄᎪᎬᎢ	-11.9913
ᏢᏔ	-11.9917
ᏖᏆᎶᎯ	-11.9919
ᏃᎩᏍᏔᏂ	-11.9923
ᏗᏍᎦᎳ	-11.9929
ᏛᏓᏍᏔᏅ	-11.9931
ᏥᏳ	-11.9932
ᎵᏍᏙ	-11.9946
ᎠᏰᎸ	-11.9952
ᏯᎦᎿᏅ	-11.9958
ᏣᏪᏐᎸᏍᏙᏗ	-11.9964
▁ᏓᏥᏍ	-11.9964
ᏂᏍᏙᏗᏱ	-11.9965
ᏂᎩᏏ	-11.9967
ᏰᎸᏁ	-11.9969
▁ᏕᏣᎸ	-11.9972
▁ᎬᏩᎸᏉᏗ	-11.9975
ᎦᏘᏰ	-11.9978
▁ᎢᏥᎶᏁ	-11.9978
ᏱᏙ	-11.9981
▁ᏓᏳᎾ	-11.9982
▁ᎬᏩᏂᎩᎵᏲᎢᏍ	-11.9988
ᏌᎴᏓ	-11.999
ᎪᏩᏘᏍᎪᎢ	-11.9994
ᏣᏓᏑᏯ	-11.9994
▁ᏫᏥᏂ	-11.9998
ᏓᏒᏂ	-12
ᏥᎸᎯ	-12.0007
ᎾᎴᏗ	-12.0009
ᏚᎾᏛ	-12.0015
▁ᏗᎦᏔ	-12.0026
ᏩᏘᏍᎪ	-12.0028
▁ᎠᎩᎵᏓᏍ	-12.0032
▁ᏗᏥᏲᎯ	-12.0033
ᎮᎵᏍᎬᏉ	-12.0034
ᎯᎶᎥ	-12.0041
▁ᏥᏃᎮ	-12.0041
▁ᏳᏙ	-12.0042
▁ᎥᎬ	-12.0044
▁ᎬᏩᎾᏓ	-12.005
ᏂᏲᎸ	-12.0051
ᏂᏬᏂᎭ	-12.0053
ᎵᏏᏅᏓ	-12.0056
ᎶᎸᎯ	-12.0059
ᏓᏔᎶᎯᏍᏗ	-12.006
▁ᏧᏂᎸᏉᏗ	-12.0066
▁ᎤᎵᎪ	-12.007
ᏚᏓᎳ	-12.0082
ᎩᏂᏴᏎᏍᏗ	-12.0084
▁ᏥᎪᏩᏘ	-12.0085
ᏍᏕᎸᎡᏗᏱ	-12.0085
▁ᏂᏍᎩᏴ	-12.0086
▁ᎢᏕᏙ	-12.009
ᏮᎩ	-12.0099
ᏩᏛᏔᏅ	-12.0099
▁ᎡᏦᎢᏳ	-12.0099
ᎵᎥᏂᎸᎩ	-12.01
▁ᏛᎤ	-12.0101
ᏥᏲᎵᎭ	-12.0107
ᏍᏚᎮᎢ	-12.011
▁ᏱᎪᎯ	-12.011
ᏯᏊ	-12.0111
▁ᎠᏢᏈᏍ	-12.0116
ᏅᏖ	-12.0118
ᏰᎸᏒᎩ	-12.012
ᏟᏴᏗ	-12.0123
▁ᏧᏢᏗ	-12.0126
ᏣᎧᏂᏍᎬ	-12.0139
▁ᎠᎩᏍᏕᎸᏗ	-12.0141
▁ᎢᏥᏯᏅ	-12.0142
▁ᎦᎳ	-12.0142
ᏢᏗᏍᎨ	-12.0144
ᏩᏗᏒ	-12.0146
▁ᏚᎦᏔ	-12.0147
ᏔᎲᎾ	-12.0152
▁ᎤᏂᏍᎪᎸ	-12.0161
ᎸᏫᏍᏓᏁᎭ	-12.0164
ᏥᏍᎦᏅᏤᎸ	-12.0165
ᏘᏍᎨ	-12.0166
▁ᏓᏥᏯᏛ	-12.0171
▁ᏣᏰᎸ	-12.0177
▁ᎤᏩᏙᏗ	-12.0177
ᏣᎦᎸᎮ	-12.0178
▁ᎠᏛᎵ	-12.018
ᎸᎲ	-12.0183
la	-12.0187
ᏲᎯᏎᎴᎢ	-12.0192
ᏈᎵ	-12.02
▁ᏯᏆᏓᏅᏔ	-12.0206
ᏄᏂ	-12.0212
▁ᎠᎩᎷ	-12.0225
▁ᎢᏳᎾᏛᏁ	-12.0227
▁ᎤᏃᎯᎸ	-12.0233
▁ᎠᎩᏍᎦ	-12.0233
ᎧᎿᏅᎩ	-12.024
ᎳᏍᏓᎸ	-12.0242
▁ᏕᏥᎸᏫᏍᏓᏁ	-12.0248
ᏗᏙᎵᎩ	-12.0252
ᎾᏓᏛᏁᎮᏍᏗ	-12.0254
ᎦᏖᏃᎭ	-12.0255
ᏓᏥᏩᏛᎯᏃ	-12.0256
▁ᏗᎷ	-12.0262
▁ᎤᏏᎳᏛ	-12.0268
▁ᏧᏓᏅᏖ	-12.0269
▁ᏚᎧᏁ	-12.0274
▁ᎤᏃᎯ	-12.0275
ᎩᎵᏲᎬᎢ	-12.0275
▁ᎠᏦ	-12.0279
ᏄᎪᏥ	-12.028
ᏗᏅᏎ	-12.0283
ᏣᏅᏓᏗᏍ	-12.0285
▁ᎤᏍᏆᎸᎡ	-12.0286
ᎾᏕᏏ	-12.0292
ᎾᏙᎴᏆᏍᎬ	-12.0294
ᎩᎸᏉᏔᏅ	-12.0296
ᏌᎳᏙᏗ	-12.0296
▁ᎤᏕᏘ	-12.03
▁ᎠᏔᏲᎯ	-12.0301
ᏍᎩᎳ	-12.0301
▁ᎤᎴᏫᏍ	-12.0302
▁ᏧᏔ	-12.0303
ᏓᏂᎸᎪᎢ	-12.0309
▁ᏕᎯᏯ	-12.0309
ᏘᏍᎪ	-12.0309
▁ᎠᏑᏰᏍ	-12.0314
ᎸᏅᎭ	-12.0317
ᏕᎲᎦ	-12.0318
ᎯᏴᏁᎸ	-12.0319
ᎵᏍᎪᎸᏓᏁᎴ	-12.0322
▁ᎤᎾᏕᎰ	-12.0322
ᏒᎸᎩ	-12.0322
ᎵᎮᎵᏨᎯ	-12.0323
▁ᎤᏥᏍᏓ	-12.0324
▁ᎠᏁᏍᎨ	-12.0325
▁ᎠᎵᏖᎸᎮᏍ	-12.0325
ᏦᎯᏳᏅ	-12.0328
ᎸᎪᏫᏍ	-12.0328
ᏆᏙ	-12.0335
ᎤᏅᏎ	-12.0335
ᏂᏗᏍᏗ	-12.0337
ᏪᎵ	-12.0338
ᏂᎪᏩᏘᏍᎨᎢ	-12.0338
▁Ꮬ	-12.034
ᏙᎯᏳᎮ	-12.0345
ᎪᏩ	-12.0348
ᏲᎵᎦ	-12.0354
▁ᏚᏂᏚ	-12.0356
▁ᎬᏩᏍᎦ	-12.0357
ᏓᏅᎵᏰ	-12.0361
ᎦᏘᏗ	-12.0367
▁ᎠᏡᏗᏍ	-12.0374
ᏓᏪᎵᎩᏍ	-12.0375
▁ᎢᏤᏯᏔ	-12.0375
▁ᎠᎩᎾᏄᎪᏫᏍᏗ	-12.0375
ᏂᏍᏔᏅ	-12.0376
ᏍᏛᏗᏍᏗᏱ	-12.0378
▁ᏧᎴᏗ	-12.038
ᏂᎩᏒᎩ	-12.0382
ᏩᏛᏛ	-12.0387
ᎠᏧ	-12.0392
▁ᎡᏥᏄᎪ	-12.0392
▁ᏥᎧᏁᎢᏍᏗ	-12.0393
ᏓᏙᎵᏍᏓᏁᎯ	-12.0397
▁ᎾᏋᏁ	-12.0399
▁ᏕᎪᏢ	-12.0401
ᎸᎡᎴ	-12.0401
ᏓᏘᎾᎥ	-12.0406
▁ᏫᏗᎨ	-12.0406
▁ᎠᏂᎦᏖᏃ	-12.0406
ᏂᏲᎯᏍᏙᏗ	-12.0408
ᏥᏲᎭ	-12.0411
▁ᎣᎩᏍᏛᏗᏍᏗ	-12.0412
▁ᎢᏯᎦ	-12.0412
ᎶᏍᎪ	-12.0414
▁ᏓᏂᎳᏫ	-12.0417
▁ᎣᎩᏍᏛᏗᏍ	-12.042
ᎦᏯᎷᏗ	-12.0425
ᏂᎨᏴ	-12.0425
▁ᏥᏂᏣᎵᏍ	-12.0426
ᏥᏬᏁᏙᏗ	-12.0433
▁ᎬᏩᏍᏕᎸᎯᏙ	-12.0434
▁ᏧᏭᏓᎴ	-12.0447
▁ᎢᏳᏅᏁ	-12.0448
ᏓᏍᎦᎨᏍᏗ	-12.0451
▁ᎢᏯᏥ	-12.0455
▁ᏕᏍᎩᏯ	-12.0457
ᏓᎾᏌᎲᏍᎩ	-12.0465
ᏴᏅ	-12.0465
ᎢᎦᏚᎩ	-12.047
ᎦᏓᎡ	-12.0473
ᎵᏍᏓᏴᎲᏍᎬᎢ	-12.0475
▁ᏓᎨᏥ	-12.0476
▁ᎬᏩᏂᎩ	-12.0479
▁ᎤᎪᎯ	-12.048
ᏫᏒᏅ	-12.048
ᏌᏙᏰ	-12.0486
ᎷᏨᎯ	-12.0489
ᎦᏌᏯᏍᏗ	-12.049
ᏰᎵᏒ	-12.0492
----	-12.0494
▁ᎠᎩᏍᎬ	-12.0498
ᏓᏛᎢ	-12.0505
ᎦᏅᎾ	-12.0509
ᏨᏍᏗ	-12.0509
▁ᎤᏏᏔᏕ	-12.0512
▁ᏯᏂᎸᏉ	-12.0516
ᏛᏗᏕᎬ	-12.052
ᎴᎲᏍᎦ	-12.052
ᏙᎵᏍᏗᏱ	-12.0529
▁ᏚᎾᏕ	-12.0532
ᏥᏍᎬ	-12.0532
▁ᎯᏰ	-12.0534
▁ᏥᏫᎬ	-12.0534
▁ᎤᎵᏖᎸᏂ	-12.0539
ᏑᎦᎸ	-12.0541
▁ᎬᏩᏯᏫ	-12.0541
▁ᏩᏂᏴ	-12.0543
▁ᎤᏓᎪᎾᏛ	-12.0543
▁ᏩᏓ	-12.0544
ᏓᏖᎸᎮᏍ	-12.0545
ᏍᏆᏓᏃ	-12.0553
▁ᏓᎧᎿᏩᏗᏙᎮ	-12.0556
ᏩᏘᏃ	-12.056
ᏳᏨ	-12.0563
ᏒᎦᎶᏗ	-12.0568
ᎦᎵᏍᎨᎢ	-12.0574
ᏂᏆᏘᎲ	-12.0577
▁ᎡᏣᎵᏍᎪᎸᏓᏁ	-12.0579
ᏲᏤᎢ	-12.0581
▁ᎢᏨᏯᎵᏥᏙᏁ	-12.0581
ᎶᎢᏍᏗᏱ	-12.059
ᎱᏁ	-12.0593
ᎬᏩᏛᏗ	-12.0596
▁ᏧᎾᏁᏍᎨ	-12.0596
▁ᏳᏕᎶᎰ	-12.0597
ᏪᏎ	-12.0597
ᏍᏚᏟ	-12.0599
▁ᎦᎵᏗ	-12.0605
▁ᏥᏅᏒ	-12.0606
ᏲᏍᏙᏓ	-12.0607
ᎵᏂᎬᎬ	-12.0608
▁ᏣᏕᎲᏍ	-12.061
ᏯᏅᎮ	-12.0615
ᏄᎪᏫᏎ	-12.0617
▁ᎢᏙᎯᏳᎲᏍ	-12.0619
ᏁᎢᏍᏓᏁᎭ	-12.062
ᏓᏟᏴ	-12.062
ᏏᏔᏕᎢ	-12.0624
▁ᎢᎦᏚᏓᎴᏍ	-12.0624
ᎦᎵᏍᏓᏗᏍᎩ	-12.0626
ᏛᏗᏍᎬᎢ	-12.0631
ᏂᎨᏳᎯ	-12.0633
ᏳᏩᏂ	-12.0634
ᏣᏛᎦᏁ	-12.0634
▁ᏥᎾᏆ	-12.0635
▁ᎢᏨᏲᏪᎳᏁ	-12.0643
ᎵᏌᎳᏓᏅᎩ	-12.0646
ᎯᏐ	-12.0651
ᎦᏔᎲᏒᎩ	-12.0652
ᎵᎪᏁᎸᎩ	-12.0658
ᏍᏔᏁᎲ	-12.066
ᏋᏁᎸᎩ	-12.0663
▁ᏧᎷᏤ	-12.0664
ᎶᎩ	-12.0666
▁ᎠᏂᏃᎮᎵᏙ	-12.0667
ᎶᏍᎦ	-12.0668
ᎠᏯᎨ	-12.0676
▁ᎫᏔ	-12.0677
▁ᎠᎩᏫ	-12.068
▁ᎾᏲ	-12.0686
ᏜᏍᏛ	-12.0687
ᎪᏢᎭ	-12.0687
ᏓᏍᏕᏓᎵᏴᏍᎩ	-12.069
▁ᏱᏂᎬᏩ	-12.0691
▁ᎪᏒ	-12.0694
▁ᎤᏂᏲᎵ	-12.0697
ᏍᏆᎶ	-12.0697
ᏣᎷᏤᎵ	-12.0701
ᎴᏒ	-12.0703
ᏓᏬᎢ	-12.0706
▁ᏄᎾᏓ	-12.0707
ᏘᏃᎮᏗᏱ	-12.0707
ᏓᎷᎸ	-12.0708
▁ᏓᎦᏢ	-12.071
ᏐᏢᏗᎭ	-12.0711
ᏃᎮᎴᎢ	-12.0714
ᎨᏎᏍᏗ	-12.0716
▁ᏧᏚᎢᏍᏓᏁ	-12.0719
ᏍᎪᏎ	-12.072
▁ᎢᏣᏠᏯᏍ	-12.0721
▁ᏚᎾᏁᎶ	-12.0724
ᏥᏍᏕᎸᏗᏱ	-12.0727
▁ᏗᏧᎪᏓ	-12.0727
▁ᏗᎦᏄ	-12.0728
▁ᎯᏅᏁ	-12.0733
▁ᎤᏂᏁᏉ	-12.0739
▁ᎢᎠᏓ	-12.0741
▁ᏧᏢ	-12.0741
ᏅᏩᏅ	-12.0745
ᏂᏴᎩ	-12.0749
ᏯᏓᏱ	-12.0752
ᎬᏩᏟ	-12.0755
ᎱᏍᏕᏎᎸ	-12.0757
▁ᎤᏂᏐ	-12.0757
ᏚᏂ	-12.0761
ᎩᎳᎾᎳ	-12.0762
▁ᏱᏭ	-12.0763
ᎾᏝᎾᎥᎢ	-12.0763
ᏂᎰᎢ	-12.0768
ᏏᏅᎯ	-12.0769
ᏬᏯ	-12.0773
ᎧᎿᏩᏛᎡ	-12.0774
▁ᎡᏥᎾᏰᏍ	-12.0775
▁ᏓᎦᏛ	-12.0776
▁ᎤᎾᎵᏍᏗ	-12.0776
ᏂᎶᏍᎨᏍᏗ	-12.0781
▁ᎾᏂᏪ	-12.0783
ᎵᏂᎪᎯᏍᏔᏅ	-12.0786
ᎵᏃᎮᏙᏗᏱ	-12.0786
ᏯᎴ	-12.0792
ᏅᏓᏗᏍᎪ	-12.0795
ᏥᏍᏕᎸ	-12.0798
▁ᏂᎨᏣ	-12.0799
ᏟᎶᎡᎸ	-12.0799
ᏍᏉᏟᎢ	-12.0799
ᏓᎷᏯᏛ	-12.0799
▁ᏓᏂᏁ	-12.0805
▁ᎾᎾᏛᏁ	-12.0806
ᏍᏆᎵᏎ	-12.0806
ᏑᏰᏎᎢ	-12.0806
ᏕᎰᏍᎨᏍᏗ	-12.0807
ᎦᎷᏯ	-12.0807
ᏅᏍᎪᎢ	-12.0812
▁ᏕᎦᏥᏯ	-12.0818
ᎾᏁᎴ	-12.082
▁ᎠᎩᎶ	-12.0821
ᏑᎴᏍᏗ	-12.0823
▁ᎤᎾᏘᏲ	-12.0824
▁ᎠᎵᎮᎵᏍ	-12.0833
ᏌᏛᎥᏍᎬ	-12.0838
▁ᎢᎫ	-12.0841
▁ᎠᎾᎵᏍᏓᏴᏗᏍ	-12.0847
ᏉᏗᏍᎬ	-12.0848
▁ᏦᎸ	-12.0849
▁ᎤᎦᏌ	-12.085
ᎦᏔᎾᎢ	-12.085
ᏯᏛᏁᎵ	-12.0853
ᏣᏓᏅᎦᎸᏛ	-12.0857
ᏟᏍᏔᏁ	-12.0857
ᏂᏒᎩ	-12.0857
ᏕᏍᏗᏍᎨᏍᏗ	-12.0857
ᎬᏂᏍᏗ	-12.0857
▁ᎤᏂᏄᎸ	-12.0862
ᏓᏰᎨᏍᏗ	-12.0863
ᏓᏣ	-12.0869
ᏍᎩᏓᏒᎢ	-12.0872
ᏗᏔᎲᎩ	-12.0875
ᏒᎴᎢ	-12.088
ᏁᎵᏒᎢ	-12.0881
▁ᎠᏆᏛᎦ	-12.0882
▁ᎤᎦᏛᎾ	-12.0884
▁ᏧᏥᏍ	-12.0885
ᏥᏅᏁᏗ	-12.0888
▁ᏃᎦᎵᏍᏔ	-12.0889
ᏅᎢᏍᏗ	-12.0889
ᎵᏍᏗᏍᎨᏍᏗ	-12.0892
ᏦᎯᏳᏒᎢ	-12.0895
▁ᏚᎵᏍᏚ	-12.0895
ᎯᏍᏓᏁᎯ	-12.0896
ᏓᏙᎵᏍᏔᏁᎢ	-12.0903
ᏲᏍᏙᏗᏱ	-12.0906
▁ᏚᏓᏂᎸᏤ	-12.0906
▁ᏍᎩᏯᏕᎶᏆ	-12.0916
ᏓᏁᎶ	-12.0916
▁ᎤᏂᏍᎦ	-12.0918
▁ᎠᏢᏆᏍ	-12.092
▁ᎨᎶ	-12.0927
ᏥᏎᎪᎩ	-12.0927
▁ᏳᏩᏛ	-12.0928
▁ᏗᎦᏂᏴ	-12.0932
▁ᎢᏧᎳᎭᏉ	-12.0936
ᏂᎴᎢ	-12.094
▁ᎤᏂᏍᏆ	-12.0943
▁ᏧᎬᏩ	-12.0947
▁ᏓᎧᎿ	-12.0948
ᏲᏏᏌ	-12.0952
ᏫᏚᏓᎢᏅ	-12.0953
ᎦᏌᏬᎢ	-12.0955
▁ᎤᏕᏒ	-12.0956
ᏄᎪᎢ	-12.0958
ᏯᏙᏤᎮᏍᏗ	-12.0959
▁ᏧᎾᎵᎪ	-12.096
▁ᏱᏄᎾᏛᏁ	-12.0965
ᏄᏍᏕᎢ	-12.0967
ᏅᏗᏍᏗ	-12.0968
ᏕᏍᎩ	-12.0968
ᎴᏂᏙᎸᎢ	-12.0968
ᏣᎢᏒ	-12.0969
▁ᎠᎾᎵᏍᎪᎸᏗᏍ	-12.0969
ᏯᏍᏛᎾ	-12.0972
ᏪᎭ	-12.0974
▁ᎤᎸᏌ	-12.0976
▁ᏚᏭᎪᏓᏁ	-12.0976
ᏩᏕᏁᎴᎢ	-12.0977
ᏴᏈᏛ	-12.0981
ᏁᏟᏴᎡᏗ	-12.0981
▁ᏧᏓᏄ	-12.0981
▁ᎭᏓᏅ	-12.0982
▁ᎤᎾᏓᏛᏁ	-12.0982
▁ᏚᏂᏣᎦ	-12.0984
▁ᏕᏍᏓ	-12.0984
ᏅᏯ	-12.0985
ᏟᏍᏗᏍᎪᎢ	-12.0986
ᏡᏓ	-12.0987
▁ᎣᏥᏃᎮ	-12.0992
ᏬᏅ	-12.0993
▁ᏣᎧᎵᎢ	-12.0994
ᎬᏫᏳ	-12.0996
▁ᎤᏓᏠᏍ	-12.0997
ᎯᏳᏒᎾ	-12.0997
ᎩᎸᏂ	-12.0997
ᏚᎨ	-12.0998
▁ᏓᏁᎶ	-12.0999
ᏬᎯᏳᏅ	-12.1
▁ᏱᏫᏨ	-12.1001
ᏔᏍᎪᎢ	-12.1001
▁ᎤᏔᏕ	-12.1002
ᏣᏯᏅ	-12.1002
▁ᎤᏍᏢᏂᏍ	-12.1004
▁ᎤᏁᎵᏤ	-12.1004
ᏯᏅᏓᏗᏍᎪ	-12.1005
▁ᏚᏟᎶᏍᏓᏁᎴ	-12.1013
▁ᎬᏬᏎ	-12.1014
ᎣᏒ	-12.1017
▁ᎾᏅᏁ	-12.1024
▁ᎠᏂᏯᎡ	-12.1028
ᏌᎳᏗ	-12.1028
ᏥᎪᏗ	-12.1029
ᎾᏄᎪᏫ	-12.103
▁ᎤᏂᏄᎪᏤ	-12.1032
▁ᎤᎾᏙᏓ	-12.1033
▁ᏣᏚᏓᎴ	-12.1034
ᎱᏍᏕ	-12.1034
ᏣᎴ	-12.1037
ᏏᏙᎰ	-12.1039
ᏘᏃᎵ	-12.104
ᏍᏔᏁᎮ	-12.1041
▁ᎤᏍᏆᏂ	-12.1044
ᏚᎳ	-12.1044
▁ᏂᏍᏋᏁ	-12.1046
▁ᎦᏰᏥᏙ	-12.1047
▁ᏂᏍᎩᏪᏎ	-12.1048
ᏰᎵᏒᎩ	-12.1049
ᎤᏍᏆᏂᎩ	-12.105
ᏣᎬ	-12.1051
ᏍᏆᏙᎾ	-12.1052
ᏩᏂ	-12.1052
ᎾᏛᏁᏗᏱ	-12.1055
▁ᏕᎫᎪᏗ	-12.1055
ᏔᎩᏍᏗ	-12.1056
▁ᏩᎫ	-12.1057
ᏟᏴᎮᎢ	-12.1057
ᎧᎵᎵ	-12.106
▁ᎡᏍᏓ	-12.1063
▁ᎠᏲᏞ	-12.1066
ᏁᏅᏒᎩ	-12.1066
▁ᎱᏰ	-12.1067
▁ᎠᏓᏄᏖᏲ	-12.1069
ᎦᏃᎸ	-12.1069
▁ᎤᎾᎴᎿᏫᏍ	-12.1069
▁ᎤᎵᏍᏕᏍᏔ	-12.1069
ᏓᎦᏘᎴ	-12.1069
▁ᏣᏛᏗ	-12.107
ᏍᏚᎸ	-12.1072
▁ᎤᎾᏚᎵ	-12.1073
ᎬᏍᎪᎸᏁ	-12.1073
ᎤᏃᎴ	-12.1074
▁ᏚᎾᏄᎪᏫᏎ	-12.1075
▁ᏂᏓᏛ	-12.1077
ᏍᏕᎸᏙᏓ	-12.1077
▁ᎠᎩᏲᎰ	-12.108
▁ᎢᏓᎴᏂᏙ	-12.108
▁ᏚᎾᏚᏫᏍ	-12.1081
▁ᎠᏂᏏᎾ	-12.1083
▁ᏩᏂᏴᎯ	-12.1083
▁ᎢᏣᏓᏙᎵᏍ	-12.1084
ᎩᏂᏴᏗ	-12.109
ᎭᏲᎮ	-12.1092
ᏂᎬᏎᎲᎢ	-12.1093
▁ᎤᏕᏯᏙ	-12.1094
▁ᏥᏩᏂ	-12.1094
▁ᏗᏩᎾᎦᎳ	-12.1094
ᎫᏓᎴᏏ	-12.1095
▁ᏗᎾᏓᏅᏟᏉ	-12.1097
▁ᎤᎭᏲ	-12.1097
ᏍᎫᏕᏍᎬ	-12.1097
ᏖᎳᏕ	-12.1099
ᏍᏗᏰᏕ	-12.1099
▁ᏓᎵᏂᎪᎯᏍᏗᏍ	-12.11
ᏑᎴᎥ	-12.1102
▁ᎠᎫᏬ	-12.1104
ᏲᏎᎲᎩ	-12.1105
ᎿᏩᏗᏒ	-12.1105
ᏄᏍᏕ	-12.1105
ᏣᏓᏂᎸᎩ	-12.1107
▁ᏛᎾᏓ	-12.1107
ᏓᎦᎵᏍᏙᏔᏂ	-12.1108
ᏍᎩᏓᏒ	-12.1108
▁ᏳᏣᏅᏓᏕ	-12.111
ᎯᏍᏔᏁᎢ	-12.1113
▁ᎠᏂᎦᏘᏗᏍ	-12.1113
▁ᏙᏍ	-12.1113
▁ᏥᏄᏛᏁ	-12.1114
ᎿᎷ	-12.1116
ᎵᏍᏓᏴᏔᏂ	-12.1118
ᏂᎸᏫᏍᏓᏁᎸ	-12.112
ᏍᎪᏂᎯ	-12.1121
▁ᏗᏥᏯ	-12.1124
ᏁᏤᎴᎢ	-12.1125
ᏛᏁᎸᎩ	-12.1126
▁ᏱᏅᏩ	-12.1127
▁ᏥᏥᏯ	-12.1128
ᏙᏩᏗᏍ	-12.1129
ᎵᏍᎦᏍᏙᏔᏂ	-12.1129
▁ᎤᏃᎱ	-12.113
▁ᏓᎩᎸᏫᏍᏓᏁ	-12.1131
▁ᏱᏄᎾ	-12.1131
ᏠᏏ	-12.1132
▁ᏴᎨᏣ	-12.1133
ᏥᎨᏳᎭ	-12.1134
ᏍᏕᎸᎲ	-12.1134
ᎵᏍᏚᎸ	-12.1137
ᏦᏕ	-12.1139
▁ᏄᏛᎾ	-12.114
ᎩᏍᏕᎸᎯᏙᎸ	-12.114
ᏓᏅᏓᏗᏍᏓ	-12.1141
ᏪᏎᎮᎢ	-12.1145
▁ᎠᏂᏬᏂᏍᎨ	-12.1147
ᎵᏙᎰ	-12.1151
ᎪᏩᏛᎡᏗ	-12.1151
ᏂᏪᏍᎨ	-12.1151
ᎬᏆᏛᎦᏁ	-12.1153
▁ᎤᎾᏡ	-12.1155
ᎸᏉᏙ	-12.1156
ᏴᎡᎲ	-12.1158
ᎪᎸᏛ	-12.1158
▁ᏓᏕᏙ	-12.1158
ᎬᏍᎦᎳ	-12.1159
ᏃᎮᏢ	-12.1159
ᏂᎨᏳ	-12.116
“	-12.116
ᏓᏁᏣᏍᏚ	-12.116
ᏂᎨᎯᏙᎴᎢ	-12.1161
ᎦᏙᎨ	-12.1162
▁ᏂᏥᏯ	-12.1163
ᏓᏛᏁᎲᎩ	-12.1163
ᏴᎯᎲ	-12.1163
▁ᏚᏂᏰ	-12.1164
▁ᎢᏣᎨᏳ	-12.1166
ᎼᏂ	-12.1168
ᏫᏍᏗᏍᎩ	-12.1173
ᏰᎸᏍᏗ	-12.1174
▁ᎤᏂᏲᎰ	-12.1175
ᏥᏍᏢ	-12.1175
ᎫᎩ	-12.1177
▁ᏓᎾᏟ	-12.1178
ᏁᎫᏥᏛ	-12.1179
ᏓᏴᎳᏔᏍ	-12.1179
ᏂᎾᏫ	-12.118
▁ᏗᏓᎾ	-12.1181
ᏣᏚᎵᏍᎨᏍᏗ	-12.1181
▁ᏱᏂᏨ	-12.1181
ᎧᏁᏗᏱ	-12.1182
▁ᏫᎦᎶᎯ	-12.1183
ᏓᏥᏯᏅᎯ	-12.1183
▁ᎠᏇᎷ	-12.1183
ᏲᏍᏔ	-12.1184
▁ᎤᎦᎾᏬ	-12.1185
▁ᎤᎾᎴᏫᏍ	-12.1186
ᎪᏓᏁᎯ	-12.1188
ᎶᏁᎢ	-12.1188
ᏅᎦᎸᏗ	-12.119
ᏩᎾᎦᎶ	-12.1191
ᏧᏁᏍᎨᎮᎢ	-12.1192
ᏚᏂᎳᏫᏤ	-12.1192
ᎦᏄᎳᏥ	-12.1192
▁ᎠᏛᏅᎢᏍᏗ	-12.1193
ᏙᏯ	-12.1193
▁ᏂᏍᏆᏛᏁ	-12.1193
ᎣᎨᏅ	-12.1194
ᎭᏂᎸ	-12.1194
ᏄᎸᎲ	-12.1194
ᏧᏓᎴᏅ	-12.1194
ᎭᎾᏬ	-12.1196
ᎤᏛᏎᎢ	-12.1196
ᏘᏅᏍᏓ	-12.1197
▁ᎥᏥᏯ	-12.1199
ᏓᏟᎶᏍᏗᏍᎬ	-12.1199
▁ᏗᏤᏍᏙ	-12.12
ᎦᏕᎶᎣᏍ	-12.1201
ᏟᏂᎬᏁᎸ	-12.1202
ᎿᎥ	-12.1202
ᏂᎨᏐ	-12.1202
ᎬᏬᏎᎸᎩ	-12.1203
ᎾᎾᎵᏍᏗ	-12.1204
ᏍᎩᎾᎾ	-12.1207
ᏓᏍᏔᏅᏅ	-12.1207
ᏓᏰᏙᎳᏛ	-12.1207
ᎤᏁᎫ	-12.1207
ᏣᎪᏍᏗ	-12.1208
ᎩᎶᎯᏍᏗ	-12.1209
ᏣᏅᏓᏕ	-12.1209
▁ᎢᎤᎾᏨᏎ	-12.121
▁ᎤᏅᏩᏁ	-12.121
▁ᎨᏣᏡᏗᏍᎬ	-12.121
▁ᏚᎧᎿᏩᏗᏙᎮ	-12.121
▁ᏧᎩᏥᏍᎪ	-12.121
▁ᎠᎾᎵᏅᏢ	-12.121
▁ᏭᎩᎸᏁ	-12.121
ᏄᏩᏂᏌᏅ	-12.121
ᏕᎾᏓᎪᎲᏳ	-12.121
▁ᎤᏍᎦᏅᏥᏙᎸ	-12.121
▁ᏄᏍᏆᏂ	-12.121
▁ᏧᏲᏏᏍᎨ	-12.121
ᏄᎾᏓᎴ	-12.121
▁ᎤᏁᎢᏍᏓᏁᎸ	-12.121
ᎵᏍᏓᏴᏁ	-12.121
ᏍᎪᏂᏍᏗ	-12.1211
ᎠᎾᏓᎪᎾᏗᏍᎬ	-12.1211
ᏬᎯᏳᏁ	-12.1211
ᏚᏳᎪᏛ	-12.1211
▁ᏂᏚᏛᏁᎴ	-12.1211
▁ᏙᏗᎧᏂᏍᎬ	-12.1211
ᏓᎴᏍᎬᎢ	-12.1212
ᏘᏲᎸ	-12.1212
ᎤᏂᎶᏒ	-12.1213
ᎪᎯᏳᎲᏍᎪ	-12.1213
ᎤᏁᎢᏍᏔᏅ	-12.1213
ᎤᎾᏛᎪᏗᏱ	-12.1213
▁ᎢᏥᎾᏰᏍᎬ	-12.1214
▁ᎤᏟᏍᏔ	-12.1214
ᏙᏓᎦᏥ	-12.1215
ᎤᎵᏍᏙᏔᏅ	-12.1215
▁ᏗᎦᎸᏫᏍ	-12.1215
ᏍᎩᏃᎯᏏ	-12.1215
▁ᎠᎩᎵᏲᎬ	-12.1215
▁ᎠᎩᏯᎥ	-12.1215
ᎤᎵᏍᎨ	-12.1216
ᏓᏳᎶᏒ	-12.1217
ᏓᏗᏍᏗᏱ	-12.1217
ᎤᎦᏃᏩ	-12.1217
ᎠᏂᎪᏕᏍᎩ	-12.1217
▁ᏫᎬᏩᏴᏔᏁ	-12.1218
ᏧᏓᎴᏁ	-12.1218
▁ᏫᏓᎧᏁ	-12.1218
ᎠᎦᏴᎵ	-12.1218
ᎤᎵᏍᏆᎸᏗ	-12.1218
ᏚᎾᏙᎥ	-12.1218
▁ᏧᏂᎳᏫ	-12.1218
ᏦᎴᏍᏗ	-12.1218
ᎤᎾᏄᎪᏫᏎᎢ	-12.1218
ᎠᏥᎸᏉᏗᏳ	-12.1218
▁ᎤᏁᎳᏫᏎᎲ	-12.1219
▁ᏕᎦᎸᏫᏍᏓᏁᎸ	-12.1219
▁ᏥᏮᎦᏙ	-12.1219
▁ᏭᏩᎦᏘᏗᏒ	-12.1219
ᏥᏍᏕᏥ	-12.1219
▁ᏄᎾᏛᎿᏕᎬ	-12.1219
▁ᎤᏘᏃᎴ	-12.1219
ᏗᎵᏍᏓᏴᏗᏱ	-12.1219
ᎡᎳᏆᏗ	-12.1219
ᏠᎨᏏ	-12.1219
ᏕᎤᏙᎥ	-12.1219
▁ᏨᏓᎸ	-12.1219
▁ᎣᎩᎪᎲ	-12.122
▁ᏥᏂᎨᏎ	-12.122
ᏄᎾᏛᏅ	-12.122
ᎩᎨᏳᏒᎢ	-12.1221
ᎢᎪᎯᏓ	-12.1221
▁ᎤᏗᏔᎮ	-12.1221
▁ᏚᏪᎧᏁ	-12.1221
ᎨᏥᏍᏕᎸᏗ	-12.1221
ᏂᎪᎯᎸᎾ	-12.1222
▁ᎣᏥᏃᎮᏍᎬ	-12.1222
▁ᏕᏥᎧᎿᏩᏗᏒ	-12.1222
ᎬᏬᎵ	-12.1222
ᎡᏆᎭᎻ	-12.1222
▁ᎤᏅᏓᏗᏗᏒ	-12.1222
▁ᏧᎾᏄᎪᏫᏎᎴ	-12.1222
ᏅᎢᏍᏔᏅᎯ	-12.1223
▁ᏓᏓᏁᎳᏗᏒ	-12.1223
▁ᏱᎪᎵᎨ	-12.1223
▁ᏗᏆᏓᎴᏅ	-12.1223
▁ᏱᎦᏅ	-12.1224
▁ᎠᎩᏐᏅ	-12.1224
ᏧᎬᏩᎶᏗ	-12.1224
▁ᎤᏛᎦᏍᏔᏁ	-12.1224
▁ᏗᏣᎸᏫ	-12.1224
▁ᏅᏓᎬᏩᎾ	-12.1224
ᏍᏛᏗᏍᎨ	-12.1224
▁ᎠᎾᏓᏩᏛᎯᏙ	-12.1224
ᏂᎬᎾᏛ	-12.1224
ᏚᎳᏑᏝ	-12.1225
ᎤᏁᎦ	-12.1225
ᏄᏂᏪᏎᎢ	-12.1226
ᏃᏈᏏ	-12.1226
ᏚᏍᏆᏃᏴ	-12.1226
ᏅᏁᎭ	-12.1227
ᏳᏩᏁᎦ	-12.1227
ᏍᎩᏯᏘᏃ	-12.1227
ᏩᎫ	-12.1228
ᏧᏁᎬ	-12.1228
▁ᏚᏠᏒᏎ	-12.1228
ᏛᏅᎢᏍᏔᏁ	-12.1229
▁ᎤᏍᏆᏂᎪᏔᏁ	-12.1229
ᎡᏒᎭ	-12.1229
▁ᎤᏓᏙᎵᏍᏓᏁᎴ	-12.1229
ᎶᏄᎮᏗ	-12.1229
ᎦᏙᎬᎩ	-12.1229
▁ᏓᏂᏬᏂᏍᎬ	-12.1229
▁ᏕᏣᏓᏘᎾᎥ	-12.1229
ᎤᎾᏣᏅ	-12.1229
ᏩᎶᏏ	-12.1229
▁ᎤᏓᏙᎵᏣ	-12.1229
ᏯᏘᏅᏍᏗ	-12.123
▁ᏧᏂᎦᏴᎵ	-12.123
ᎮᎵᎠ	-12.1231
ᎠᏥᎸ	-12.1231
▁ᏂᏚᏅᏁᎴ	-12.1231
ᏚᏬᏁᏔᏁᎢ	-12.1231
ᎤᏁᎬ	-12.1232
ᎾᏘᏲ	-12.1233
ᎢᏳᏍᏘ	-12.1233
▁ᎩᎾᎵ	-12.1233
▁ᏚᏚᎪᏔᏅ	-12.1233
ᎵᏥᏙᏁᎭ	-12.1234
ᏅᎥᏍᎩ	-12.1234
▁ᎬᏩᏕᏁᎴ	-12.1234
▁ᎠᏂᎷᎨ	-12.1236
ᎮᏂᎵ	-12.1236
ᏓᎵᏂᎪᎯᏍᏙᏗ	-12.1237
ᎤᏲᏨ	-12.1237
ᏗᎧᎿᏩᏗᏙᎯ	-12.1237
ᏗᎪᏢ	-12.1238
▁ᎾᏥᏪᏎᎴ	-12.1238
ᎠᏓᏅᏙ	-12.1238
ᏂᏤᎷᎯ	-12.1239
ᏍᎪᎸᏙᏗ	-12.1239
▁ᏣᎵᏂᎩ	-12.1239
▁ᎠᏥᏰᎸᎾᏁᎴ	-12.1239
ᏖᎸᏂ	-12.124
ᏏᎾᏌᏅ	-12.124
ᏣᎬᏫᏳᎯ	-12.124
▁ᎤᏂᏲᏠᎯᏎᎸ	-12.124
▁ᏂᎦᏥᏪᏎᎸ	-12.124
▁ᎬᏩᎪᎮ	-12.124
▁ᎾᏆᏛᎿᏕᎬ	-12.1241
ᏧᏓᎴᏅᏓ	-12.1241
▁ᎦᏅᏬ	-12.1241
▁ᎣᎦᏓ	-12.1242
▁ᎯᎦᏍᎦᏂ	-12.1243
▁ᏫᎾᎩ	-12.1243
ᏓᏙᎵᏣᏘ	-12.1243
▁ᏚᏃᏕ	-12.1243
ᏦᏓᎸ	-12.1244
▁ᎤᏪᏙᎴ	-12.1244
ᎠᎩᎪᏩᏛᏗᏱ	-12.1244
ᏍᎦᏅᏥᏙᎸᎢ	-12.1245
ᎤᎵᎮᎵᏍᏗ	-12.1245
ᎩᎪᎲᎯ	-12.1245
ᎾᏛᏁᎮ	-12.1246
ᏌᎳᏛ	-12.1246
▁ᏲᏣ	-12.1246
▁ᎠᎵᏍᏆᏗᏍᎬ	-12.1247
ᎩᏍᏕᎸᎯᏓᏍᏗ	-12.1247
ᏖᏍᎬ	-12.1247
ᏁᎥᎭ	-12.1247
▁ᏫᏗᎬᏩ	-12.1248
ᏐᎴᏍᏗ	-12.1248
▁ᏧᏍᏆᏂᎪ	-12.1248
▁ᏗᎦᏙᎨ	-12.1248
▁ᎤᏁᏙᎴ	-12.1248
▁ᏚᏍᏓᏩᏛᏎ	-12.1248
ᏥᎨᏳ	-12.1248
▁ᏫᏓᏆᎧᎾᏅ	-12.1248
▁ᎤᎾᏚᎵᏍᎪ	-12.1249
▁ᏧᏆ	-12.1249
ᏩᏘᏍᎬᎾ	-12.1249
▁ᏓᏰᏙᎳ	-12.1249
ᎵᏍᎦᏂᏍᏛ	-12.1249
▁ᎤᏓᏏᏁ	-12.1249
ᎾᏓᎵᏁᎯᏕ	-12.1249
ᎢᏧᎳᎭ	-12.1249
▁ᎤᏪᏙ	-12.1249
▁ᎠᏯᏙᎯ	-12.125
ᏍᎩᎾᏛ	-12.125
ᎦᎾᏏᏍᎩ	-12.125
▁ᏭᏣᏅ	-12.125
▁ᎤᎵᏖᎸ	-12.125
ᎾᏫᏛᏛ	-12.1251
▁ᎤᏂᏍᎦᎴ	-12.1251
ᎬᏬᎯᏳ	-12.1251
▁ᎡᎦᎫᏴ	-12.1251
ᏔᎵᏁ	-12.1251
▁ᎤᎾᏓᏙᎵᏍᏓᏁᎸ	-12.1252
ᏓᏪᎳᎩᏍᎬ	-12.1252
▁ᎤᏕᏁᎴ	-12.1252
▁ᎤᏂᏍᏆᏂᎪᏒ	-12.1252
ᏍᎩᏙᎵᎩ	-12.1253
▁ᏭᏂᏴᎴ	-12.1253
▁ᎴᎻ	-12.1253
ᎹᏅ	-12.1253
▁ᏄᎾᏛᏁ	-12.1254
ᎦᎾᏬᏍᎬ	-12.1254
ᏗᏥᏁᏟᏴ	-12.1254
ᏲᎱᏏᏕᎾ	-12.1254
▁ᎣᏤᎲ	-12.1255
ᏃᎯᎸᏍᏔ	-12.1255
▁ᏂᏚᎵᏍᏔᏅ	-12.1255
ᎵᏱᎵᏕ	-12.1255
▁ᏧᎾᏤ	-12.1256
▁ᎤᎾᎦᏎᏍᏛ	-12.1256
▁ᏚᏬᏢᏅ	-12.1256
ᏄᏩᏁᎴ	-12.1256
ᏴᏓᏆᎶᏍᎬ	-12.1257
▁ᏧᎾᎵᏂ	-12.1258
▁ᎿᏛ	-12.1259
▁ᎤᏬᏂ	-12.1259
▁ᎤᏬᏪᎳᏅ	-12.1259
ᎦᏰᎬᏍᏔ	-12.1259
ᏨᏏᏰᏗ	-12.126
ᏅᏍᎦᎸ	-12.126
ᎵᏠᏯᏍᏕᏍᏗ	-12.126
ᏆᏓᏅᏖᎸ	-12.126
ᏡᎩ	-12.1261
▁ᎨᏥᏌ	-12.1261
▁ᏥᎧᏁ	-12.1261
▁ᏄᎵᏂᎬ	-12.1261
ᏴᏓᏆᎶᏍᎩ	-12.1261
ᏗᎦᎶᏗ	-12.1262
▁ᎠᏩᏘᏍᎪ	-12.1262
ᏓᎾᏏᏂ	-12.1262
ᏙᎴᏆᏍ	-12.1262
▁ᏧᏃᏪᎳᏅ	-12.1263
▁ᏄᏂᏪ	-12.1263
ᏎᎦᏨ	-12.1263
▁ᎤᏗᎴᎲ	-12.1263
▁ᎤᎾᎳᏍᏓᎡ	-12.1263
ᏄᎯᏍᏗᏍᎬ	-12.1263
▁ᏧᏂᎷᏫᏍᏔᏁ	-12.1264
▁ᎤᎵᏨᏓᏆ	-12.1265
▁ᏓᎾᏕᏲᎲᏍ	-12.1265
▁ᎠᎦᎫᏴᎡ	-12.1265
ᎵᏍᏙᏰᏗ	-12.1265
ᎵᏏᎲᏎ	-12.1265
ᏩᏗᏎᎢ	-12.1266
ᏂᏙᎴ	-12.1266
▁ᏚᏅᏩᏅ	-12.1266
▁ᎬᏩᏛᎦᏁᎸ	-12.1266
▁ᏥᏃᎪ	-12.1266
▁ᏚᎵᏦ	-12.1266
ᎾᏂᎩᏒ	-12.1266
▁ᏧᎷᏫᏍᏔᏁ	-12.1266
▁ᎤᎸᏓᎸᎥᏍ	-12.1267
ᏌᎺᎵ	-12.1267
▁ᎢᏳᏕᏘᏴ	-12.1267
ᏗᎦᎶ	-12.1267
ᏓᏴᎳᏔᏅ	-12.1267
▁ᎤᎩᏨ	-12.1267
▁ᎭᏙᎴᎰ	-12.1267
ᎦᏂᏴᏛ	-12.1268
ᎦᏟᎮ	-12.1268
ᎷᎯᏍᏔᏅ	-12.1268
▁ᎠᏂᏐᏢᎢᏍᏗᏍ	-12.1269
ᎬᎭᎸᏛ	-12.1269
ᎯᎪᏩᏛ	-12.127
ᎤᎵᎮᎵ	-12.127
▁ᎢᎧᏁᏨ	-12.127
▁ᎭᎵᎮᎵ	-12.127
ᎵᏍᏗᏰᏓᏁ	-12.127
▁ᎬᏩᏂᏴᎲ	-12.127
ᎾᏕᎲᏍᎬ	-12.1271
▁ᎧᏁᎨ	-12.1271
▁ᎤᏘᏴ	-12.1271
ᏬᏁᏗᏍᎨ	-12.1271
▁ᎢᏳᏛᏁ	-12.1272
▁ᏙᎩᎾᏍᎩᏓᏒ	-12.1272
ᎵᏃᎮᏗᏍᎬ	-12.1272
ᏬᏍᎩᎵ	-12.1272
▁ᏗᎦᎳᏫ	-12.1272
▁ᎢᏣᎢᏒ	-12.1272
ᏬᏥ	-12.1272
ᏅᏧᎵᏍᏙᏔᏅ	-12.1273
ᎵᏂᎪᎯᏍᏗ	-12.1273
ᏑᎵᎪᏨᎩ	-12.1273
ᏕᏯᏔᏁᎮ	-12.1273
▁ᏂᏕᎤ	-12.1275
ᎠᎦᏛ	-12.1275
ᏫᏌᏅ	-12.1276
▁ᏙᏦ	-12.1276
▁ᎬᏯᎵᏃᎮᏙᏗ	-12.1276
▁ᎤᏁᏟᏴ	-12.1276
ᏂᏄᎪᏤᎢ	-12.1276
ᏗᎩᏯᏍᏗ	-12.1276
▁ᎾᏥᏪᏎ	-12.1276
▁ᏱᏕᏣᏓ	-12.1277
ᎬᎭᎷᏯᏍ	-12.1278
▁ᎠᎾᎦ	-12.1278
ᏗᎴᎩ	-12.1278
▁ᎢᏥᎩᎵᏲᎢᏍᏗ	-12.1279
ᏲᏤᎾ	-12.1279
ᎾᏄᎪᏥ	-12.1279
▁ᏚᏂᎧᏅ	-12.1279
▁ᎣᎾᏫ	-12.1279
ᏁᎳᎩᏉ	-12.1279
▁ᎢᏯᎩᏪᏍᏗ	-12.1279
▁ᎻᏗᏂ	-12.128
ᎧᏍᎨᏂ	-12.128
▁ᎥᎤ	-12.128
ᎷᏤᎢ	-12.128
▁ᎢᎯᏴᏁᏗ	-12.1281
ᏰᏌᏛᎢ	-12.1281
ᏕᎵᏙ	-12.1281
ᏛᏓᏍᏓᏁᎮ	-12.1282
▁ᏗᎪᏑᎴᏗ	-12.1282
▁ᏫᎨᏥᏯᏅ	-12.1283
ᎷᏫᏍᏓᏁᏗ	-12.1283
ᎾᏓᏑᏰ	-12.1283
ᏯᏆ	-12.1283
▁ᏕᎬᏩᎳᏫ	-12.1283
ᏓᏅᏍᎨ	-12.1284
▁ᏅᏓᎬᏩᏓᎴ	-12.1284
▁ᏗᏣᎵᏂᎪᎯᏍᏙᏗ	-12.1284
ᏅᎵᏰᎥ	-12.1284
▁ᎤᎵᏍᏇᏚ	-12.1285
ᏕᎭᏲᎲ	-12.1285
ᏭᏂ	-12.1285
▁ᎡᎳᏆ	-12.1285
ᎦᎵᏍᏗᏍᎪᎢ	-12.1286
ᏍᏆᎾᎳᏗᏍᏗ	-12.1286
▁ᏚᏓᏓᎴ	-12.1286
▁ᎢᏣᏓᏅᏔᏩᏕ	-12.1286
ᎨᎳᏗ	-12.1286
ᎭᏗᎭ	-12.1286
▁ᎠᎩᏍᏛᏗ	-12.1286
▁ᎩᏯᏎ	-12.1286
▁ᏫᏥᎷᏨ	-12.1286
▁ᎾᏯᏛᎡ	-12.1286
▁ᎥᏓᏗ	-12.1287
▁ᏚᏬᏢᏔ	-12.1287
ᏂᏢᎩ	-12.1287
ᏣᏪᏐᎸᏍᏓ	-12.1287
ᏬᎯᏤ	-12.1288
▁ᏄᏂᎬᏫᏳ	-12.1288
▁ᎤᏒᎦᎸ	-12.1288
▁ᏄᎬᏫ	-12.1288
ᏍᏓᏲᏒ	-12.1288
ᏪᎵᏎᎢ	-12.1289
ᎦᏕᎣᏍᎦ	-12.1289
ᎪᏪᎵᎯ	-12.1289
ᏕᏘᏴᏌᏗᏒ	-12.1289
▁ᎤᎵᏍᎪᎸᏔᏅ	-12.1289
ᏘᏅᏎ	-12.129
▁ᏗᏣᏓᎴᏅ	-12.129
▁ᎤᎾᏄᎪᏥ	-12.1291
▁ᎤᎾᎵᏖᎸ	-12.1291
▁ᎤᏣᎴᏍ	-12.1291
ᏂᏙᎾᎡ	-12.1291
ᎴᏔᏅᎢ	-12.1291
ᎷᎸᏗᏱ	-12.1291
ᏍᏉᏂᎪᏗ	-12.1291
ᏭᎷᏤᎢ	-12.1292
▁ᎤᏍᎦᎸ	-12.1292
ᏖᎸᏂᎸ	-12.1292
▁ᎬᏆᏛᏁᏗ	-12.1293
ᏍᏓᏩᏕᏒᎭ	-12.1293
ᎦᎫᏴᏓᏁᏗ	-12.1293
ᏙᏣᏁ	-12.1293
▁ᎡᏥᏙᎵᏍᏗ	-12.1293
ᎦᏯᎷᎥᏍᎩ	-12.1293
ᎦᎵᏂᎪᎯ	-12.1294
▁ᏧᏪᏙᎵᏍᏗ	-12.1294
ᏅᎵᏰᏗ	-12.1294
▁ᎠᏆᎴᏂᏓᏍᏗ	-12.1294
▁ᎢᏧᏅᏁᏗ	-12.1294
▁ᎤᏬᏯᏁ	-12.1294
ᏥᎵᏦ	-12.1295
▁ᎬᎩᏁᏉᏤ	-12.1295
▁ᏫᎨᏥᏲᎵ	-12.1295
▁ᎠᎫᎢᏍᏗᏍ	-12.1295
▁ᏙᏗᏍᎩᏯᏘ	-12.1296
▁ᏳᏣᏅ	-12.1296
▁ᏕᎭᏕᏲᎲᏍ	-12.1297
ᏔᎧᏅᎦ	-12.1297
▁ᎬᏬᎳᏕᏍ	-12.1297
ᎾᎥᏂ	-12.1297
▁ᏣᏁᎫ	-12.1297
▁ᏭᏔᎷ	-12.1297
ᎦᏪᎠ	-12.1298
ᏍᏆᏗᏍᎬᎾ	-12.1298
▁ᎨᏣᎴ	-12.1298
▁ᏓᎭᏬᎢ	-12.1298
ᏌᎳᏓᏁᎢ	-12.1298
ᏩᎯᏎᎸ	-12.1298
ᏍᏕᎯ	-12.1298
▁ᎠᏓᎾᏫᏗ	-12.1298
ᏍᏛᏗᏍᏔᏅ	-12.1298
▁ᎤᏂᏔᎳ	-12.1298
ᎭᎷᏰ	-12.1298
ᏣᎸᏫᏍᏓᏁᎮᏍᏗ	-12.1299
ᎵᏓᎩᏛ	-12.1299
▁ᎠᎵᏍᎦ	-12.1299
ᏥᏍᏓᏱᏕᎵ	-12.1299
▁ᎡᎻᏂᏓ	-12.1299
▁ᎤᎦᎾᏏ	-12.1299
ᏣᎵᏍᎪᎸᏓᏁᎸ	-12.1299
▁ᏕᏣᏓᏘᎾ	-12.1299
ᏈᎷ	-12.13
ᏟᏍᏕ	-12.13
▁ᎠᏥᎤᏍᏕᏎᎸ	-12.13
ᏢᏆᏍᏙᏗ	-12.13
ᏞᏫᏒ	-12.13
ᏅᎫᏛᎢ	-12.13
▁ᏁᏓᏂ	-12.13
▁ᎯᏍᎫ	-12.1301
ᏯᏘᏅᏍᏔ	-12.1301
ᏚᏫᏍᏛ	-12.1301
▁ᏕᏣᎧᎿᏩᏗᏙ	-12.1301
▁ᏱᏄᏛᏁ	-12.1301
ᎩᏁᏟᏴᏏ	-12.1301
▁ᎢᏯᎩᏳᏍ	-12.1301
ᏪᏐᎸᏍᏔ	-12.1302
ᏔᏕᎩᏍᎨ	-12.1302
ᏚᏚ	-12.1302
▁ᎦᏕᎶ	-12.1302
ᎾᏫᏛᎯ	-12.1302
ᏍᏓᏩᏕᎦ	-12.1302
▁ᏗᎦᏅᏍᎨ	-12.1302
ᏔᏍᎩᏍᎩ	-12.1303
▁ᏱᏗᏧᎪ	-12.1303
ᏛᏛᎲᎦ	-12.1303
▁ᏙᏓᏲ	-12.1303
▁ᏥᏕᎪᏪ	-12.1303
ᏢᏈᏍᏙᏗ	-12.1304
ᎢᏓᏙᎴᎰ	-12.1304
ᎵᏍᎦᏍᏙᏙ	-12.1304
ᏕᏯᏙᏔᏂ	-12.1304
hi	-12.1304
▁ᎠᏍᏆᏂᎪᎯ	-12.1304
▁ᏚᏟᏂᏆ	-12.1304
ᏴᏌᏗᏒ	-12.1304
ape	-12.1304
ᏓᎿᏍᏆᎶᏍᏗ	-12.1304
▁ᎤᎵᎩᏳᏍ	-12.1304
▁ᏂᏙᏓᎬᏩ	-12.1304
▁ᏓᏂᏄᎪᏫᏍ	-12.1304
▁ᏗᎦᎷᏫᏍᏔᏅᏗ	-12.1304
ᎢᏗᎬᏤᎵᏛ	-12.1304
ᎤᎸᏕᎦ	-12.1304
ᎦᎴᏯᏍᎪ	-12.1304
ᎦᏌᏯᏍᏛᎾ	-12.1304
ᎨᎩᎩᎵᏲᎢᏍᏗᏍᎬᎩ	-12.1304
ᎨᎪᏪᎶᏔᏅᎯ	-12.1304
ᎩᎷᏫᏍᏔᏏ	-12.1304
ᎭᎴᏫᏍᏔ	-12.1304
ᎭᏓᎾᏫᏓ	-12.1304
ᎳᏅᏓᏗᏏ	-12.1304
ᎵᏂᎬᏁᎭ	-12.1304
ᎵᏍᎫᎭᏴ	-12.1304
ᎵᏍᏇᏔᏬ	-12.1304
ᎵᏍᏕᎸᏙᏔᎾ	-12.1304
ᎺᎵᎩᏌᏕᎩᏃ	-12.1304
ᎾᏗᏔᎰᏅ	-12.1304
ᎾᏙᎯᏳᎾᏁᏗ	-12.1304
ᏂᏅᎦᎴᎰᏅ	-12.1304
ᏂᏆᏘᎵ	-12.1304
ᏂᏗᏥᏲᏕᏍᏗᏍᎬᎾ	-12.1304
ᏃᎯᎵᏣᏁ	-12.1304
ᏅᏔᏗᏘᏍᎬ	-12.1304
ᏍᎫᏆ	-12.1304
ᏍᏆᏂᎪᏎᎴ	-12.1304
ᏑᏰᏍᎬ	-12.1304
ᏓᏕᏘᏴᎮᎬ	-12.1304
ᏔᏕᎦᏅᎩ	-12.1304
ᏕᎦᎵᎩᎡᎮᎢ	-12.1304
ᏖᎡᎯᏍᏗᏍᎨᎢ	-12.1304
ᏙᏛᎪᏄᎶᏏ	-12.1304
ᏚᏂᏍᏔᏲᎳ	-12.1304
ᏣᎵᏂᎪᎯᏍᏔᏂ	-12.1304
ᏥᏔᏲᎯᎭ	-12.1304
ᏥᏥᏃᎯᏍᏓ	-12.1304
ᏥᏮᏗᎦᎶᏏ	-12.1304
ᏯᏓᏴᎡᎵ	-12.1304
ᏲᎰᏎᎵ	-12.1304
▁ᎠᎦᎫᏴᏓᏁᎮᏍᏗ	-12.1304
▁ᎠᎦᏔᏔᏅᎥᏍᎩ	-12.1304
▁ᎠᎧᏖᏃᎮ	-12.1304
▁ᎠᎾᏁᎳᏗᏍᎪᎢ	-12.1304
▁ᎠᎾᏁᏢᏔᏂᏒᎢ	-12.1304
▁ᎠᏂᎧᏔᎲ	-12.1304
▁ᎠᏂᎻᏗᏯᏂ	-12.1304
▁ᎠᏂᏃᏔᏂᏙᎯ	-12.1304
▁ᎠᏃᏢᏅᎥᏍᎬᎢ	-12.1304
▁ᎠᏆᏓᏙᎵᏍᏔᏅ	-12.1304
▁ᎠᏍᎪᏂᏗᏢ	-12.1304
▁ᎠᏒᎾᏘᎶᎥᎯ	-12.1304
▁ᎠᏛᏒᎥᏍᎩ	-12.1304
▁ᎠᏜᏩᏍᏗᏍᎨᏍᏗ	-12.1304
▁ᎠᏩᏂᎦᎳ	-12.1304
▁ᎠᏯᏍᏜᏗᏍᎩ	-12.1304
▁ᎡᎵᎣᏈᎦ	-12.1304
▁ᎢᎤᏄᎪᏨ	-12.1304
▁ᎢᎦᎤᏘᏍᏛ	-12.1304
▁ᎢᏍᎩᏃᏁᎵᎸ	-12.1304
▁ᎢᏍᎩᏌᏛᎥᏍᎦ	-12.1304
▁ᎢᏍᏛᎨᏳᎢ	-12.1304
▁ᎢᏣᏚᎸᏗᏱ	-12.1304
▁ᎢᏣᏠᎾᏍᏛ	-12.1304
▁ᎢᏥᎾᏝᎾᎥ	-12.1304
▁ᎢᏨᏰᎳᏗᏙᎮᏍᏗ	-12.1304
▁ᎢᏨᏰᏯᏔᏅᎢ	-12.1304
▁ᎢᏯᏟᎶᎥᎯ	-12.1304
▁ᎢᏰᏣᏛᏁᏗ	-12.1304
▁ᎢᏲᏨᏴᏁᏗᏱ	-12.1304
▁ᎣᎦᎵᏥᏙᏗᏱ	-12.1304
▁ᎣᏁᏏᏉᎳ	-12.1304
▁ᎤᎦᏎᏍᏕᎢ	-12.1304
▁ᎤᎧᏲᏐᏅ	-12.1304
▁ᎤᎩᎳᏫᏎ	-12.1304
▁ᎤᎵᏍᏔᏴᏃᏁᏍᏗ	-12.1304
▁ᎤᎷᏦᏅᎯ	-12.1304
▁ᎤᎾᎦᎰᏍᏔᏅ	-12.1304
▁ᎤᎾᏙᎴᎨᏎ	-12.1304
▁ᎤᏁᏧᏥᏛ	-12.1304
▁ᎤᏂᎪᎯᏙᎸᎯ	-12.1304
▁ᎤᏂᎪᏁᎶᎯᏌᏘ	-12.1304
▁ᎤᏂᏍᏈᏍᏓ	-12.1304
▁ᎤᏂᏐᏢᎢᏍᏔᏅ	-12.1304
▁ᎤᏂᏔᎳᏬᏎᎢ	-12.1304
▁ᎤᏃᎱᎦᏂᎸ	-12.1304
▁ᎤᏐᏢᎢᏍᏔᏅ	-12.1304
▁ᎤᏓᏑᏰᎢ	-12.1304
▁ᎤᏓᏥᏃᎯᏍᏔᏅ	-12.1304
▁ᎤᏓᏩᏗᏍᏛ	-12.1304
▁ᎤᏚᏓᏛᏗᏱ	-12.1304
▁ᎤᏟᏴᏍᎩᎸᎮ	-12.1304
▁ᎤᏧᏈᏍᏙᏒᎯ	-12.1304
▁ᎤᏪᏙᎵᎨᎢ	-12.1304
▁ᎨᏣᏔᏲᏎ	-12.1304
▁ᎨᏤᎳᏗᏙᎭ	-12.1304
▁ᎨᏥᏐᏠᎸᎢ	-12.1304
▁ᎬᏩᏂᎾᏄᎪᏫᏎᎮᏍᏗ	-12.1304
▁ᎬᏩᏍᏓᏩᏙᎯ	-12.1304
▁ᎭᏆᏥᏂ	-12.1304
▁ᎭᏙᏯᏅᎯ	-12.1304
▁ᎻᎱᏤᎵ	-12.1304
▁ᎻᏏᎴᎻ	-12.1304
▁ᎻᏚᏎᎵ	-12.1304
▁ᏁᏣᏛᏁᏍᏗᏉ	-12.1304
▁ᏂᎦᏅᎦᎸᎲᎾ	-12.1304
▁ᏂᎦᏥᏪᏎᎭ	-12.1304
▁ᏂᎬᏫᏍᏕ	-12.1304
▁ᏂᏕᏣᏓᏛᏁᎮᏍᏗ	-12.1304
▁ᏂᏗᏣᏓᏕᎵᏎᎲᎾ	-12.1304
▁ᏂᏗᏣᏢᏫᏎᎲᎾ	-12.1304
▁ᏂᏗᏥᏁᎲᎾ	-12.1304
▁ᏂᏙᏣᎵᏍᏓᏁᎭ	-12.1304
▁ᏄᎾᎵᎮᎵᏣᏛᎾ	-12.1304
▁ᏄᏂᎷᎶᏤᎲᎾ	-12.1304
▁ᏅᎤᏪᏎᎸᎩ	-12.1304
▁ᏅᏋᏁᎵᏙᎸᎢ	-12.1304
▁ᏅᏓᎦᏪᏏ	-12.1304
▁ᏅᏓᏍᎩᏴᏁᎵ	-12.1304
▁ᏅᏓᏳᎾᎵᏍᏓᏁᎵ	-12.1304
▁ᏅᏓᏳᏍᏗᏗᏒᎩ	-12.1304
▁ᏅᏛᏂᏙᎾᎢ	-12.1304
▁ᏈᏗᏂᏱ	-12.1304
▁ᏍᎩᏯᏐᎥᎦ	-12.1304
▁ᏍᏆᏕᎲᏏ	-12.1304
▁ᏐᎵᎼᏅ	-12.1304
▁ᏓᎦᎳᏐᏫᏏ	-12.1304
▁ᏓᎧᎿᏩᏕᎨᏍᏗ	-12.1304
▁ᏓᎨᎯᏛᏔᏂ	-12.1304
▁ᏓᎩᏯᏪᏥᏙᎸ	-12.1304
▁ᏓᎬᏁᏉᎢ	-12.1304
▁ᏓᎬᏍᏓᏩᏗᏙᎵ	-12.1304
▁ᏓᎾᏕᏒᎲᏍᎨᎢ	-12.1304
▁ᏓᎾᏦᎭᏱᎮ	-12.1304
▁ᏓᎿᏬᏍᎨ	-12.1304
▁ᏓᏁᏙᎲᎩ	-12.1304
▁ᏓᏂᏂᎩᎸ	-12.1304
▁ᏓᏂᏥᏍᏔᎳᏍᎬ	-12.1304
▁ᏓᏍᎩᏯᏠᏥ	-12.1304
▁ᏓᏓᏘᏁᎲᎢ	-12.1304
▁ᏓᏥᎴᏐᏂ	-12.1304
▁ᏓᏥᏍᏔᏩᏕᏏ	-12.1304
▁ᏓᏥᏔᏲᎵ	-12.1304
▁ᏓᏨᏲᏎᎵ	-12.1304
▁ᏓᏲᏍᏓᏁᎳᏗ	-12.1304
▁ᏕᎤᎸᏫᏍᏓᏏ	-12.1304
▁ᏕᎩᎾᏦᏒ	-12.1304
▁ᏕᎬᏒᎲᏍᎬᎢ	-12.1304
▁ᏕᎬᏩᏓᏂᎸᏨᎩ	-12.1304
▁ᏕᎬᏯᎫᏴᏓᏁᎮᏍᏗ	-12.1304
▁ᏕᎬᏯᏠᎢᏍᏓᏁᎸ	-12.1304
▁ᏕᎭᏅᏓᏗᏍᏗᏍᎨᏍᏗ	-12.1304
▁ᏕᎯᏯᏓᏂᎸᏨᎭ	-12.1304
▁ᏕᏍᏗᏂᏴᎮᏍᏗ	-12.1304
▁ᏕᏥᎦᎿᏩᏗᏒ	-12.1304
▁ᏗᎦᎦᏠᏱᎯ	-12.1304
▁ᏗᎦᎵᏯᏅᎯᏛ	-12.1304
▁ᏗᎨᏥᏅᏍᏕᏎᎸᎯ	-12.1304
▁ᏗᎩᎾᏓᏛᏙᏗ	-12.1304
▁ᏗᎫᏩᎭᏄᏫ	-12.1304
▁ᏗᎬᏩᏕᏲᏗ	-12.1304
▁ᏗᏂᎳᏍᏓᎳᏩᏗᏒ	-12.1304
▁ᏗᏓᏙᏕᎯᎯ	-12.1304
▁ᏗᏗᏂᏃᎩᏍᎨᎢ	-12.1304
▁ᏗᏴᎦᎴᏴᏓ	-12.1304
▁ᏘᏰᎵᎯᏍᏓ	-12.1304
▁ᏙᎵᏓᏍᏆ	-12.1304
▁ᏙᏓᎦᏥᏯᏟᎶᏍᏔᏂ	-12.1304
▁ᏙᏓᏦᎵᏍᏔᏂ	-12.1304
▁ᏙᏘᏴᏔᏂᎵ	-12.1304
▁ᏙᏛᎠᎴᎯᏌᏂ	-12.1304
▁ᏚᎾᏁᎳᏗᏙᎴ	-12.1304
▁ᏚᎾᏁᏍᏓᏝᎰᎢ	-12.1304
▁ᏚᎾᏐᏓᎸ	-12.1304
▁ᏚᎾᏗᏫᏍᏗᏍᎨ	-12.1304
▁ᏚᏂᎷᏫᏍᏔᏁᎲ	-12.1304
▁ᏚᏌᏬᎴ	-12.1304
▁ᏚᏍᏆᎸᏔᏅ	-12.1304
▁ᏚᏟᎷᏆᏗᏅᏎ	-12.1304
▁ᏚᏥᏍᏠᏨᎩ	-12.1304
▁ᏚᏩᏅᎦᏢ	-12.1304
▁ᏚᏮᎩᎶᎥᎩ	-12.1304
▁ᏚᏯᏍᏜᏛ	-12.1304
▁ᏛᎩᏯᏅᎡᎴᏍᏗ	-12.1304
▁ᏛᎵᏰᎢᎸᏍᏓ	-12.1304
▁ᏛᎾᎵᏛᏔᏂ	-12.1304
▁ᏛᏋᏍᎦᎸᏂ	-12.1304
▁ᏣᏥᏰᎸᎾᏁᎴᎢ	-12.1304
▁ᏥᎦᎧᎰᎢ	-12.1304
▁ᏥᎬᎩᎾᎸᏍᏔᏅᎩ	-12.1304
▁ᏥᏁᏣᏛᎩᏍᎪᎢ	-12.1304
▁ᏥᏂᏕᎯᏪᏎᎸᎩ	-12.1304
▁ᏥᏂᏚᏩᏁᎸ	-12.1304
▁ᏥᏍᎩᏯᏂᎩᏍᏓ	-12.1304
▁ᏥᏓᏅᎿᏗᏍᏙᏗ	-12.1304
▁ᏥᏓᏚᏫᏍᏗᎭ	-12.1304
▁ᏥᏚᏣᏃᏛᎩ	-12.1304
▁ᏥᏫᏗᎦᎸᏌᏓᏗᏍᎪᎢ	-12.1304
▁ᏥᏫᏨᏲᏪᎳᏁ	-12.1304
▁ᏥᏯᎵᏃᎮᏗᏍᎬᎢ	-12.1304
▁ᏥᏯᏓᏁᏟᏴᏍᏓᏁᎸ	-12.1304
▁ᏥᏯᏚᏣᎳᏅᎭ	-12.1304
▁ᏦᎦᏓᏂᎸᎢᏍᏗᏱ	-12.1304
▁ᏦᎩᏲᎱᎯᏍᏗᏱ	-12.1304
▁ᏦᏣᎵᏥᏙᏁᏗᏱ	-12.1304
▁ᏧᏂᎾᏦᏴᏍᏗ	-12.1304
▁ᏧᏃᏕᎯᎯ	-12.1304
▁ᏧᏣᏬᏓ	-12.1304
▁ᏨᏧᎶᏎᎢ	-12.1304
▁ᏩᏂᎶᏒᎭ	-12.1304
▁ᏩᏆᏘᏅᏍᏔᏅᎩ	-12.1304
▁ᏫᎤᏪᏅ	-12.1304
▁ᏫᎬᏩᏲᏥᏓᏍᏗ	-12.1304
▁ᏫᏂᏚᏅ	-12.1304
▁ᏫᏂᏚᏩᏁᎴ	-12.1304
▁ᏫᏄᎾᏛᏁᎸᎩ	-12.1304
▁ᏫᏙᏛᎾᎴᏔᏂ	-12.1304
▁ᏫᏙᏛᎾᏓᎡᏏ	-12.1304
▁ᏫᏙᏛᏂᏲᎯᏎᎵ	-12.1304
▁ᏫᏚᎦᏔᎲᏍᏙᏗᏱ	-12.1304
▁ᏫᏰᏣᏓᎢ	-12.1304
▁ᏫᏱᏣᎧᎲᎦ	-12.1304
▁ᏭᏁᎳᏗᏓ	-12.1304
▁ᏭᏁᏙᎸᎯ	-12.1304
▁ᏭᏓᏬᎥᏍᏗ	-12.1304
▁ᏭᏗᏍᎦᏝᏁ	-12.1304
▁ᏭᏩᎾᏬ	-12.1304
▁ᏭᏩᏯᎸᏥᎴ	-12.1304
▁ᏮᏓᏳᏎᎮᎵ	-12.1304
▁ᏮᏛᏂᎶᏏ	-12.1304
▁ᏯᎩᎷᏤᎴᏍᏗ	-12.1304
▁ᏯᎾᏓᏅᏍᎬᎾ	-12.1304
▁ᏯᏂᏍᏙᎰᎢ	-12.1304
▁ᏯᏕᏠᏆᏍᎦ	-12.1304
▁ᏱᏁᏨᎾᏕᎨᏍᏗ	-12.1304
▁ᏱᏍᎩᎦᏔᎮᎢ	-12.1304
▁ᏱᏍᎩᏲᎢᏳᎲᏍᎦ	-12.1304
▁ᏱᏍᎩᏲᎢᏳᏁᎢ	-12.1304
▁ᏱᏍᏆᏓᏙᎵᏍᏓᏁᎸ	-12.1304
▁ᏱᏓᏂᏍᏓᏩᎦᎦ	-12.1304
▁ᏱᏕᏥᎤᏍᏕᏎᎸ	-12.1304
▁ᏱᏗᏥᏍᏆᏂᎪ	-12.1304
▁ᏱᏚᏂᎿᏍᏕᏠᎢ	-12.1304
▁ᏱᏣᏍᎦᏅᏤᏍᏗ	-12.1304
▁ᏱᏥᎪᏁᎶᏍᎨᏍᏗ	-12.1304
▁ᏱᏦᎯᏳᎭ	-12.1304
▁ᏱᏦᎯᏳᏁᏍᏗ	-12.1304
▁ᏳᎦᏌᏯᏍᏔᏁ	-12.1304
▁ᏳᏂᏬᏂᏌ	-12.1304
▁ᏴᎦᎬᏴᏕᎩ	-12.1304
▁ᏴᎬᏚᏓᎴᏍᏓ	-12.1304
▁ᎠᏂᏫᏅᎨᏌᏂ	-12.1304
▁ᎠᏅᏳᏤᎲ	-12.1304
▁ᎠᏥᏍᏛᏗᏍᏗᏍᎬᎢ	-12.1304
▁ᎤᏄᎶᎸ	-12.1304
▁ᏗᏅᏂᎦᎵᏍᏗ	-12.1304
ᎦᏙᎴᎰᏍᎦ	-12.1304
ᎩᏰᎳᏗᏙᎭ	-12.1304
ᏓᎦᏕᎶᎣᏏ	-12.1304
ᏓᏓᏏᎾᎲᏍᏙᏗ	-12.1304
ᏥᎦᏖᏃᎮᏍᏗ	-12.1304
ᏩᏒᏙᎣᏎ	-12.1304
▁ᎠᎩᎪᏩᏘᏍᎩ	-12.1304
▁ᎠᎵᏖᎸᏂᎮᎢ	-12.1304
▁ᎠᏂᏫᏄᏣ	-12.1304
▁ᎠᏄᏖᏍᎨ	-12.1304
▁ᎠᏍᎪᎵᏰᏍᎨ	-12.1304
▁ᎠᏍᎫᏕᏍᎩ	-12.1304
▁ᎠᏓᏁᏤᎯ	-12.1304
▁ᎠᏫᏒᎥᏍᎩ	-12.1304
▁ᎡᏥᏔᏲᏎᎮᏍᏗ	-12.1304
▁ᎢᎩᏲᎱᎯᏎᎸ	-12.1304
▁ᎢᏍᎩᏍᎦᎦ	-12.1304
▁ᎤᎦᏴᎳᏨ	-12.1304
▁ᎤᎵᏍᎩᏃᏘᏍ	-12.1304
▁ᎤᏂᎦᏘᏕᎢ	-12.1304
▁ᎤᏂᏩᏒᎥᏍᎩ	-12.1304
▁ᎤᏍᏕᏅᏨ	-12.1304
▁ᎤᏖᎸᏅ	-12.1304
▁ᎥᏆᎨᏅᏛ	-12.1304
▁ᎪᏱᏂᏓᏍᏗ	-12.1304
▁ᎬᏩᎦᏌᏯᏍᏕ	-12.1304
▁ᎬᏩᏂᏲᏥᏙᎸ	-12.1304
▁ᎬᏩᏕᎰᏔᏁᎢ	-12.1304
▁ᎬᏲᎵᏍᏔᏅ	-12.1304
▁ᎭᏓᏅᏗᏍᏗᏍᎨᏍᏗ	-12.1304
▁ᎯᏯᎵᏍᎦᏍᏙ	-12.1304
▁ᏂᎦᏥᏯᏛᏁᎸᎩ	-12.1304
▁ᏂᎻᎶᏗ	-12.1304
▁ᏂᏓᎦᏛᏁᎵ	-12.1304
▁ᏂᏚᏬᏚ	-12.1304
▁ᏂᏛᏅᏁᎵ	-12.1304
▁ᏂᏥᏪᏍᎨᏍᏗ	-12.1304
▁ᏅᏗᎦᎵᏍᏗᏙᏗᏍ	-12.1304
▁ᏅᏧᏛᎿᏗᏎ	-12.1304
▁ᏓᏳᎾᏚᎩᏒ	-12.1304
▁ᏓᏳᏐᏅᏂ	-12.1304
▁ᏕᎤᏬᎡᎢ	-12.1304
▁ᏕᎨᎦᏓᏂᎸᏨ	-12.1304
▁ᏕᏥᎦᏌᏬᎢᎲᎢ	-12.1304
▁ᏕᏥᎳᏫᏦᎯᎲ	-12.1304
▁ᏕᏥᏄᎪᏫᏍ	-12.1304
▁ᏗᎨᏥᏐᏅᏅᎯ	-12.1304
▁ᏗᎩᎾᏢᏗᏱ	-12.1304
▁ᏙᎦᏓᏲᎵᎸ	-12.1304
▁ᏚᎳᏑᏞ	-12.1304
▁ᏚᎵᏖᎸᏁ	-12.1304
▁ᏚᎷᏆᏗᏅ	-12.1304
▁ᏚᎾᏦᎭᏱᎸ	-12.1304
▁ᏚᏂᎵᏰᏗᏍᎬ	-12.1304
▁ᏚᏂᏄᏪᏒ	-12.1304
▁ᏚᏗᎦᎴᏯᏍᏔᏅ	-12.1304
▁ᏛᎵᏍᏓᏴᏂ	-12.1304
▁ᏛᏃᎵᏥ	-12.1304
▁ᏣᏂᏙᎾᎠ	-12.1304
▁ᏣᏦᏔᏍᏔᏅ	-12.1304
▁ᏥᎿᏛᎦ	-12.1304
▁ᏥᏕᎾᏦᎯ	-12.1304
▁ᏥᏚᏱᎶᎴᎢ	-12.1304
▁ᏧᏃᎸᏔᏂᏙᎰ	-12.1304
▁ᏫᏗᏍᎩᏯᏘᏅᏍᏔᏅᎩ	-12.1304
▁ᏮᎠᎦᏔᎲᏍᏓ	-12.1304
▁ᏯᎩᏲᏏᎭ	-12.1304
▁ᏯᏉᎯᏳᎮ	-12.1304
▁ᏱᏅᏧᎵᏍᏙᏔᏁ	-12.1304
▁ᏱᏪᏣᏓᎢᏅ	-12.1304
▁ᏳᏂᏚᎬᎾ	-12.1304
▁ᏳᏰᎵᏛᎾ	-12.1304
▁ᏴᎬᏓᏛᎦ	-12.1304
ᎭᏄᏭ	-12.1304
ᎳᏫᏎᎵ	-12.1304
ᏂᎦᏥᏯᏛᏁᎰ	-12.1304
ᏂᎨᎯᏙᎵ	-12.1304
ᏌᏆᏞ	-12.1304
ᏍᏚᎢᎡᏗᏱ	-12.1304
ᏓᎾᏇᏍᎬ	-12.1304
ᏗᏍᎦᏅᎨᏍᏗ	-12.1304
ᏚᎾᏓᏩᏛᏔᏁᎢ	-12.1304
ᏚᏔᎲᎢ	-12.1304
ᏣᎬᏩᎳᏅᎯ	-12.1304
ᏬᏁᏔᏂ	-12.1304
ᏴᎧᏁᎵ	-12.1304
ᏴᏍᏓᎩᏍᎩ	-12.1304
▁Po	-12.1304
▁ᎠᎦᎾᏬᏗᏍ	-12.1304
▁ᎠᎦᏐᎠᏏᎯᎲ	-12.1304
▁ᎠᎵᏒᎢᏍᏙᏗ	-12.1304
▁ᎠᏅᏳᎬ	-12.1304
▁ᎡᎵᎡᏌ	-12.1304
▁ᎢᏥᏑᎵᎪᎢ	-12.1304
▁ᎢᏨᎩᎵᏲᏤᎲ	-12.1304
▁ᎤᎾᏍᏕᏥ	-12.1304
▁ᎥᏥᏯᏓᏙᎵᏍᏓᏁᎸᎩ	-12.1304
▁ᎥᏥᏯᏛᎦᏁᎸᎩ	-12.1304
▁ᎬᎾᏰᏍᎬ	-12.1304
▁ᏍᎩᏯᎵᎡᎵᏍ	-12.1304
▁ᏐᏱᏁᎳ	-12.1304
▁ᏕᎦᏓᏬᏍᏗᎭ	-12.1304
▁ᏕᏣᏓᏡᏩᏗᏒ	-12.1304
▁ᏗᎩᎧᏁᏴᏗᏱ	-12.1304
▁ᏙᏨᏅᎢ	-12.1304
▁ᏚᏛᏅᎢᏍᏓᏁᎸ	-12.1304
▁ᏚᏟᎶᏍᏔᏁᎴ	-12.1304
▁ᏛᎾᏓᏅᏓᏗ	-12.1304
▁ᏩᏐᏝ	-12.1304
▁ᏫᏓᏂᏅᎨᎢ	-12.1304
▁ᏫᏥᎾᏄᎪᎢᏍᏗᏱ	-12.1304
▁ᏭᏓᎩᏅᏒ	-12.1304
▁ᏭᏬᎯᎶ	-12.1304
▁ᏱᎦᎳᏍᏢ	-12.1304
▁ᏱᎨᎵᏍᎨ	-12.1304
▁ᏳᎬᏫᏳᎭ	-12.1304
ᎠᏆᏘᏂᏙ	-12.1304
ᏐᏢᎢᏍᏔᏁᎢ	-12.1304
ᏕᎭᏓᏟᏴᎲ	-12.1304
ᏯᏙᎴᎣᎯ	-12.1304
▁Ch	-12.1304
▁ᎠᎩᎵᏲᎦ	-12.1304
▁ᎠᎩᏂᏰᎸ	-12.1304
▁ᎠᎵᏍᏛᏧᏍᏗ	-12.1304
▁ᎠᎵᏘᏍᎪᎢ	-12.1304
▁ᎠᏆᏂᎩᏍᏗᏱ	-12.1304
▁ᎠᏓᎿᏍᏆᎶᏍᏗᏍᎩ	-12.1304
▁ᎢᎠᏥᏩᏛᎲᏃ	-12.1304
▁ᎢᎡᏥᎪᎵᏰ	-12.1304
▁ᎣᎦᏢᏆᏒ	-12.1304
▁ᎤᎧᏲᏐᏁ	-12.1304
▁ᎤᎬᏍᏉᎡ	-12.1304
▁ᎤᎾᏰᏒᎯ	-12.1304
▁ᎤᏂᏲᎸᎢᏍᏔᏅ	-12.1304
▁ᎤᏍᏘᏰᏅᎯ	-12.1304
▁ᎬᏩᎦᏘᏗᏍᎩ	-12.1304
▁ᎭᏓᏳᎦ	-12.1304
▁ᎯᎨᏳᎢ	-12.1304
▁ᏂᏓᎵᏍᏗᎭ	-12.1304
▁ᏂᏚᎳᏍᎬᎢ	-12.1304
▁ᏂᏚᎾᏓᏁᎶᏛᎾ	-12.1304
▁ᏃᏣᏛᏁᎲ	-12.1304
▁ᏕᎨᎦᎴᏗ	-12.1304
▁ᏕᏥᏲᏍᎨᏍᏗ	-12.1304
▁ᏙᎩᏯᏪᏥᏙ	-12.1304
▁ᏙᏓᏨᏲᎯᏎᎵ	-12.1304
▁ᏚᏂᏍᏆᎸᏔ	-12.1304
▁ᏣᎶᏅᎮᎭ	-12.1304
▁ᏣᏓᎦᏌ	-12.1304
▁ᏥᏚᏭᏓ	-12.1304
▁ᏥᏣᏣᎠ	-12.1304
▁ᏦᏪᎳᏅᎩ	-12.1304
▁ᏧᎾᎵᏂᎦᏂ	-12.1304
▁ᏧᏂᏄᎪᏨ	-12.1304
▁ᏧᏄᎪᏨ	-12.1304
▁ᏧᏚᎪᏙᏗ	-12.1304
▁ᏩᏍᏖᏍᏗ	-12.1304
▁ᏯᎪᏩᏘᏍᎨᎢ	-12.1304
▁ᏲᏍᏗᎦᏔᎭ	-12.1304
▁ᏳᏂᎷᏤᎮ	-12.1304
▁ᏳᏩᎨᏫ	-12.1304
▁ᎭᏇᏅᏍᏗ	-12.1304
ᎧᏙᏴ	-12.1305
ᎨᏥᎤᏍᏕᏎᎴᎢ	-12.1305
ᎨᏦᏎᎰ	-12.1305
ᎭᏓᎾᏫᏗᏍ	-12.1305
ᏁᎶᎲᏍᎩ	-12.1305
ᏚᏣᎪᏎ	-12.1305
ᏩᏍᎦᎸᏁᎢ	-12.1305
ᏫᏚᏘᏅᏍᏔᏅᎩ	-12.1305
ᏬᏁᏗᏍᎩ	-12.1305
▁ᎠᎾᏓᏛᏍᎬᎢ	-12.1305
▁ᎡᏣᏛᏓᏍᏓᏏ	-12.1305
▁ᎣᏣᏁᏦᎥᏍ	-12.1305
▁ᏂᏤᎵᏍᎬᎾ	-12.1305
▁ᏓᎦᏁᏐ	-12.1305
▁ᏕᎨᎫᎪᏓᏁ	-12.1305
▁ᏗᎦᎶᏐᎲᏍᎩ	-12.1305
▁ᏗᏍᏇᏲᎲᏍᎩ	-12.1305
▁ᏙᏓᎦᏥᏳᎪᏓᏁᎵ	-12.1305
▁ᏣᏁᏉᎥᎯ	-12.1305
▁ᏥᏂᏓᎦᏔᎰᎢ	-12.1305
▁ᏥᏂᏚᏪᏎᎴᎢ	-12.1305
▁ᏳᎨᏅᏛ	-12.1305
ᎩᏰᏲᏗ	-12.1305
ᏂᏒᎳᏍᎨ	-12.1305
▁ᎠᏂᎯᏲᎲᎢ	-12.1305
▁ᎠᏆᏘᏂᏙᎲᎩ	-12.1305
▁ᎠᏓᏬᏍᎬ	-12.1305
▁ᎠᏓᏴᏍᏕᏍᎩ	-12.1305
▁ᎠᏠᏄᎮᏛ	-12.1305
▁ᎢᎨᏣᎵᏍᏓᏁᏗ	-12.1305
▁ᎣᏂᏏᎹ	-12.1305
▁ᎦᎴᏫᏍᏗ	-12.1305
▁ᎬᏇᏅᏍᏗ	-12.1305
▁ᎯᏂᏌᏉ	-12.1305
▁ᏓᎾᎵᏃᎮᎵᏙᎲ	-12.1305
▁ᏓᏇᎷᎬ	-12.1305
▁ᏕᎦᏃᏣᏢ	-12.1305
▁ᏕᎦᏟᎶᏍᏗᏍᎬ	-12.1305
▁ᏧᎦᏔᏘ	-12.1305
▁ᏧᏂᏨᏍᏙᏗ	-12.1305
▁ᏧᏙᎨᏍᎩ	-12.1305
▁ᏫᏥᎧᏅᎯ	-12.1305
ᏓᎩᎧᎿᏩᏗᏙᎸ	-12.1305
▁ᎠᏂᏫᏒᎥᏍᎩ	-12.1305
▁ᎤᏪᏩᏒᎢᏍᏗ	-12.1305
▁ᎨᏥᏍᎦᏂ	-12.1305
▁ᎪᏎᎰ	-12.1305
▁ᏂᎨᎵᏍᎪ	-12.1305
▁ᏂᏣᏓᎨᏒ	-12.1305
▁ᏓᏂᎶᏒᎭ	-12.1305
▁ᏓᏥᎵᏬᏥ	-12.1305
▁ᏕᏓᏦᏍᎬᎢ	-12.1305
▁ᏗᏂᎳᏫᏦᎯᎯ	-12.1305
▁ᏚᏔᏪᏙᏁ	-12.1305
▁ᏤᏧᎪᏓᏁ	-12.1305
▁ᏥᎬᏲᏎᎸᎩ	-12.1305
▁ᏧᏂᏂᏴᏓ	-12.1305
ᏓᎿᏫ	-12.1305
ᏗᏚᎳᏫᎢᏍᏗᏱ	-12.1305
ᏚᎦᎴᏅᏔᏁ	-12.1305
ᏚᎾᏄᏩᎡ	-12.1305
ᏣᎴᏫᏍᏗᏍᎬ	-12.1305
ᏯᏠᎩᏉ	-12.1305
▁ᎠᎩᏯᎣᏅ	-12.1305
▁ᎠᏉᏛᎸᎯ	-12.1305
▁ᎤᏁᏐᎠᎯᏍᏗ	-12.1305
▁ᎤᏓᏁᎪᏳᎲ	-12.1305
▁ᏂᏨᏯᏛᏁᎸ	-12.1305
▁ᏍᏆᏂᏏᎲᏏ	-12.1305
▁ᏓᎬᏯᏎᎮᎵ	-12.1305
▁ᏛᎡᏥ	-12.1305
▁ᏱᎫᏩᏂ	-12.1305
ᎦᏒᎳᏍᎪ	-12.1305
ᎬᏯᎵᎮᎵᏤᎭ	-12.1305
ᏑᎴᏍᎪ	-12.1305
ᏬᏎᎵ	-12.1305
▁ᎠᎩᏲᎮ	-12.1305
▁ᎠᎾᏙᏂᏍᎩ	-12.1305
▁ᎡᏧᎢᏍᏗ	-12.1305
▁ᎬᏕᏘᏱᎩ	-12.1305
▁ᎬᏩᎵᏠᏯᏍᏗ	-12.1305
▁ᏅᏗᎦᏍᏙᏗᏍᎨ	-12.1305
▁ᏕᏣᏓᎦᎵᏍᏓᏗᏍ	-12.1305
▁ᏚᎾᏘᏔ	-12.1305
▁ᏥᏂᏥᏪᏍᎬᎩ	-12.1305
ᏓᏓᏚᎪᏓᏁᎲ	-12.1305
▁ᎠᎾᏍᎩᏓᏒᎥᏍ	-12.1305
▁ᎣᎦᏕᏗᏱ	-12.1305
▁ᎤᎦᎶᎬ	-12.1305
▁ᏕᏛᏁᏍᏗ	-12.1305
▁ᏘᎻᎾ	-12.1305
▁ᏘᏔᎴ	-12.1305
▁ᏫᎦᏓᎥ	-12.1305
▁ᏫᏥᎶᏒᎩ	-12.1305
den	-12.1305
ᏁᎷᎩᎡᎸ	-12.1305
ᏙᏧᏄᎪᏫᏎᎢ	-12.1305
▁Pri	-12.1305
▁ᎠᏲᏓᏒ	-12.1305
▁ᎣᏍᏗᏴᎩ	-12.1305
▁ᎦᎳᏍᏢ	-12.1305
▁ᎪᎯᏳᎲᏍᎬ	-12.1305
▁ᎺᎠ	-12.1305
▁ᏌᏬᏛ	-12.1305
▁ᏓᏤᏲᏂ	-12.1305
▁ᏱᏗᏦᎯᏳ	-12.1305
▁ᏦᏌᏯ	-12.1305
▁ᏂᎬᎩᏲᎸᎾ	-12.1305
▁ᏅᏗᎠᏥᏪᏎ	-12.1305
▁ᏥᎯᏃᏁᎵ	-12.1305
▁ᏧᏍᏚᎢᎡᎸᎯ	-12.1305
▁ᏫᏙᏓᎨ	-12.1305
ᎠᎦᏍᎦᏃ	-12.1305
▁ᎠᏌᏱᎵ	-12.1305
▁ᎡᏥᏩᏛᎲᎭ	-12.1305
▁ᎤᏂᏃᏴᎵᏓ	-12.1305
▁ᎤᏄᏓᎴᏍᎩ	-12.1305
▁ᎫᎭᏟ	-12.1305
▁ᏚᏰᏍᏛ	-12.1305
▁ᏥᏕᎨᏥ	-12.1305
▁ᏧᏍᏕᎸᏛ	-12.1305
ᎦᎾᏬᏒ	-12.1305
▁ᎠᏂᏴᏍᏗᏍᎩ	-12.1305
▁ᎡᏐᏏ	-12.1305
▁ᎤᎵᏍᎩᏃᎳ	-12.1305
▁ᎤᏕᎯᏴ	-12.1305
▁ᎬᏇᎸ	-12.1305
▁ᏚᎾᏗᏍᏚ	-12.1305
▁ᏚᏁᏲᏁ	-12.1305
▁ᏥᎬᏩᏂᏛᏔᏁ	-12.1305
▁ᏥᏙᏣᏠᎯ	-12.1305
▁ᏫᏱᏣᏴ	-12.1305
▁ᏰᏣᏛᏓ	-12.1305
▁ᏱᎫᏩᎾ	-12.1305
▁ᎠᎾᎵᏖᎸᎲᏍᎬ	-12.1305
▁ᏗᎦᎷᏥᏒ	-12.1305
ᏓᏡᏫᏍᏕᎢ	-12.1305
ᏗᏫᏎᎸᎩ	-12.1305
ᏥᏍᏝ	-12.1305
▁ᎠᏆᏂᏏᏗᏱ	-12.1305
▁ᎠᏥᏓᎦᎸᎢᏒᎯ	-12.1305
▁ᎤᏂᏍᏔᏩᏛ	-12.1305
▁ᏓᏗᏍᏆᏂᎪᏔᏂ	-12.1305
▁ᏥᏛᏦ	-12.1305
▁ᏧᏎᎪᎩᏍᏗᏱ	-12.1305
▁ᏯᏗᏔᏍᎨ	-12.1305
▁ᎠᏑᏯᎩᏛ	-12.1305
▁ᎠᏣᎩᏍᎩ	-12.1305
▁ᎤᎦᎾᏅ	-12.1305
▁ᎤᏍᎩᏅᏕ	-12.1305
▁ᎤᏗᏍᏚᏅ	-12.1305
▁ᎧᏁᎮᏛ	-12.1305
▁ᏥᏂᏌᏅᎩ	-12.1305
▁ᏥᏂᏕᎤ	-12.1305
▁ᏧᎨᏅᏛ	-12.1305
▁ᏫᎾᏴᎯ	-12.1305
▁ᏱᏂᎦᏪᎭ	-12.1305
▁ᏱᏗᏓᏓᏂᎸᎦ	-12.1305
▁ᏱᏨᏃᏁᎴᎢ	-12.1305
▁ᎠᏆᏍᎪᏒᎯ	-12.1305
▁ᎦᏄᏓᎴᎩ	-12.1305
▁ᎬᏯᏛᎦᏁᎸ	-12.1305
▁ᏕᏥᎦᏅᎩ	-12.1305
▁ᏗᏓᎢᏒᎢ	-12.1305
▁ᏙᏛᏂᏴᎳᏏ	-12.1305
▁ᏚᏒᎦᎸᎩ	-12.1305
▁ᏫᎫᏩᏂᎶᎯᏍᏗ	-12.1305
ᏲᎢᎱᎯ	-12.1305
▁ᎢᏣᏢᏆᏍᎬ	-12.1305
▁ᎣᎦᏛᏅᎢᏍᏓᏁᎸ	-12.1305
▁ᎤᏐᏓᎸ	-12.1305
▁ᎤᏣᏃᏛᎩ	-12.1305
▁ᏙᏓᏲᎩᎸᏫᏍᏓᏁ	-12.1305
▁ᏳᎬᏩ	-12.1305
▁ᏉᏗᏆ	-12.1305
▁ᏧᎵᏯᏏ	-12.1305
ᏣᎵᎮᎵᎪᎢ	-12.1305
▁ᎠᎪᏩᏘᏍᎨᎢ	-12.1305
▁ᎠᎵᏍᏔᏴᎲᏍᎨ	-12.1305
▁ᎦᏃᎴᏍᎬ	-12.1305
▁ᎭᏛᏅᎭ	-12.1305
▁ᏙᏗᏂᎧᏁᎢ	-12.1305
▁ᏚᏓᎴᏅᏔᏅ	-12.1305
▁ᏥᏂᏨᏪᏏ	-12.1305
▁ᏩᏕᏗᏱ	-12.1305
▁ᏫᎬᏩᏘᏅᏍᏔᏅᎩ	-12.1305
▁ᏱᏂᎦᏔᎮ	-12.1305
ᏜᏅᏓᏕ	-12.1305
▁ᎢᏣᎵᏥᏙᎲᏍᎨᏍᏗ	-12.1305
▁ᎦᏲᎩᏂ	-12.1305
▁ᎬᏩᎩᏨᏗ	-12.1305
▁ᎬᏬᏱ	-12.1305
▁ᏕᎪᏪᎵᏍ	-12.1305
▁ᏚᎵᏥᏍ	-12.1305
▁ᏲᎩᏂᎭ	-12.1305
▁ᎠᏍᏚᏟᏍᎩ	-12.1305
▁ᎢᎨᎬᎾᏕᎩ	-12.1305
▁ᎢᏳᏅᏂᏐᏗᏱ	-12.1305
▁ᎾᏆᎵᏍᏓᏁᎵᏙᎲᎢ	-12.1305
▁ᏚᎾᏓᏟᏴᎲ	-12.1305
▁ᏟᏍᏆ	-12.1305
▁ᏩᏓᏬᏣ	-12.1305
▁ᏭᏟᏫᏛ	-12.1305
▁ᎠᏌᎻᏛ	-12.1305
▁ᎢᎦᏠᏯᏍᏔᏅ	-12.1305
▁ᎤᏃᎱᏲᎵ	-12.1305
▁ᏄᏚᏪᏎᎸᎩ	-12.1305
▁ᏙᏓᏣᏠᏏ	-12.1305
▁ᏳᎦᏙᎥᏎᎢ	-12.1305
▁ᏳᏚᏓᎴᏍᏔᏁ	-12.1305
ᎵᏛᏗᏍᎬᎾ	-12.1305
ᏍᏔᏩᏗᏎ	-12.1305
▁ᎤᎦᏎᏍᏗᏕ	-12.1305
▁ᏛᏥᎸᏉᏔᏂ	-12.1305
▁ᏥᏕᎯᎾᏄᎪᏫᏎᎸ	-12.1305
▁ᎢᏣᏛᎩᏍᎩ	-12.1305
▁ᎤᏍᎫᏓᏛᎢ	-12.1305
▁ᏕᎬᏩᎾᏍᏗᏍᎨᎢ	-12.1305
▁ᏫᏄᏪᏒᎩ	-12.1305
ᏏᏄᏴ	-12.1305
▁ᎡᏍᏗᏍᏓᏩᏕᏒᎭ	-12.1305
▁ᎤᎸᏉᏔᏅᎯ	-12.1305
▁ᎤᏅᏩᏅᎩ	-12.1305
▁ᎤᏴᏜ	-12.1305
▁ᎧᏴᏌᏛ	-12.1305
▁ᎬᏩᏓᏡᏫᏍᏔᏁᎢ	-12.1305
▁ᏕᎩᎾᏓᎨᏳᏒᎢ	-12.1305
▁ᏥᏚᎸᏫᏍᏓᏁᎸ	-12.1305
▁ᏏᏂᎹᏂ	-12.1305
▁ᏓᏂᎪᏩᏗᏍᎨ	-12.1305
▁ᏕᎦᎦᏎᏍ	-12.1305
▁ᏗᏥᎾᏌ	-12.1305
▁ᏨᎩᏅᏒ	-12.1305
▁ᏯᏆᎴᏂᏙᎸ	-12.1305
ᏐᏯᎦ	-12.1305
ᏚᎵᏥᏙᏁᎴ	-12.1305
▁ᎠᎱᏃᎲ	-12.1305
▁ᏕᎰᏢᏔᏅᎭ	-12.1305
▁ᏚᎩᎸᏨ	-12.1305
▁ᏚᏴᏒᎩ	-12.1305
▁ᏧᎵᏃᎯᏴᎯ	-12.1305
ᏁᎢᏍᏓᏁᎲᎩ	-12.1305
▁ᎠᎦᏎᏍᏙᏗ	-12.1305
▁ᎠᎾᏠᎾᏍᏗᏍᎬ	-12.1305
▁ᎬᏉᎯᏳᎲᏍᎩ	-12.1305
▁ᏂᏪᏒᎭ	-12.1305
▁ᏯᎩᏲᎱᏒ	-12.1305
▁ᏰᏥᎦᏔᎮ	-12.1305
▁ᏱᎨᎨᎭ	-12.1305
ᏧᎾᏄᎪᏨ	-12.1305
▁ᎠᏂᏅᏜᎡᎢ	-12.1305
▁ᎠᏗᏅᏗᏉ	-12.1305
▁ᎠᏨᏏᏰᏍᎨ	-12.1305
▁ᎥᎶᏱ	-12.1305
▁ᏍᎪᏂᏴ	-12.1305
▁ᏖᏲᎲᏍᎩ	-12.1305
▁ᏚᏪᏌᏍᏔᏁ	-12.1305
▁ᏥᎦᎶᏒᏍᏗᎭ	-12.1305
▁ᎠᏣᎾᏉᎯ	-12.1305
▁ᏗᏔᎸᎢ	-12.1305
ᏁᏉᎡᎵ	-12.1305
ᏥᎦᎿᏩᏗᏙ	-12.1305
▁ᏥᏂᏕᏣᏛᏁ	-12.1305
▁ᏦᎩᏂᎸᏫᏍᏓᏁᎯ	-12.1305
▁ᏧᏪᏚᏁᎯ	-12.1305
▁ᎠᏃᏚᎢᏍᏗᏍᎬ	-12.1305
▁ᎤᏁᎳᏗᏙᎲ	-12.1305
▁ᎹᏓᏯᏃ	-12.1305
▁ᏓᏥᏲᎤᏏ	-12.1305
▁ᏕᎨᏥᏂᏌᎲ	-12.1305
▁ᏙᏥᏴᎬ	-12.1305
▁ᏯᏍᎦᎦ	-12.1305
ᎨᏲᎲᏍᎦ	-12.1305
▁ᎺᎮ	-12.1305
▁ᏓᏰᏥᏄᎪᏫᏏ	-12.1305
▁ᏳᎯᏐᏓᏁ	-12.1305
▁ᏚᏂᏲᎱᏎᎢ	-12.1305
▁ᎤᏁᏌᏴ	-12.1305
▁ᏙᎩᏲᏐᏅ	-12.1305
ᏓᎵᏁᎯᏗᏍ	-12.1305
▁ᏧᎪᎵᏰᏗᏱ	-12.1305
ᏟᎶᏍᏓᏁᎭ	-12.1305
▁ᏂᏄᎾ	-12.1305
▁ᏣᎦᎵᏍᏓᏴᎾᏁᏗᏱ	-12.1305
▁ᏥᎡᏥ	-12.1305
▁ᏱᏂᏣᏍᏕᏍᏗ	-12.1305
▁ᏱᏗᏥᏬᏂᎭ	-12.1305
▁ᎭᏓᏬᏣ	-12.1305
▁ᏓᏥᏔᏲᏎᎵ	-12.1305
▁ᏚᏗᏔᏍᏔᏅ	-12.1305
▁ᎤᎵᏃᎮᏔᏁ	-12.1305
ᎩᎾᏄᎪᏥᎸᎩ	-12.1305
▁ᏗᎩᎷᏫᏍᏔᏁᏗ	-12.1305
▁ᎲᏁᏍᏗ	-12.1305
▁ᏄᏙᎯᏳᏒ	-12.1305
▁ᏫᏗᎦᏅᎪ	-12.1305
ᏓᏛᏳᏤ	-12.1305
▁ᎤᏂᎿᎸᏨ	-12.1305
▁ᏯᏂᏏᎾ	-12.1305
▁ᏥᏕᏥᏙᎦ	-12.1305
▁ᎠᎩᎵᏴ	-12.1305
▁ᎤᎩᎵᏲᏤᎢ	-12.1305
▁ᏂᎨᎬᏁᎲᎢ	-12.1305
▁ᏓᎦᏎᎵ	-12.1305
▁ᏓᎬᏩᏍᎪᏂᎵ	-12.1305
▁ᏧᏃᏴᎪ	-12.1305
▁ᏬᎩᏴᎸ	-12.1305
▁ᏮᏓᏥᎷᏤᎵ	-12.1305
ps	-12.1305
▁ᏂᎬᏅᎪᏪᎳ	-12.1305
▁ᏓᎾᏓᏱᎵᏙᎲ	-12.1305
▁ᏕᎨᎦᏨᏍᏔ	-12.1305
▁ᏗᎬᏩᎾᏓᏁᏟᏴᎡᏗ	-12.1305
ᏄᏲᎢᏯ	-12.1305
▁ᎠᎫᎷᏤᏗ	-12.1305
▁ᏂᎨᎬᏁᎮ	-12.1305
▁ᏱᏙᎸᏫᏍᏓᏁᎭ	-12.1305
ᏔᎸᎩᏍᏗ	-12.1305
▁ᎠᏔᎸᎦᏒ	-12.1305
▁ᎠᏣᏅᏙᏗ	-12.1305
▁ᎤᏪᏩᏒᏤ	-12.1305
▁ᏓᏢᎥᏍᎬ	-12.1305
▁ᏧᏴᏣ	-12.1305
▁ᏥᎾᏰᏍᎦᏰᏃ	-12.1305
ᏌᎳᏙᏓ	-12.1305
▁ᎢᎭᏛᏁᎯ	-12.1305
ᎯᏲᎯᏍᏓ	-12.1305
▁ᏕᏨᏯᏬᏍᏗᎭ	-12.1305
▁ᏗᏂᎧᏅᎢ	-12.1305
▁ᏫᏯᏴᎯᎮᏍᏗ	-12.1305
ᎵᏃᎮᏗᏍᎨᎢ	-12.1305
▁ᎠᏆᏘᏂ	-12.1305
▁ᏂᏚᏁᎶᏛᎾ	-12.1305
▁ᏅᏓᎬᏩᏪᏎᎵ	-12.1305
▁ᏗᎨᏥᏴᎩᏅᎯ	-12.1305
▁ᏙᏓᎦᏘᏃᎵ	-12.1305
ᎨᏣᎫᏴᏏ	-12.1305
▁ᎢᏓᏓᏅᏓᏓ	-12.1305
▁ᎢᏳᏩᏓᏗ	-12.1305
▁ᎤᏴᏍᏕᏍᎩ	-12.1305
▁ᎧᎹᎹ	-12.1305
▁ᎨᏣᏕᏯᏙᏗᏍᎩ	-12.1305
▁ᏓᎬᎾᏄᎪᏫᏎᎵ	-12.1305
▁ᏩᏆᏗᏅᏒ	-12.1305
▁ᎤᎬᎭᏓ	-12.1305
ᏧᏘᏍᏓᏁᏗᏱ	-12.1305
▁ᏃᎦᏠᎾᏍᏛᎾ	-12.1305
▁ᏥᎧᏃᎮᏍ	-12.1305
ᏘᏁᏏ	-12.1305
▁ᏗᏤᎵᏛ	-12.1305
▁ᏙᏗᏫᏒᎢ	-12.1305
▁ᏭᎾᎵᏃᎮ	-12.1305
▁ᏱᏂᎦᏪᏍᎨ	-12.1305
ᏊᎪᏓᏁᎸ	-12.1305
▁ᏅᏓᏣᏄᎪᏫᏒᎯ	-12.1305
▁ᏄᏍᏆᎸᎲᎾ	-12.1305
▁ᏚᏯᏅᎡᎴᎢ	-12.1305
▁ᏳᏣᎩᏒᎾ	-12.1305
▁ᏱᏓᏲᎩᏍᏆᏂᎪᏔᏂ	-12.1305
▁ᎠᎦᏠᏯᏍᏔᏅᎩ	-12.1305
▁ᏦᏥᏚᎩ	-12.1305
▁ᏫᏘᏯᏅ	-12.1305
ᎨᏬᏗ	-12.1305
ᏠᏒᏒᎩ	-12.1305
ᏯᏕᎥᏏ	-12.1305
▁ᎠᏄᏖᏍᎬ	-12.1305
▁ᎦᏄᏲᎯ	-12.1305
▁ᎩᏃᎯᏳᏅ	-12.1305
▁ᏱᏩᎦᏓᎢᏅ	-12.1305
▁ᎣᏣᎵᏍᏔᏴᎲᏍᎬ	-12.1305
▁ᏓᏓᏌᎳᏗᏍ	-12.1305
▁ᏱᏚᏪᎵᏎ	-12.1305
ᎦᏙᏌᏗᏍᏛ	-12.1305
▁ᎠᏥᏁᎢᏍᏔᏅ	-12.1305
▁ᎴᎠᎹ	-12.1305
▁ᎿᎵᏍᏓ	-12.1305
▁ᏕᎬᎦᏆ	-12.1305
▁ᏙᎩᎸᏫᏍᏓᏁᎸ	-12.1305
▁ᏧᏪᎵᏏᏯ	-12.1305
ᏆᏦᎥ	-12.1305
▁ᎷᏏᏯ	-12.1305
▁ᏥᏯᏛᎦᏁᎸᎢ	-12.1305
▁ᏳᏩᏂᏍᏔᏅ	-12.1305
▁ᎤᎵᏍᎫᏪ	-12.1305
▁ᏕᏣᏓᏙᎯᏳ	-12.1305
▁ᏗᎬᏅᏃᏛ	-12.1305
[...]
