<unk>	0
<s>	0
</s>	0
,	-2.70457
▁the	-2.96427
▁and	-3.31051
.	-3.38813
▁of	-3.64429
▁to	-4.15275
▁that	-4.30863
▁in	-4.34952
▁And	-4.38674
▁he	-4.45865
▁a	-4.46952
▁I	-4.56565
;	-4.70687
:	-4.75775
▁unto	-4.76405
s	-4.77036
▁him	-4.85724
▁his	-4.86454
▁be	-4.93653
▁is	-4.9483
▁for	-4.97889
▁they	-5.00374
▁not	-5.00831
▁shal	-5.01429
▁it	-5.03829
l	-5.05584
▁was	-5.06139
▁with	-5.10275
▁them	-5.1335
▁said	-5.20093
▁	-5.23829
▁all	-5.40195
▁you	-5.40826
ing	-5.41626
ed	-5.42772
▁God	-5.46817
▁ye	-5.52904
▁as	-5.56779
▁me	-5.58234
’	-5.60776
▁from	-5.61954
▁thou	-5.62398
▁my	-5.69402
?	-5.71808
▁but	-5.74739
▁have	-5.75526
▁are	-5.76874
t	-5.76925
▁on	-5.77047
▁were	-5.77301
▁Lord	-5.80965
▁had	-5.81686
▁which	-5.8205
▁when	-5.82247
▁“	-5.87243
▁their	-5.87562
▁man	-5.92028
▁one	-5.93858
▁out	-5.94673
▁this	-5.959
▁will	-5.967
▁we	-5.97397
▁up	-6.01323
▁by	-6.02236
▁into	-6.03024
▁thy	-6.03911
▁The	-6.05576
▁thee	-6.06842
▁But	-6.11873
▁there	-6.13385
▁came	-6.15125
▁Jesus	-6.16857
▁who	-6.1687
▁her	-6.19954
▁at	-6.22579
▁things	-6.24767
▁also	-6.27814
▁upon	-6.29851
d	-6.31666
▁your	-6.31943
▁us	-6.33221
▁For	-6.34774
▁no	-6.35147
▁come	-6.36257
▁she	-6.41828
▁if	-6.43085
▁hath	-6.43914
▁do	-6.45668
▁He	-6.50563
▁made	-6.51959
▁an	-6.55462
▁went	-6.55666
▁day	-6.58109
▁down	-6.59912
▁saying	-6.60283
▁so	-6.60775
▁our	-6.62482
▁even	-6.63067
▁say	-6.63202
▁men	-6.63849
▁people	-6.63922
▁before	-6.65004
▁or	-6.68326
▁these	-6.69652
▁may	-6.6979
▁Christ	-6.709
▁go	-6.72385
-	-6.72673
▁what	-6.73586
eth	-6.74901
'	-6.76355
ly	-6.77646
▁did	-6.77729
▁after	-6.79413
▁know	-6.79745
▁make	-6.7991
▁every	-6.81376
▁let	-6.81581
▁through	-6.8358
▁Wilbur	-6.85603
▁son	-6.86876
▁land	-6.87082
cause	-6.87356
▁therefore	-6.87416
▁would	-6.87574
▁then	-6.8867
▁away	-6.88985
▁good	-6.90507
▁children	-6.90827
▁hand	-6.92942
▁over	-6.93023
▁about	-6.94668
▁Moses	-6.95779
”	-6.96551
▁two	-6.96915
▁called	-6.97297
▁am	-6.97748
▁earth	-6.9785
▁house	-6.99846
▁should	-7.00051
th	-7.02407
▁any	-7.02608
▁father	-7.03157
▁name	-7.0328
▁great	-7.03812
▁put	-7.04869
y	-7.04934
▁now	-7.04943
▁like	-7.06089
▁days	-7.07849
▁against	-7.08453
▁whom	-7.0883
▁saw	-7.0899
▁been	-7.09816
▁where	-7.10049
▁heard	-7.10798
▁saith	-7.10983
e	-7.11549
▁more	-7.11984
▁see	-7.13685
▁many	-7.13939
▁took	-7.15713
▁give	-7.15925
▁pass	-7.18393
▁Israel	-7.18476
▁Now	-7.19582
▁forth	-7.20046
▁time	-7.20175
▁life	-7.2063
▁take	-7.20956
▁again	-7.21648
▁brethren	-7.22086
▁another	-7.22855
▁heaven	-7.23353
▁himself	-7.26211
st	-7.27263
▁word	-7.277
▁might	-7.2844
▁way	-7.2888
▁world	-7.2892
▁sons	-7.29808
▁Then	-7.3064
▁first	-7.3088
▁own	-7.31266
▁behold	-7.32072
▁other	-7.32089
▁how	-7.32122
se	-7.32921
.”	-7.34004
!	-7.34483
▁among	-7.34595
▁brought	-7.36255
▁law	-7.36633
▁Father	-7.36679
▁little	-7.37967
▁place	-7.39753
▁some	-7.40568
▁could	-7.41426
▁eat	-7.41777
▁back	-7.41905
▁than	-7.42773
▁old	-7.43249
▁Jacob	-7.43715
▁Egypt	-7.4509
▁sent	-7.451
▁accord	-7.45578
▁years	-7.45832
▁Spirit	-7.46486
▁brother	-7.46958
f	-7.47286
▁Pharaoh	-7.47428
▁love	-7.48788
▁gave	-7.48866
▁disciples	-7.49926
▁cast	-7.50251
▁Abraham	-7.50793
▁water	-7.51127
▁faith	-7.51264
▁Mr	-7.51381
▁found	-7.51766
▁set	-7.52107
▁wife	-7.52278
▁voice	-7.52417
▁They	-7.52659
▁A	-7.52844
▁O	-7.52944
▁yet	-7.53116
▁It	-7.53846
▁under	-7.54274
▁glory	-7.5433
▁hast	-7.54771
▁dead	-7.55294
▁having	-7.56324
▁Charlotte	-7.56367
?”	-7.56408
!”	-7.56441
▁being	-7.56667
▁done	-7.57407
▁answered	-7.57458
▁spake	-7.57885
▁Joseph	-7.58411
▁bring	-7.58507
▁together	-7.59472
▁night	-7.59773
▁heart	-7.6006
▁city	-7.62731
▁Son	-7.63316
m	-7.64272
▁eyes	-7.64605
r	-7.64796
▁work	-7.65953
▁neither	-7.66086
▁only	-7.66277
▁both	-7.66536
▁speak	-7.66594
▁three	-7.66659
▁flesh	-7.67232
▁When	-7.67272
▁What	-7.67954
▁can	-7.68212
▁thereof	-7.68423
▁nor	-7.68476
▁same	-7.68999
▁fire	-7.69024
▁given	-7.69038
▁much	-7.69076
▁without	-7.69181
I	-7.69445
▁right	-7.70633
▁seven	-7.70655
▁Thi	-7.71305
▁left	-7.71955
▁blood	-7.71963
▁hear	-7.72742
▁face	-7.7295
▁LORD	-7.73782
▁thing	-7.73967
▁asked	-7.74018
▁long	-7.74055
▁off	-7.75361
▁evil	-7.76279
▁words	-7.7637
est	-7.76861
▁art	-7.76912
▁head	-7.77488
▁well	-7.77801
▁hands	-7.78212
▁sat	-7.78219
▁death	-7.7948
▁So	-7.7966
▁kingdom	-7.80134
▁Thou	-7.81454
▁Jews	-7.82253
▁th	-7.82723
▁mother	-7.82796
▁while	-7.82798
▁nothing	-7.84156
▁unti	-7.84156
▁bear	-7.84273
▁light	-7.84672
very	-7.85403
▁stood	-7.86226
▁ever	-7.88315
▁themselves	-7.89043
▁Paul	-7.89049
▁gold	-7.89751
▁lay	-7.90329
▁Let	-7.90546
▁keep	-7.90974
ose	-7.91047
▁Zuckerman	-7.91094
▁sea	-7.91099
▁side	-7.91907
▁Behold	-7.91956
▁Fern	-7.92728
soever	-7.92864
▁looked	-7.93705
▁s	-7.93737
er	-7.93838
▁Jerusalem	-7.94192
▁Peter	-7.94192
▁seen	-7.94348
▁Ye	-7.94829
▁sin	-7.95085
▁thine	-7.95732
▁cometh	-7.96181
▁Be	-7.96233
▁woman	-7.96484
▁certain	-7.9649
▁ground	-7.96493
▁end	-7.97021
▁chief	-7.97257
▁She	-7.97358
▁body	-7.97407
▁We	-7.97791
▁knew	-7.98038
▁In	-7.98178
▁fear	-7.98211
▁just	-7.98509
▁power	-7.98759
▁feet	-7.98826
▁morning	-7.98826
▁such	-7.9883
n	-7.99733
▁pig	-8.00349
▁tree	-8.00381
▁hundred	-8.01144
▁sheep	-8.01228
▁holy	-8.01233
▁whole	-8.01305
▁bread	-8.01944
▁Aaron	-8.02039
▁began	-8.02058
▁must	-8.02866
▁John	-8.03685
▁servant	-8.03704
▁seed	-8.04091
▁receive	-8.04237
▁multitude	-8.04513
▁told	-8.04572
a	-8.04771
▁toward	-8.04943
▁written	-8.05359
▁die	-8.06238
▁There	-8.06486
▁peace	-8.06736
▁going	-8.07044
▁here	-8.0733
▁servants	-8.07951
▁believe	-8.08427
▁new	-8.08766
▁live	-8.091
▁works	-8.09208
▁truth	-8.09672
ll	-8.10172
re	-8.10428
▁fell	-8.10572
▁spirit	-8.10596
▁grace	-8.11448
▁high	-8.12263
▁witness	-8.12331
▁mouth	-8.12342
▁get	-8.12346
▁four	-8.13159
▁S	-8.13255
▁tabernacle	-8.13281
▁concern	-8.14205
▁each	-8.15102
▁coming	-8.15127
▁near	-8.16035
▁Isaac	-8.16035
▁commanded	-8.16153
▁pray	-8.16994
▁find	-8.17823
▁Charley	-8.17931
▁five	-8.17947
▁web	-8.18031
▁tell	-8.18522
▁still	-8.18894
▁spoken	-8.18904
▁become	-8.18913
▁hour	-8.18972
▁white	-8.19068
—	-8.19146
▁part	-8.19359
een	-8.19362
▁F	-8.1968
▁sight	-8.1988
▁laid	-8.20924
▁received	-8.21091
▁though	-8.21586
▁child	-8.21825
▁round	-8.21856
▁mine	-8.22838
▁betw	-8.22843
▁seek	-8.23024
▁Who	-8.23841
▁altar	-8.23844
▁manner	-8.23844
▁never	-8.23853
▁full	-8.24796
▁temple	-8.24942
▁walk	-8.25024
▁river	-8.25032
▁drink	-8.25317
▁stand	-8.26374
▁send	-8.26944
▁righteousness	-8.26951
▁field	-8.27118
▁think	-8.28555
ther	-8.28605
▁Holy	-8.29065
▁around	-8.29098
▁died	-8.29316
▁king	-8.29324
▁save	-8.29943
▁stone	-8.30236
▁daughter	-8.30374
▁living	-8.31216
▁Wherefore	-8.3122
▁Arable	-8.31436
▁angel	-8.31527
▁cried	-8.32315
▁cause	-8.32498
▁door	-8.32627
▁judgment	-8.33669
▁priest	-8.33708
▁enter	-8.34022
▁gospel	-8.34549
▁taken	-8.34662
▁known	-8.34719
▁young	-8.3574
▁mind	-8.36407
▁mercy	-8.36836
▁Gentiles	-8.36841
▁blessed	-8.3701
▁C	-8.37161
▁few	-8.37958
▁All	-8.38183
▁ask	-8.38315
▁bare	-8.39062
▁kill	-8.39316
▁look	-8.39815
▁hold	-8.3994
▁rest	-8.39977
▁hard	-8.40356
▁money	-8.40365
▁opened	-8.40542
▁believed	-8.40627
▁lord	-8.40696
▁second	-8.41574
▁gone	-8.41585
▁Templeton	-8.41607
▁un	-8.41633
▁hope	-8.42634
▁Pharisees	-8.42909
▁call	-8.43317
▁show	-8.43513
▁My	-8.44121
▁entered	-8.44492
▁Esau	-8.4654
▁last	-8.46543
▁don	-8.4676
▁gathered	-8.46764
ter	-8.47522
▁daughters	-8.4753
▁Go	-8.47738
▁born	-8.47751
▁twelve	-8.47822
▁wise	-8.47829
ce	-8.47943
▁able	-8.48203
▁walked	-8.48353
▁got	-8.48373
▁minister	-8.48657
▁third	-8.4912
▁always	-8.49127
▁lest	-8.49127
▁none	-8.49142
▁delivered	-8.4939
▁sake	-8.49588
▁dwell	-8.49853
▁As	-8.49989
▁too	-8.50272
▁righteous	-8.50289
▁yourselves	-8.50436
▁country	-8.50442
▁cannot	-8.50443
▁sure	-8.50446
▁became	-8.50456
▁raised	-8.50512
▁Avery	-8.50551
▁whe	-8.50943
▁prophets	-8.51139
▁above	-8.5177
▁barn	-8.5177
▁followed	-8.52088
▁You	-8.52194
▁beast	-8.52314
▁thought	-8.52702
▁priests	-8.52779
▁mount	-8.53125
▁judge	-8.53266
▁offering	-8.53861
▁cattle	-8.54491
▁angels	-8.55552
▁women	-8.55878
▁food	-8.5588
▁fruit	-8.56419
▁looking	-8.56421
▁year	-8.56621
▁joy	-8.57281
▁half	-8.57288
▁true	-8.57288
▁midst	-8.57335
▁How	-8.57436
▁soul	-8.57885
▁fine	-8.58644
▁indeed	-8.58728
▁anything	-8.58744
▁To	-8.588
▁most	-8.58824
▁filled	-8.58833
▁elders	-8.58857
▁wood	-8.59441
▁serve	-8.5988
▁covenant	-8.60166
▁remember	-8.60166
▁fall	-8.61055
▁ten	-8.61169
▁small	-8.61599
▁dark	-8.61616
▁Simon	-8.61637
▁silver	-8.61639
▁Every	-8.61686
▁Egyptians	-8.61809
▁sun	-8.62617
▁ran	-8.63175
▁sins	-8.6329
▁returned	-8.63337
es	-8.64152
▁church	-8.64626
▁Smith	-8.64644
▁sabbath	-8.64645
▁Lurvy	-8.64657
▁lived	-8.64976
rose	-8.65165
▁waters	-8.65306
ness	-8.65328
▁fathers	-8.658
▁fish	-8.66139
▁strong	-8.66185
▁thousand	-8.66879
▁myself	-8.67767
▁turned	-8.68158
▁prophet	-8.6849
▁kept	-8.69332
▁alone	-8.69336
▁darkness	-8.69351
▁Why	-8.69417
▁far	-8.6942
▁One	-8.69437
▁That	-8.69494
▁sign	-8.70863
▁home	-8.70942
▁why	-8.70962
▁ready	-8.70993
▁ears	-8.71491
▁feast	-8.7163
▁turn	-8.71706
▁sleep	-8.72011
en	-8.72568
▁eternal	-8.72585
▁didn	-8.72838
▁saved	-8.72889
▁spider	-8.73391
▁big	-8.74245
▁straightway	-8.74256
▁along	-8.7434
▁others	-8.7436
▁departed	-8.74443
▁rat	-8.75856
▁wilderness	-8.75946
▁wisdom	-8.75946
▁Abram	-8.75947
▁ark	-8.75976
▁whatsoever	-8.76221
▁passed	-8.76277
▁seeing	-8.76506
▁loved	-8.76722
▁need	-8.77441
▁something	-8.77672
▁except	-8.77672
▁better	-8.77674
▁till	-8.77678
▁wine	-8.77679
▁within	-8.78073
ve	-8.78083
▁wind	-8.78568
▁commandment	-8.7858
ers	-8.78582
gat	-8.78683
You	-8.78867
▁seem	-8.79257
▁linen	-8.79437
out	-8.79578
us	-8.79902
▁nations	-8.80095
▁standing	-8.80189
▁its	-8.80321
▁leave	-8.80325
▁follow	-8.80335
▁write	-8.80726
▁T	-8.80948
▁beginning	-8.81211
▁sitting	-8.81218
▁saints	-8.81219
erily	-8.81223
▁His	-8.81264
▁appeared	-8.81392
▁goose	-8.81512
▁mountains	-8.81877
▁reason	-8.82562
▁top	-8.8293
▁deep	-8.82966
▁present	-8.83029
▁fulfilled	-8.83029
▁knowledge	-8.83044
▁Come	-8.83085
▁scribes	-8.83161
▁ought	-8.83175
▁air	-8.83478
▁tent	-8.84406
▁David	-8.84881
▁Laban	-8.84881
▁authority	-8.84881
▁rather	-8.84885
▁thyself	-8.84888
▁Bless	-8.84888
▁wilt	-8.84892
an	-8.85139
▁sh	-8.85289
▁cut	-8.85556
▁husband	-8.85886
▁meet	-8.86341
▁wrath	-8.86767
▁behind	-8.86767
▁pure	-8.86776
▁yea	-8.87613
▁want	-8.8765
If	-8.87681
▁destroy	-8.88218
▁Chap	-8.88688
▁afraid	-8.8869
▁congregation	-8.8869
▁baptized	-8.88718
▁foot	-8.88764
▁generations	-8.8926
▁leaves	-8.89609
▁kind	-8.89632
▁throne	-8.89773
▁help	-8.90394
▁visit	-8.90647
▁apostles	-8.90945
hall	-8.91325
▁master	-8.91823
▁sick	-8.92624
▁Canaan	-8.92636
▁bound	-8.92648
▁Galilee	-8.92651
▁next	-8.92651
▁replied	-8.92653
▁try	-8.92675
▁wherein	-8.92715
▁cup	-8.92813
▁soldiers	-8.92834
or	-8.92893
▁E	-8.93059
▁garments	-8.93072
▁teaching	-8.93073
▁watch	-8.93276
▁woods	-8.93712
le	-8.93801
▁boy	-8.9385
▁friend	-8.93859
▁p	-8.94138
▁deliver	-8.94263
▁deal	-8.94692
▁sockets	-8.94703
▁Take	-8.94729
▁worthy	-8.94754
▁beloved	-8.94834
▁therein	-8.94866
▁bed	-8.95194
▁boys	-8.95551
▁thence	-8.95652
▁knoweth	-8.9568
▁hair	-8.95801
▁preach	-8.95983
▁meat	-8.96048
▁f	-8.96206
▁arose	-8.96268
▁six	-8.96343
▁has	-8.96411
▁knowing	-8.96452
▁nigh	-8.96481
▁twenty	-8.96778
▁salvation	-8.96781
▁Noah	-8.96781
▁rain	-8.96783
▁thus	-8.9683
▁held	-8.96927
▁fast	-8.97571
▁signs	-8.97872
▁suffer	-8.9801
▁At	-8.98104
▁teach	-8.98283
▁eye	-8.98395
▁blind	-8.98403
▁smell	-8.98422
▁clean	-8.98684
▁M	-8.98704
▁curtain	-8.98903
▁testimony	-8.98903
▁straw	-8.98904
▁everything	-8.98907
▁blue	-8.98907
▁firstborn	-8.98908
▁Bear	-8.98925
▁sit	-8.99001
▁free	-8.99016
▁soon	-8.99027
▁cubits	-8.9926
▁desire	-8.99272
p	-8.99745
▁hearts	-9.00139
▁honor	-9.01068
▁Pilate	-9.01077
▁enough	-9.01077
▁Therefore	-9.01102
▁lifted	-9.01326
▁once	-9.01598
▁demons	-9.01608
▁Indians	-9.0161
▁perfect	-9.02327
▁nation	-9.02456
▁doeth	-9.0256
What	-9.02744
▁Do	-9.02907
▁No	-9.02997
▁abide	-9.03204
▁Rachel	-9.03299
▁Even	-9.03301
▁bega	-9.03344
▁By	-9.03549
▁forty	-9.03776
▁red	-9.03887
▁Jud	-9.03895
drew	-9.0391
▁sacrifice	-9.04518
▁P	-9.04608
▁court	-9.04674
▁sister	-9.04682
▁cloud	-9.04688
▁named	-9.04719
▁table	-9.04726
▁mountain	-9.04732
▁answer	-9.05027
▁alive	-9.05574
▁Judah	-9.05578
▁camp	-9.05586
▁moved	-9.05761
▁greater	-9.05841
▁evening	-9.05989
▁dream	-9.06087
al	-9.0621
ous	-9.06699
▁matter	-9.07024
▁month	-9.0705
▁verily	-9.07898
▁Mary	-9.07903
▁broken	-9.07915
▁lie	-9.08264
▁Yea	-9.08937
▁sound	-9.0896
▁promise	-9.09204
▁Where	-9.09256
▁boat	-9.09388
cross	-9.09726
S	-9.09847
▁gather	-9.09858
▁ate	-9.10107
able	-9.10156
▁book	-9.10269
▁After	-9.10278
▁dwelt	-9.10278
▁enemies	-9.10278
▁faithful	-9.10296
▁Of	-9.10785
▁mighty	-9.10821
▁prison	-9.1171
▁tongue	-9.11874
▁kings	-9.12188
▁wait	-9.12282
▁presence	-9.12717
▁taught	-9.12717
▁grew	-9.12721
▁carried	-9.12725
▁multitudes	-9.12732
▁since	-9.12748
▁sold	-9.12754
▁led	-9.12833
▁hanging	-9.12865
▁almo	-9.12946
▁preached	-9.13225
▁cross	-9.13296
▁start	-9.1332
ies	-9.135
It	-9.13506
less	-9.13752
▁walking	-9.13801
▁journey	-9.13832
▁synagogue	-9.14363
▁rock	-9.14372
▁worship	-9.1481
▁lo	-9.15155
▁purple	-9.15217
▁Sarah	-9.15218
▁felt	-9.15218
▁hearken	-9.15218
▁sweet	-9.15219
▁thirty	-9.15253
▁oil	-9.15346
sought	-9.16209
▁times	-9.16312
▁war	-9.16514
▁goeth	-9.16527
▁re	-9.16618
▁crate	-9.16778
▁point	-9.16878
▁understand	-9.17196
▁stones	-9.17231
▁rich	-9.17242
▁please	-9.17616
▁eight	-9.17742
▁loud	-9.17742
▁resurrection	-9.17782
▁least	-9.17782
▁early	-9.17892
▁trees	-9.17908
▁burnt	-9.18044
ion	-9.18408
as	-9.18511
▁measure	-9.18512
▁sword	-9.19458
▁fellow	-9.19467
▁egg	-9.19556
▁offer	-9.19704
▁Herod	-9.20412
▁Littlefish	-9.20413
▁ourselves	-9.20413
▁branches	-9.20419
▁neck	-9.2048
▁warm	-9.20509
▁brass	-9.20583
▁rings	-9.20718
▁vain	-9.20824
▁blessing	-9.2084
▁speaketh	-9.20951
▁killed	-9.21374
▁souls	-9.22002
▁service	-9.22119
on	-9.22294
▁ear	-9.22368
▁N	-9.22379
fore	-9.2307
▁wives	-9.23116
▁else	-9.23116
▁herself	-9.23125
▁younger	-9.23221
▁arise	-9.23263
▁rulers	-9.23655
ment	-9.23696
▁boards	-9.2383
▁See	-9.23913
▁B	-9.24277
▁bless	-9.25029
▁prayer	-9.25136
▁continue	-9.25818
▁strength	-9.25872
▁fifty	-9.25894
▁beyond	-9.25894
▁milk	-9.25894
▁lead	-9.25918
▁morrow	-9.26014
▁healed	-9.26081
▁open	-9.27608
body	-9.27926
▁generation	-9.27931
▁names	-9.28047
▁On	-9.28201
▁manifest	-9.28327
in	-9.28485
▁false	-9.28615
▁Thu	-9.2867
▁scarlet	-9.28751
▁apart	-9.28751
▁quit	-9.28752
▁Teacher	-9.28752
▁James	-9.28753
▁spread	-9.28776
▁fled	-9.28779
▁judged	-9.29202
▁number	-9.30248
▁black	-9.30298
▁gift	-9.30839
▁read	-9.31091
▁smoke	-9.31485
▁rejoice	-9.31496
▁poor	-9.31546
▁buried	-9.31692
▁grey	-9.31692
▁wrought	-9.31693
▁dry	-9.31705
▁already	-9.31712
▁soil	-9.31734
▁front	-9.31752
▁age	-9.31807
▁abideth	-9.31818
▁appointed	-9.31826
▁Lot	-9.31903
▁pillars	-9.32241
▁horses	-9.32275
▁pieces	-9.32437
▁means	-9.32442
▁friends	-9.32933
▁break	-9.33152
▁build	-9.33809
▁order	-9.33825
▁apple	-9.33848
▁speaking	-9.34046
Well	-9.34155
▁weak	-9.34187
▁pen	-9.34246
▁crown	-9.34262
▁houses	-9.34271
▁return	-9.34298
▁low	-9.34399
▁Satan	-9.34722
▁making	-9.34723
▁Leah	-9.34723
▁Fair	-9.34723
▁Nation	-9.34732
▁dust	-9.34741
▁east	-9.34758
▁gain	-9.34803
▁Thy	-9.34827
▁gods	-9.34935
▁sinners	-9.34999
▁shew	-9.35437
▁fat	-9.35612
ward	-9.35938
one	-9.36761
ty	-9.37017
▁gate	-9.37045
rom	-9.37169
▁comfort	-9.37402
▁places	-9.37595
▁corn	-9.37828
▁shame	-9.37853
▁worshipped	-9.37901
▁fallen	-9.37906
▁stopped	-9.37911
▁vessels	-9.3816
▁thanks	-9.38395
▁heavens	-9.38676
▁giveth	-9.38726
▁bad	-9.38883
it	-9.39269
▁stay	-9.40155
▁tomb	-9.40189
much	-9.40448
▁length	-9.40601
▁anoint	-9.40635
▁close	-9.40701
▁praise	-9.40851
▁draw	-9.41037
▁unclean	-9.41056
▁grow	-9.41059
▁Wolf	-9.41073
▁beautiful	-9.41073
▁crucified	-9.41073
▁ephod	-9.41073
▁circumcision	-9.41073
▁kiss	-9.41073
▁trough	-9.41076
▁cold	-9.41076
▁justified	-9.41082
▁Give	-9.41106
▁course	-9.41138
▁King	-9.4114
▁finished	-9.41164
▁lost	-9.41169
▁climbed	-9.41179
▁animals	-9.41396
with	-9.41672
ation	-9.41702
▁run	-9.42593
el	-9.42716
▁famine	-9.43403
h	-9.43567
▁board	-9.43636
▁command	-9.43841
▁feel	-9.43955
▁exceeding	-9.44314
▁rise	-9.44391
▁wrong	-9.44403
▁Philip	-9.44406
▁abroad	-9.44406
▁Rebekah	-9.44406
▁devil	-9.44407
▁shut	-9.44412
▁south	-9.44415
▁past	-9.4442
▁Judas	-9.44423
▁moment	-9.44424
▁itself	-9.44441
▁prepared	-9.44486
▁talked	-9.44648
▁often	-9.44753
▁seventh	-9.44948
▁offered	-9.44968
▁suffered	-9.45087
▁Not	-9.45153
▁seat	-9.45907
▁commandments	-9.46057
▁working	-9.4607
▁burn	-9.4664
ur	-9.46743
▁sorrow	-9.4685
▁scripture	-9.46996
▁Indian	-9.4702
▁dis	-9.47248
▁perish	-9.47289
▁best	-9.47304
▁grass	-9.47742
▁office	-9.47807
▁foolish	-9.47838
▁Cherokee	-9.47855
▁asleep	-9.47855
▁beseech	-9.47855
▁staves	-9.47855
▁summer	-9.47857
▁reward	-9.47867
▁passover	-9.47872
▁speech	-9.47881
▁room	-9.47885
▁conceived	-9.47885
▁Amen	-9.47888
▁green	-9.47895
▁crowd	-9.47905
A	-9.48105
▁pleased	-9.48115
▁covered	-9.48179
▁believeth	-9.48239
▁understanding	-9.48467
▁flocks	-9.48653
▁tongues	-9.49076
▁members	-9.49684
▁met	-9.49706
▁season	-9.50084
▁smite	-9.50228
▁counsel	-9.50423
▁hearing	-9.50473
▁edge	-9.50482
▁bow	-9.50493
▁image	-9.50499
▁captain	-9.50527
▁parable	-9.50546
▁tribe	-9.50557
▁piece	-9.50586
gotten	-9.5085
▁sharp	-9.51276
▁reign	-9.5128
▁care	-9.51321
▁bright	-9.51373
▁subject	-9.5142
▁patience	-9.51426
▁salute	-9.51426
▁writing	-9.51426
▁fornication	-9.51426
▁sky	-9.51426
▁wept	-9.51427
▁swim	-9.51428
▁guard	-9.5143
▁buy	-9.51434
▁slay	-9.51435
▁divided	-9.51545
▁beheld	-9.51547
▁eaten	-9.51569
▁troubled	-9.51622
▁dur	-9.51773
▁legs	-9.51806
▁crying	-9.51812
▁riches	-9.52032
▁hid	-9.52091
▁loveth	-9.52154
▁wanted	-9.52238
▁forward	-9.52248
▁e	-9.52533
am	-9.52858
ng	-9.5289
▁prayed	-9.53075
▁committe	-9.53454
▁depart	-9.53854
ful	-9.53898
▁duke	-9.54259
▁creature	-9.5427
▁flock	-9.54281
▁b	-9.54583
▁lift	-9.54704
▁repent	-9.54977
▁short	-9.5501
▁strange	-9.55074
▁forgive	-9.55088
▁ox	-9.55114
▁incense	-9.5513
▁large	-9.5513
▁truck	-9.5513
▁account	-9.5513
▁spiritual	-9.5513
▁Adam	-9.55132
▁glorified	-9.55134
▁eating	-9.55134
▁Sodom	-9.55136
▁pay	-9.55138
ittim	-9.55141
▁Lamb	-9.55142
▁immediately	-9.55145
▁circumcised	-9.55172
▁churches	-9.55175
▁yard	-9.5523
▁clothes	-9.55348
▁poured	-9.55349
▁closed	-9.55406
▁thereon	-9.55459
▁raise	-9.55515
▁touched	-9.55547
▁breadth	-9.55571
▁Th	-9.55574
▁bowed	-9.55581
▁receiveth	-9.55586
▁sore	-9.55617
▁rod	-9.55633
▁putt	-9.55925
▁besought	-9.56155
▁bit	-9.56265
ir	-9.56405
▁wax	-9.56463
▁mean	-9.57961
▁disciple	-9.58139
▁stranger	-9.58172
▁touch	-9.58433
▁carry	-9.58519
▁wash	-9.58803
▁glad	-9.58841
▁quiet	-9.58893
▁lawful	-9.58906
▁council	-9.58976
▁Barnabas	-9.58976
▁Woe	-9.58976
▁iniquity	-9.58976
▁garden	-9.58976
▁whither	-9.58976
▁hurt	-9.58976
▁cities	-9.58977
▁tried	-9.58978
▁empty	-9.5899
▁deny	-9.59005
▁lad	-9.59007
▁bought	-9.59012
▁exceedingly	-9.5911
▁pulled	-9.59136
▁pit	-9.59154
▁longer	-9.59206
▁happened	-9.59206
▁charged	-9.59229
▁hated	-9.59265
▁manifested	-9.59559
▁knowest	-9.59683
▁worketh	-9.59775
▁less	-9.59789
▁greatly	-9.60473
▁sac	-9.60597
▁reach	-9.60629
taking	-9.61671
▁breastplate	-9.61973
▁garment	-9.62144
of	-9.62208
▁multiply	-9.62447
ri	-9.62469
▁t	-9.62475
▁car	-9.62522
▁obey	-9.62528
▁Some	-9.62612
▁road	-9.62973
▁Jackson	-9.62976
▁couple	-9.62976
▁guess	-9.62976
▁spent	-9.62977
at	-9.62977
▁bondage	-9.62978
▁created	-9.62988
▁built	-9.62989
▁brown	-9.6299
▁swear	-9.62994
▁quickly	-9.63007
giving	-9.63013
▁self	-9.63016
ted	-9.63027
▁h	-9.63053
o	-9.63062
▁nine	-9.63135
▁stretched	-9.63196
▁trouble	-9.63243
▁Are	-9.6325
▁couldn	-9.63312
▁wonders	-9.63315
▁touching	-9.63449
▁stars	-9.63569
sar	-9.6364
▁purpose	-9.64101
▁gifts	-9.64155
▁heads	-9.64437
and	-9.64456
is	-9.64768
day	-9.64876
▁D	-9.65711
ped	-9.65871
▁afternoon	-9.66188
▁foundation	-9.6621
▁appear	-9.66233
▁Jew	-9.66475
▁cry	-9.66754
▁rule	-9.66759
▁Lo	-9.66792
▁wall	-9.66892
▁spirits	-9.66943
▁straight	-9.67141
▁Abimelech	-9.67143
▁bottom	-9.67143
▁caught	-9.67143
▁conscience	-9.67143
▁twin	-9.67143
▁unleavened	-9.67143
▁Elijah	-9.67143
▁hungry	-9.67145
▁story	-9.67146
▁winter	-9.67147
▁teeth	-9.67149
▁catch	-9.6715
▁household	-9.67161
▁sinned	-9.67164
▁With	-9.67179
▁really	-9.67188
▁risen	-9.67189
▁learned	-9.67508
ear	-9.67518
▁beat	-9.67569
▁sides	-9.67775
▁ways	-9.67826
▁watched	-9.68053
▁skins	-9.68123
▁ones	-9.6827
im	-9.68468
▁calling	-9.68703
▁months	-9.68705
▁faces	-9.68799
▁horse	-9.6895
▁H	-9.6902
for	-9.69388
i	-9.69392
▁state	-9.70493
▁tail	-9.70545
▁creek	-9.7058
▁ruler	-9.70693
▁act	-9.70748
Oh	-9.70913
▁parts	-9.70934
▁feed	-9.71067
▁count	-9.71197
▁double	-9.71263
▁secret	-9.71341
▁abound	-9.71342
▁loose	-9.71373
▁wild	-9.71392
▁thin	-9.71457
▁spoke	-9.71469
▁Levi	-9.71487
▁hither	-9.71488
▁raiment	-9.7149
▁glorify	-9.71491
▁afar	-9.71491
▁vineyard	-9.71491
▁Ridge	-9.71493
▁space	-9.71493
▁pigpen	-9.71496
▁goats	-9.71497
▁wrote	-9.71504
▁suddenly	-9.71518
▁creep	-9.71521
▁forgiven	-9.71533
▁outside	-9.71545
▁maid	-9.71546
▁golden	-9.7159
▁hot	-9.71605
▁witnesses	-9.71618
▁officers	-9.71709
▁ends	-9.71902
▁birds	-9.7206
▁wet	-9.7213
▁mayest	-9.72379
▁heed	-9.72638
▁eateth	-9.72649
▁heavenly	-9.72888
▁synagogues	-9.73008
▁Whi	-9.73032
▁feared	-9.7394
▁beasts	-9.7433
▁L	-9.74491
▁skin	-9.74684
▁charge	-9.74908
rew	-9.74968
▁pleasure	-9.75148
▁pillar	-9.75187
He	-9.75359
either	-9.75471
▁remain	-9.75484
▁play	-9.75523
▁sail	-9.75659
ar	-9.75678
▁report	-9.75687
ake	-9.75898
▁confess	-9.76027
▁inherit	-9.76031
▁Benjamin	-9.76036
▁Isaiah	-9.76036
▁array	-9.76036
▁haply	-9.76036
▁remembrance	-9.76036
▁womb	-9.76036
▁Timothy	-9.76036
▁mystery	-9.76036
▁daily	-9.76036
▁hail	-9.76038
▁tired	-9.76038
▁fence	-9.76038
▁likewise	-9.76038
▁inheritance	-9.76041
▁arrived	-9.7607
▁Put	-9.76172
▁Have	-9.76206
▁camels	-9.76214
▁inside	-9.76316
▁talking	-9.76385
▁weight	-9.76413
▁lose	-9.76422
ah	-9.76775
▁breath	-9.76815
▁heareth	-9.76929
▁willing	-9.77125
▁g	-9.77223
▁d	-9.77261
rs	-9.77608
▁c	-9.77615
▁spring	-9.77938
ity	-9.78027
▁fight	-9.78719
▁—	-9.78812
w	-9.79849
▁candlestick	-9.79898
▁village	-9.79922
▁lamb	-9.79935
▁coat	-9.79959
▁cover	-9.79965
▁finger	-9.79992
adventure	-9.80111
▁W	-9.80153
▁song	-9.80173
Yes	-9.80204
▁bury	-9.80317
▁fashion	-9.80332
▁establish	-9.80357
▁thank	-9.80439
▁possess	-9.80609
▁stumble	-9.80709
▁flee	-9.80711
▁ashamed	-9.80798
▁dominion	-9.80798
▁flood	-9.80798
▁knife	-9.80798
▁trail	-9.80798
▁devour	-9.80798
▁precious	-9.80798
▁Saviour	-9.80799
▁vail	-9.80799
▁happy	-9.80799
▁marry	-9.80799
▁further	-9.80799
▁Perry	-9.808
▁possible	-9.80809
▁elect	-9.80814
▁adultery	-9.80826
▁smote	-9.80834
▁sware	-9.80845
▁amazed	-9.80847
▁stick	-9.80863
▁slowly	-9.80875
▁scattered	-9.80915
▁sort	-9.80941
▁hardened	-9.80948
▁sixth	-9.81024
▁hire	-9.81026
▁bones	-9.81116
▁borne	-9.81153
▁hence	-9.81218
▁liveth	-9.81332
▁burned	-9.81404
▁feeling	-9.81453
ily	-9.81722
▁notice	-9.81789
▁strangers	-9.81882
▁destroyed	-9.81888
▁doing	-9.82933
▁R	-9.82939
▁Is	-9.83309
▁perceive	-9.8465
▁Salut	-9.84664
▁hole	-9.84893
▁Hebrew	-9.84928
▁cubit	-9.84952
▁ship	-9.85022
▁sanctif	-9.85088
▁curse	-9.85648
▁grave	-9.85764
▁naked	-9.8578
▁supper	-9.85796
▁Macedonia	-9.85798
▁Spearfinger	-9.85798
▁behalf	-9.85798
▁ignorant	-9.85798
▁thither	-9.85798
▁bottle	-9.85798
▁crawl	-9.85798
▁Saul	-9.85798
▁idea	-9.85798
▁loaves	-9.85799
▁reproach	-9.85807
▁cheer	-9.85809
▁moon	-9.85811
▁Arise	-9.85814
▁tidings	-9.85823
▁handmaid	-9.85834
▁decided	-9.85843
▁horns	-9.85884
▁wide	-9.85947
▁idols	-9.86042
▁fly	-9.86082
▁shoes	-9.8613
▁knees	-9.86178
▁bonds	-9.86308
▁washed	-9.86385
ate	-9.86419
▁either	-9.86428
▁letters	-9.86442
▁goods	-9.86504
▁use	-9.86894
▁move	-9.87233
▁eggs	-9.87467
▁tables	-9.87736
▁sacrifices	-9.8774
g	-9.87817
▁thinking	-9.87998
▁form	-9.88215
▁needs	-9.88347
nto	-9.88503
▁accuse	-9.89236
▁bearing	-9.89255
▁question	-9.89639
▁demon	-9.89767
▁affliction	-9.90063
▁governor	-9.90107
▁root	-9.90154
▁possession	-9.90173
▁neighbor	-9.90181
▁wheel	-9.90214
▁host	-9.90222
▁corner	-9.90263
▁afterward	-9.90331
▁clear	-9.90458
How	-9.90505
But	-9.90508
▁worry	-9.90561
▁regard	-9.90583
▁proceed	-9.90597
nt	-9.90607
▁shoulder	-9.90854
▁forbid	-9.90854
▁wicked	-9.90894
▁grievous	-9.90935
▁late	-9.91037
▁Cain	-9.9106
▁Claire	-9.91061
▁Jordan	-9.91061
▁abode	-9.91061
▁breakfast	-9.91061
▁centurion	-9.91061
▁company	-9.91061
▁marriage	-9.91061
▁neighbour	-9.91061
▁flies	-9.91061
▁parents	-9.91061
▁families	-9.91061
▁struck	-9.91062
▁nought	-9.91062
▁business	-9.91064
▁repentance	-9.91068
▁subjection	-9.91076
▁brake	-9.91082
▁Most	-9.91082
▁fill	-9.91083
▁tiny	-9.91102
▁cock	-9.91104
▁begin	-9.91107
▁direction	-9.91113
▁sell	-9.91129
▁robe	-9.91142
▁anger	-9.91161
▁marvelled	-9.9119
▁Art	-9.91192
▁tied	-9.91232
▁reckoned	-9.91331
▁Here	-9.91429
▁covering	-9.91569
ever	-9.91622
▁lusts	-9.91696
▁served	-9.91784
▁fully	-9.91786
▁height	-9.91873
▁corners	-9.91961
▁journeyed	-9.91997
▁hate	-9.92032
▁faint	-9.92234
▁Her	-9.92391
▁scriptures	-9.92398
▁gates	-9.92542
▁falling	-9.92733
▁declare	-9.92765
▁treasure	-9.93233
the	-9.93252
▁commit	-9.93511
▁G	-9.93543
ance	-9.94457
▁voices	-9.94948
▁labor	-9.95091
ish	-9.95221
▁join	-9.95298
▁tribulation	-9.95615
▁arm	-9.95743
▁apostle	-9.95807
The	-9.95907
times	-9.9597
That	-9.9606
▁profit	-9.96129
▁utter	-9.96151
▁strip	-9.96167
▁change	-9.96199
▁leaven	-9.9629
▁stop	-9.96406
▁refuse	-9.96419
▁plain	-9.96492
▁natural	-9.96505
▁chose	-9.96587
▁Brethren	-9.96616
▁Grace	-9.96616
▁Nazareth	-9.96616
▁beneath	-9.96616
▁geese	-9.96616
▁middle	-9.96616
▁Again	-9.96617
▁woe	-9.96617
▁fourteen	-9.96617
▁fair	-9.96618
▁respect	-9.96619
▁spoil	-9.96629
▁Asia	-9.96635
▁abundantly	-9.9664
▁Nay	-9.96646
▁drove	-9.9666
▁wish	-9.96672
▁lying	-9.96677
▁rent	-9.96744
▁revealed	-9.96753
▁Know	-9.96766
▁Dr	-9.96866
▁spin	-9.96924
▁talents	-9.96938
▁clothed	-9.96954
red	-9.96982
▁ago	-9.97031
ill	-9.97087
▁persons	-9.97139
▁remained	-9.97151
▁fourth	-9.97221
▁stayed	-9.97378
▁wouldest	-9.97579
▁perceiv	-9.97912
▁creatures	-9.97933
▁following	-9.98074
▁drive	-9.98164
▁rocks	-9.98584
▁rush	-9.98889
▁race	-9.99625
▁star	-9.99798
▁trust	-10.0003
▁nights	-10.0004
▁ass	-10.005
▁wear	-10.0069
▁pain	-10.0132
▁oath	-10.015
▁snow	-10.015
ting	-10.0151
▁vision	-10.0154
▁ram	-10.0156
▁fowl	-10.0157
▁miracle	-10.0157
▁male	-10.0158
▁serpent	-10.0159
▁learn	-10.0159
▁talk	-10.0162
▁widow	-10.0163
▁border	-10.0164
k	-10.0171
ry	-10.0173
▁won	-10.0194
▁redeem	-10.0205
▁escape	-10.023
he	-10.0231
▁reap	-10.0236
▁several	-10.0239
▁lot	-10.024
▁Antioch	-10.025
▁Crockett	-10.025
▁Ishmael	-10.025
▁Reuben	-10.025
▁Washington	-10.025
▁baptism	-10.025
▁cunning	-10.025
▁everlasting	-10.025
▁language	-10.025
▁leaving	-10.025
▁truly	-10.025
▁Sarai	-10.025
▁Sinai	-10.025
▁astray	-10.025
▁dawn	-10.025
▁slew	-10.025
▁nature	-10.025
▁sitteth	-10.025
▁colonel	-10.025
▁swallow	-10.025
▁Shechem	-10.025
▁Howbeit	-10.025
▁sanctuary	-10.025
▁tarried	-10.0251
▁grain	-10.0251
▁bitter	-10.0251
▁yellow	-10.0251
▁interpretation	-10.0252
▁sanctified	-10.0252
▁oxen	-10.0252
▁sorry	-10.0256
▁wheat	-10.0256
▁fishes	-10.0257
▁render	-10.0258
▁farm	-10.0263
▁sown	-10.0264
▁pail	-10.0266
▁exalted	-10.0271
▁weeping	-10.0282
▁Te	-10.0282
▁loosed	-10.0283
▁line	-10.0287
▁Look	-10.0288
▁lower	-10.0288
▁tears	-10.0289
▁wipe	-10.029
ory	-10.0293
▁sailed	-10.0307
▁calleth	-10.0307
▁counted	-10.0309
▁comforted	-10.0333
▁lines	-10.0336
▁borders	-10.0337
▁north	-10.0364
▁noise	-10.0373
▁watching	-10.0386
▁turning	-10.0419
▁st	-10.0425
▁doest	-10.0431
▁Br	-10.0443
▁con	-10.051
▁nose	-10.0515
▁inso	-10.0566
▁spiders	-10.0567
▁Oh	-10.0574
▁cr	-10.0583
▁offerings	-10.0637
▁thoughts	-10.0642
▁r	-10.0643
▁per	-10.0663
▁hide	-10.0685
▁cabin	-10.0775
▁exhort	-10.0777
▁fig	-10.0779
▁hill	-10.0787
to	-10.0793
ch	-10.0816
Charlotte	-10.0819
Now	-10.082
▁lack	-10.0822
▁Ha	-10.0841
▁dirt	-10.0866
▁swam	-10.0867
▁overcome	-10.0867
▁Asmeret	-10.0875
▁Ephesus	-10.0875
▁Hittite	-10.0875
▁Nahor	-10.0875
▁Simeon	-10.0875
▁cellar	-10.0875
▁harlot	-10.0875
▁rope	-10.0875
▁yield	-10.0875
▁running	-10.0875
▁Damascus	-10.0875
▁different	-10.0875
▁drank	-10.0875
▁godliness	-10.0875
▁building	-10.0875
▁common	-10.0875
▁wings	-10.0875
▁shook	-10.0876
▁compassion	-10.0877
▁grant	-10.0877
▁beaten	-10.0877
▁pick	-10.0878
▁bigge	-10.0878
▁mark	-10.0878
▁pool	-10.0879
▁chosen	-10.0879
▁thorns	-10.0883
▁asses	-10.0884
▁An	-10.0884
▁tempted	-10.0893
▁Did	-10.0893
▁jumped	-10.0893
▁chains	-10.0895
▁row	-10.0896
men	-10.0898
▁Hear	-10.0898
▁mourning	-10.09
▁wor	-10.0915
▁goodness	-10.0918
▁herds	-10.0918
▁pipe	-10.0922
ants	-10.093
▁pale	-10.0936
▁bowls	-10.094
▁lamps	-10.0945
▁breaking	-10.0972
▁arms	-10.0973
▁lambs	-10.099
▁sayest	-10.1014
▁Shem	-10.1029
▁de	-10.1051
▁withal	-10.1059
▁prayers	-10.1086
▁heal	-10.1135
▁drinking	-10.1163
▁commun	-10.1179
▁judges	-10.1254
▁fruits	-10.1278
▁roll	-10.1313
▁desert	-10.1391
▁girdle	-10.1442
▁cave	-10.1443
▁bringing	-10.1443
▁stream	-10.1446
age	-10.1446
▁week	-10.1452
▁Greek	-10.1455
▁bird	-10.1456
▁haste	-10.1463
▁glorying	-10.1469
Good	-10.1479
▁flow	-10.1487
laid	-10.1505
▁letter	-10.1516
▁flat	-10.1529
▁Man	-10.1536
ollow	-10.154
▁stumbling	-10.1542
▁Almighty	-10.1542
▁anxious	-10.1542
▁bodies	-10.1542
▁bridegroom	-10.1542
▁damsel	-10.1542
▁disobedient	-10.1542
▁divers	-10.1542
▁necessary	-10.1542
▁obedience	-10.1542
▁prosper	-10.1542
▁screamed	-10.1542
▁silence	-10.1542
▁uncircumcision	-10.1542
▁diligence	-10.1542
▁iron	-10.1542
▁trumpet	-10.1542
▁harvest	-10.1542
▁Stephen	-10.1542
▁lips	-10.1542
▁slain	-10.1542
▁Haran	-10.1542
▁honey	-10.1542
▁rising	-10.1542
▁Nancy	-10.1542
▁acceptable	-10.1542
▁spare	-10.1542
▁boldness	-10.1543
▁overlay	-10.1543
▁temptation	-10.1543
ite	-10.1544
▁lodge	-10.1544
▁steal	-10.1546
▁worse	-10.1548
▁hypocrites	-10.1551
▁Sure	-10.1554
▁Can	-10.1555
▁ceased	-10.1556
▁Sir	-10.1556
▁removed	-10.1557
▁defiled	-10.156
▁goslings	-10.1563
▁henceforth	-10.1563
▁shortly	-10.1563
▁obtained	-10.1567
THE	-10.1569
▁hell	-10.1574
wo	-10.1574
▁onto	-10.1579
▁stared	-10.1595
▁sacrificed	-10.1601
▁soft	-10.1609
▁frogs	-10.1617
▁Greeks	-10.1629
▁pro	-10.164
▁widows	-10.1641
▁Sen	-10.1669
▁needed	-10.1715
▁comes	-10.1715
ors	-10.1722
▁seeth	-10.1734
▁prove	-10.1758
▁sad	-10.1805
▁holding	-10.1808
▁rebuke	-10.1834
rolled	-10.1835
▁ill	-10.1909
score	-10.1981
▁liked	-10.1984
▁fore	-10.1994
▁occasion	-10.2045
No	-10.2112
▁happen	-10.2113
▁lust	-10.2116
▁burden	-10.2119
ge	-10.2151
▁revelation	-10.2156
▁region	-10.2161
▁supplication	-10.2165
▁shepherd	-10.2168
▁blanket	-10.2168
▁Egyptian	-10.2172
c	-10.2172
▁dog	-10.2187
ris	-10.2189
▁beside	-10.2192
F	-10.2198
▁salt	-10.2206
▁laugh	-10.2209
▁inhabit	-10.2209
▁interest	-10.2211
▁condemn	-10.2211
▁betray	-10.2212
▁heat	-10.2216
▁pour	-10.2216
▁add	-10.2216
▁defile	-10.2224
ary	-10.2227
▁je	-10.2227
▁release	-10.2235
▁despise	-10.2235
▁taste	-10.2236
▁store	-10.2237
▁slow	-10.2248
▁vine	-10.2256
▁America	-10.2256
▁Lazarus	-10.2256
▁Manasseh	-10.2256
▁Sadducees	-10.2256
▁Sequoyah	-10.2256
▁awoke	-10.2256
▁confidence	-10.2256
▁countenance	-10.2256
▁doctrine	-10.2256
▁dumb	-10.2256
▁multiplied	-10.2256
▁ointment	-10.2256
▁recompense	-10.2256
▁substance	-10.2256
▁tarry	-10.2256
▁Hagar	-10.2256
▁crep	-10.2256
▁digged	-10.2256
▁contrary	-10.2256
▁gander	-10.2256
▁fellowship	-10.2256
▁loins	-10.2256
▁pretty	-10.2256
▁Zion	-10.2257
▁understood	-10.2257
▁continually	-10.2257
▁unrighteousness	-10.2257
▁ungodly	-10.2257
▁loss	-10.2258
▁wickedness	-10.2258
▁price	-10.2258
▁trade	-10.2258
▁exactly	-10.2259
▁married	-10.226
▁heap	-10.226
▁rejected	-10.2261
▁doorway	-10.2261
▁stedfastly	-10.2262
▁carefully	-10.2262
▁fruitful	-10.2262
▁shot	-10.2264
▁stirred	-10.2264
▁descended	-10.2267
▁spit	-10.2269
▁kindness	-10.2269
▁hunger	-10.227
▁prevailed	-10.227
▁thick	-10.2273
▁dying	-10.2274
▁manure	-10.2276
▁ring	-10.2277
▁quietly	-10.2278
▁loops	-10.2279
▁bars	-10.228
▁town	-10.2281
▁final	-10.2287
▁pond	-10.2294
▁divide	-10.2298
xcept	-10.2301
▁chariots	-10.2304
▁rejoiced	-10.2305
▁condemned	-10.2306
▁cleanse	-10.2309
▁powers	-10.2318
▁promised	-10.2319
▁consider	-10.2329
ke	-10.2334
time	-10.2348
▁fasten	-10.2353
▁m	-10.2359
ach	-10.2364
▁desired	-10.2364
▁dreamed	-10.2396
▁seasons	-10.2435
▁Well	-10.2439
▁lives	-10.2445
▁Re	-10.2446
unto	-10.249
ight	-10.2498
▁mo	-10.2546
▁ca	-10.2551
▁parted	-10.2593
▁praying	-10.2618
▁intend	-10.2695
▁west	-10.2698
▁laying	-10.2732
▁tr	-10.2739
▁shed	-10.2755
▁desir	-10.2775
▁favor	-10.2775
▁rivers	-10.2895
▁en	-10.2912
▁hang	-10.2921
▁custom	-10.293
▁case	-10.2932
▁frog	-10.2939
▁lamp	-10.2939
▁trap	-10.2943
what	-10.297
though	-10.2974
▁fetch	-10.2975
▁prophesy	-10.2976
▁stretch	-10.2982
▁Say	-10.2985
that	-10.2991
▁Rabbi	-10.2992
▁endure	-10.2998
▁owner	-10.3002
▁complete	-10.3004
▁hung	-10.301
▁proud	-10.301
ug	-10.3011
▁commend	-10.3012
▁eleven	-10.3014
▁content	-10.3015
▁branch	-10.3023
sarea	-10.3025
▁Babylon	-10.3025
▁Capernaum	-10.3025
▁English	-10.3025
▁Nevertheless	-10.3025
▁Remember	-10.3025
▁Titus	-10.3025
▁cousin	-10.3025
▁enemy	-10.3025
▁fifteen	-10.3025
▁ghost	-10.3025
▁thief	-10.3025
▁travail	-10.3025
▁Festus	-10.3025
▁epistle	-10.3025
▁calf	-10.3025
▁Moreover	-10.3025
▁broad	-10.3025
▁excellent	-10.3025
▁stuff	-10.3025
▁compass	-10.3025
▁void	-10.3025
▁particular	-10.3025
▁famous	-10.3025
▁Edom	-10.3025
▁bidden	-10.3025
▁prophecy	-10.3025
▁heavy	-10.3026
▁family	-10.3026
▁nay	-10.3026
▁Which	-10.3026
▁palm	-10.3026
▁single	-10.3026
▁ashes	-10.3027
▁Abel	-10.3027
▁jealousy	-10.3027
▁husbandmen	-10.3027
▁bind	-10.3027
▁kindred	-10.3028
▁Hello	-10.3028
▁trial	-10.3028
▁beforehand	-10.3028
▁shaken	-10.3028
bee	-10.3029
▁cherubims	-10.3029
▁determined	-10.3029
▁wander	-10.303
▁driven	-10.3031
▁Homer	-10.3032
▁portion	-10.3032
▁later	-10.3033
▁required	-10.3034
▁everywhere	-10.3034
▁ball	-10.3035
▁fit	-10.304
▁wrapp	-10.3042
ier	-10.3045
▁remaineth	-10.3046
▁increased	-10.3046
▁hateth	-10.3048
▁pitched	-10.3048
▁anybody	-10.3051
▁hooks	-10.3054
▁stool	-10.3055
▁planted	-10.3055
▁youngest	-10.3056
▁hunting	-10.306
▁publicans	-10.3064
▁withered	-10.3069
▁likeness	-10.3071
▁stead	-10.3071
▁betrayed	-10.3072
▁special	-10.3075
▁does	-10.3075
▁fugitives	-10.3078
▁tall	-10.3079
Many	-10.3081
▁aside	-10.3085
▁standeth	-10.312
▁findeth	-10.3124
▁builded	-10.314
▁greatest	-10.3141
▁numbered	-10.3144
▁reading	-10.3149
▁gotten	-10.3154
▁hosts	-10.3155
▁Hebrews	-10.3162
▁Zuckermans	-10.3164
▁waited	-10.3168
▁sounded	-10.3175
▁shoulders	-10.3198
ought	-10.3211
▁tribes	-10.3219
▁meeting	-10.322
▁sleeping	-10.325
if	-10.3267
ned	-10.3296
stead	-10.3366
▁masters	-10.3376
all	-10.3403
nder	-10.3441
▁thousands	-10.3477
b	-10.3479
▁Heth	-10.3499
▁yours	-10.3524
▁seal	-10.3526
reached	-10.3532
be	-10.3614
ened	-10.3619
▁Du	-10.3682
ic	-10.37
▁co	-10.3717
▁forget	-10.3752
▁paper	-10.3763
▁shadow	-10.3768
▁animal	-10.3773
▁vessel	-10.3773
▁Pharisee	-10.3774
▁band	-10.3776
▁elder	-10.3777
▁sack	-10.3777
▁shekel	-10.3779
▁bond	-10.3781
▁color	-10.3786
▁herb	-10.379
▁prisoner	-10.3795
Do	-10.3798
Can	-10.3802
▁doubt	-10.3806
▁swing	-10.3806
▁proclaim	-10.3814
▁reckon	-10.3815
▁press	-10.3818
▁suck	-10.3818
▁weep	-10.382
▁deed	-10.3826
▁restore	-10.3841
▁observe	-10.3842
▁memorial	-10.3844
▁broke	-10.3855
id	-10.3857
▁sow	-10.3858
ncle	-10.3858
▁Calhoun	-10.3858
▁Ephraim	-10.3858
▁Finally	-10.3858
▁Gomorrah	-10.3858
▁Goshen	-10.3858
▁High	-10.3858
▁Lichen	-10.3858
▁Solomon	-10.3858
▁asunder	-10.3858
▁buttermilk	-10.3858
▁creation	-10.3858
▁female	-10.3858
▁longsuffering	-10.3858
▁school	-10.3858
▁slept	-10.3858
▁twice	-10.3858
▁idle	-10.3858
▁spend	-10.3858
▁hidden	-10.3858
▁crieth	-10.3858
▁oak	-10.3858
▁alms	-10.3858
▁destruction	-10.3859
▁dried	-10.3859
▁wroth	-10.3859
▁forehead	-10.3859
▁steward	-10.3859
▁colt	-10.3859
▁Dorian	-10.3859
▁stole	-10.3859
▁sang	-10.3859
▁dump	-10.3859
▁pasture	-10.3859
▁scratch	-10.3859
▁corruption	-10.3859
▁lawyer	-10.3859
▁size	-10.3859
▁fun	-10.386
▁denied	-10.386
▁tender	-10.386
▁kine	-10.386
▁trespasses	-10.386
▁expect	-10.386
▁thanksgiving	-10.386
▁pitcher	-10.386
▁astonished	-10.3861
▁ministration	-10.3861
▁merciful	-10.3861
▁dash	-10.3862
▁worth	-10.3863
▁cook	-10.3863
▁discern	-10.3863
▁deer	-10.3863
▁error	-10.3864
▁getting	-10.3865
elah	-10.3867
▁mill	-10.3867
▁thirst	-10.3867
▁bath	-10.3868
▁whispered	-10.3868
▁drawn	-10.3868
▁persuaded	-10.3871
▁dirty	-10.3871
▁floor	-10.3871
▁wonderful	-10.3873
▁warned	-10.3877
▁belly	-10.3881
▁partakers	-10.3888
▁separate	-10.3891
▁Just	-10.3894
▁attention	-10.3896
▁cows	-10.3898
▁highest	-10.3901
▁Canaanites	-10.3902
▁string	-10.3905
▁sufferings	-10.3908
▁bowl	-10.3913
▁Don	-10.3923
▁drunken	-10.3927
▁o	-10.393
▁str	-10.3935
▁dwelleth	-10.3937
▁reported	-10.3941
▁shekels	-10.3946
▁West	-10.3951
▁carrying	-10.3961
▁burdens	-10.3961
▁hiding	-10.3967
▁canst	-10.3972
z	-10.3972
▁burning	-10.3974
▁anointed	-10.3976
▁rams	-10.3985
ew	-10.4007
▁heir	-10.4039
▁fo	-10.4048
ine	-10.4049
reby	-10.4051
▁dukes	-10.4062
ad	-10.4068
ied	-10.4081
▁Andrew	-10.4116
aw	-10.4122
▁sing	-10.416
▁net	-10.4175
▁rested	-10.4182
▁La	-10.4199
ably	-10.4237
▁minded	-10.425
▁ex	-10.4264
▁claim	-10.4314
O	-10.4342
hi	-10.4351
▁w	-10.4394
▁spra	-10.4403
▁mov	-10.4489
ard	-10.4507
▁Je	-10.451
wn	-10.4538
minded	-10.4544
▁cloth	-10.4584
▁fillet	-10.4611
▁person	-10.4649
▁leg	-10.4666
▁thread	-10.4668
▁log	-10.4674
▁hatchet	-10.4675
▁sinner	-10.4686
▁J	-10.4692
▁soldier	-10.4693
▁teacher	-10.4696
▁chamber	-10.4698
bye	-10.471
Look	-10.4711
C	-10.4711
Let	-10.4712
which	-10.4712
▁interpret	-10.4716
▁travel	-10.4717
▁sojourn	-10.4717
And	-10.4718
ring	-10.4718
▁veil	-10.4721
▁inter	-10.4726
▁appoint	-10.4731
te	-10.4744
▁humble	-10.4747
▁cease	-10.4748
▁prepare	-10.4748
um	-10.4751
▁nice	-10.4753
▁pleasant	-10.4754
▁direct	-10.4761
▁unrighteous	-10.4766
erhaps	-10.4766
▁equal	-10.4767
▁suggest	-10.4767
▁fulfil	-10.4767
▁Baptist	-10.4767
▁laurel	-10.4767
▁smooth	-10.4767
▁Agrippa	-10.4767
▁Axe	-10.4767
▁Featherstone	-10.4767
▁Iscariot	-10.4767
▁Lamech	-10.4767
▁Martha	-10.4767
▁Midian	-10.4767
▁Wasseton	-10.4767
▁Zebedee	-10.4767
▁abiding	-10.4767
▁absent	-10.4767
▁crucify	-10.4767
▁desolate	-10.4767
▁exercise	-10.4767
▁leap	-10.4767
▁savour	-10.4767
▁swine	-10.4767
▁trembling	-10.4767
▁Also	-10.4768
▁Ephron	-10.4768
▁atonement	-10.4768
▁merry	-10.4768
▁fulness	-10.4768
▁lean	-10.4768
▁dragon	-10.4768
▁resist	-10.4768
▁Sidon	-10.4768
▁choice	-10.4768
▁token	-10.4768
▁defence	-10.4768
▁Ross	-10.4768
▁dinner	-10.4768
▁trip	-10.4768
▁Enoch	-10.4768
▁plann	-10.4768
▁Wayah	-10.4768
▁chair	-10.4768
▁uttermost	-10.4768
▁plow	-10.4768
▁Ham	-10.4768
▁lake	-10.4768
▁kid	-10.4768
▁Master	-10.4768
▁coast	-10.4768
▁horsemen	-10.4768
▁condemnation	-10.4769
▁distance	-10.4769
▁Hamor	-10.4769
▁pluck	-10.4769
▁yourself	-10.477
▁roof	-10.4771
▁prize	-10.4771
▁snare	-10.4772
▁pile	-10.4773
▁post	-10.4773
▁radiant	-10.4774
▁whereby	-10.4774
▁shone	-10.4775
▁sixty	-10.4777
▁sober	-10.4778
▁grown	-10.4778
▁robbers	-10.478
▁murmured	-10.4782
ixt	-10.4783
▁consumed	-10.4786
▁shouted	-10.4786
▁Edith	-10.4787
▁terrific	-10.4787
man	-10.4791
▁cleansed	-10.4795
▁favoured	-10.4795
▁failed	-10.4799
▁Hav	-10.48
▁refused	-10.4801
▁everybody	-10.4806
▁due	-10.4806
▁St	-10.4807
▁Rabbit	-10.4807
▁wondered	-10.4808
▁Ch	-10.4811
▁pressed	-10.4816
▁laughed	-10.4824
▁Beer	-10.4827
▁speaker	-10.4832
▁plagues	-10.4839
▁Per	-10.4852
▁established	-10.4854
▁party	-10.4858
▁glass	-10.4873
joined	-10.4877
▁blankets	-10.4881
ive	-10.4894
old	-10.491
▁dozen	-10.4911
▁forest	-10.4913
not	-10.4918
▁villages	-10.4941
▁fingers	-10.4941
▁hit	-10.4946
▁shape	-10.4958
▁Beth	-10.496
▁walls	-10.4962
▁goest	-10.4969
ns	-10.4978
▁strive	-10.4996
▁gr	-10.5001
▁apples	-10.5046
▁ha	-10.5066
▁Dan	-10.5125
▁showing	-10.5126
ain	-10.5134
ched	-10.516
▁wr	-10.5193
▁husbands	-10.5216
▁telling	-10.5233
▁fact	-10.5247
most	-10.525
em	-10.5259
math	-10.5286
▁vi	-10.5389
ank	-10.5424
▁bade	-10.5446
▁Get	-10.5469
ber	-10.5493
▁worked	-10.5522
▁tro	-10.5537
▁wonder	-10.5574
▁fields	-10.5597
loved	-10.5654
▁earthquake	-10.5668
▁thigh	-10.5672
▁minute	-10.5675
▁window	-10.5675
▁knop	-10.5677
▁ordinance	-10.5678
▁prince	-10.5678
▁basket	-10.5679
▁meal	-10.568
▁figure	-10.5687
un	-10.5691
where	-10.5696
▁corrupt	-10.5702
Why	-10.5712
▁consent	-10.5712
Don	-10.5714
There	-10.5718
▁accept	-10.5719
dded	-10.5723
▁pull	-10.5726
seat	-10.5737
▁healing	-10.5743
▁increase	-10.5748
▁awake	-10.575
▁hunt	-10.5753
▁earnest	-10.5753
▁suppose	-10.5754
▁ride	-10.5756
sheba	-10.5767
▁fool	-10.5767
▁Amalek	-10.5767
▁Hivite	-10.5767
▁Jethro	-10.5767
▁Magdalene	-10.5767
▁Mamre	-10.5767
▁Peace	-10.5767
▁Philadelphia	-10.5767
▁Philistines	-10.5767
▁Samaria	-10.5767
▁Silas	-10.5767
▁apparel	-10.5767
▁bacon	-10.5767
▁believing	-10.5767
▁coupling	-10.5767
▁dishonor	-10.5767
▁enjoy	-10.5767
▁fault	-10.5767
▁fountain	-10.5767
▁liberty	-10.5767
▁lieutenant	-10.5767
▁ministry	-10.5767
▁plenty	-10.5767
▁stomach	-10.5767
▁strife	-10.5767
▁taches	-10.5767
▁thrice	-10.5767
▁tribute	-10.5767
▁underneath	-10.5767
▁aught	-10.5767
▁barren	-10.5767
▁imitat	-10.5768
▁shirt	-10.5768
▁Ananias	-10.5768
▁bosom	-10.5768
▁JE	-10.5768
▁firmament	-10.5768
▁Bethany	-10.5768
▁shining	-10.5768
▁staff	-10.5768
▁curious	-10.5768
wels	-10.5768
▁weather	-10.5768
▁chicken	-10.5768
▁Speak	-10.5768
▁remission	-10.5768
▁cool	-10.5768
▁meekness	-10.5768
▁fog	-10.5768
▁George	-10.5768
▁dropped	-10.5768
▁Terah	-10.5768
▁decomposers	-10.5769
▁bunch	-10.5769
▁dew	-10.5769
▁fighting	-10.5769
▁armies	-10.577
▁darkened	-10.577
▁shake	-10.577
▁span	-10.5771
▁testified	-10.5771
ueen	-10.5771
▁upper	-10.5771
▁nakedness	-10.5771
▁motion	-10.5772
▁exhortation	-10.5772
▁approved	-10.5773
▁seize	-10.5773
▁moreover	-10.5773
▁busy	-10.5774
▁Henry	-10.5777
▁boldly	-10.5778
▁Perhaps	-10.5778
▁flame	-10.5779
▁endureth	-10.5781
▁overcometh	-10.5784
▁butler	-10.5784
▁Pig	-10.5784
▁agreed	-10.5785
▁accomplished	-10.5789
▁pushed	-10.5789
▁spices	-10.5791
▁someone	-10.5792
Run	-10.5794
▁separated	-10.5794
▁pack	-10.5799
▁anyone	-10.5799
▁listening	-10.58
▁blow	-10.5801
▁dragg	-10.5802
hick	-10.5803
▁escaped	-10.5805
▁searched	-10.5807
▁guide	-10.581
owed	-10.5812
▁lieth	-10.5815
▁supposed	-10.5818
▁Though	-10.5818
▁proclaimed	-10.5821
▁Wom	-10.5824
▁thunders	-10.5828
▁brush	-10.5839
▁tenth	-10.5843
▁streets	-10.5847
▁judgeth	-10.5848
▁falleth	-10.5853
▁shine	-10.5865
▁teachers	-10.5874
▁sacks	-10.5875
▁deeds	-10.5879
▁perished	-10.5901
▁formed	-10.5903
▁ru	-10.592
ure	-10.5926
▁neighbors	-10.5941
▁force	-10.5943
▁hoped	-10.5947
▁beam	-10.5982
ne	-10.5988
▁Ma	-10.602
ant	-10.6055
▁simple	-10.6064
thrown	-10.6127
▁dwelling	-10.6144
▁ministering	-10.6149
▁sha	-10.6154
▁bell	-10.6156
land	-10.6158
▁promises	-10.6161
▁sprinkl	-10.6162
▁matters	-10.617
▁dreams	-10.6173
▁Pr	-10.6184
▁Pa	-10.6187
▁Me	-10.6197
▁share	-10.6215
▁kinds	-10.6247
▁thrones	-10.6247
▁Ga	-10.6281
▁winds	-10.6305
▁par	-10.6307
les	-10.6316
▁Cap	-10.638
ra	-10.6389
▁rode	-10.6456
▁sakes	-10.6492
ump	-10.6499
▁Wil	-10.6513
▁declar	-10.6518
ot	-10.6581
▁wave	-10.6641
▁hat	-10.6653
▁tin	-10.6689
ments	-10.6691
▁hu	-10.6694
ery	-10.6701
od	-10.6702
▁knee	-10.6734
▁drunk	-10.6777
▁captive	-10.6783
▁habitation	-10.6783
▁game	-10.6784
▁mourn	-10.6785
▁effort	-10.6786
▁nest	-10.6787
▁virgin	-10.6787
▁flower	-10.679
▁street	-10.6791
▁plague	-10.6791
▁drop	-10.6792
ware	-10.6793
▁rubb	-10.6794
▁search	-10.6797
▁scribe	-10.6798
▁girl	-10.6801
▁path	-10.6804
▁youth	-10.6808
pleasing	-10.6812
▁marvel	-10.6817
▁twist	-10.6821
▁pot	-10.6827
▁testify	-10.683
▁delight	-10.6832
▁ninet	-10.6833
▁obtain	-10.6835
special	-10.6837
▁mad	-10.6838
▁real	-10.6839
▁den	-10.6845
▁preserve	-10.6856
▁bid	-10.6857
▁consume	-10.6859
▁bold	-10.6866
▁entire	-10.6866
Thi	-10.6869
We	-10.6874
laver	-10.6875
eople	-10.6876
▁trespass	-10.6877
▁public	-10.6877
▁danger	-10.6877
▁agree	-10.6878
▁tight	-10.6878
▁Padan	-10.6878
▁future	-10.6879
▁Beaver	-10.6879
▁Bethuel	-10.6879
▁Charlie	-10.6879
▁Japheth	-10.6879
▁Joppa	-10.6879
▁Joshua	-10.6879
▁Zacharias	-10.6879
▁altogether	-10.6879
▁bundle	-10.6879
▁diligently	-10.6879
▁disobedience	-10.6879
▁fifth	-10.6879
▁furnace	-10.6879
▁grieved	-10.6879
▁group	-10.6879
▁guile	-10.6879
▁indignation	-10.6879
▁iniquities	-10.6879
▁kitchen	-10.6879
▁leaf	-10.6879
▁midnight	-10.6879
▁nevertheless	-10.6879
▁offended	-10.6879
▁practise	-10.6879
▁publish	-10.6879
▁sanctification	-10.6879
▁silk	-10.6879
▁slops	-10.6879
▁speckled	-10.6879
▁stoop	-10.6879
▁surname	-10.6879
▁sweat	-10.6879
▁venison	-10.6879
▁violence	-10.6879
▁Charleston	-10.6879
▁abyss	-10.6879
▁devout	-10.6879
▁Apollos	-10.6879
▁angry	-10.6879
▁wove	-10.6879
▁brimstone	-10.6879
▁smitten	-10.6879
▁slaves	-10.6879
▁gracious	-10.6879
▁Bilhah	-10.6879
▁degree	-10.6879
▁magicians	-10.6879
▁below	-10.6879
▁blew	-10.6879
▁bride	-10.6879
▁trick	-10.6879
▁lightning	-10.6879
▁easier	-10.6879
▁Everything	-10.6879
▁wages	-10.6879
▁harm	-10.6879
▁privily	-10.6879
▁Seir	-10.6879
▁mix	-10.6879
▁unbelief	-10.688
▁issue	-10.688
▁mingled	-10.688
▁usual	-10.688
▁New	-10.688
▁choose	-10.688
▁sentence	-10.688
▁Hono	-10.688
▁Chapman	-10.688
▁upright	-10.6881
▁Anah	-10.6881
▁innocent	-10.6881
▁roast	-10.6881
▁confession	-10.6881
▁assembly	-10.6881
▁unbelieving	-10.6882
▁appeal	-10.6883
▁print	-10.6883
▁rear	-10.6883
▁bondservant	-10.6883
▁muskets	-10.6884
▁crickets	-10.6885
▁City	-10.6885
▁foolishness	-10.6885
▁honorable	-10.6885
▁Way	-10.6886
▁somewhere	-10.6886
▁bag	-10.6886
▁sighed	-10.6887
▁dart	-10.6888
owbeit	-10.6889
▁mention	-10.6889
▁Seven	-10.6889
▁earnestly	-10.6892
▁boots	-10.6895
▁locusts	-10.6895
▁maybe	-10.6897
▁dove	-10.6898
▁persecuted	-10.6902
▁hinder	-10.6904
▁Sit	-10.6908
▁br	-10.6912
▁afflicted	-10.6913
▁listened	-10.6913
▁mocked	-10.6913
▁peril	-10.6918
▁sand	-10.6918
▁entreated	-10.6918
▁Fer	-10.6922
▁changed	-10.6923
▁hunters	-10.6928
▁Doth	-10.6932
▁interpreted	-10.6934
▁pocket	-10.6935
▁kneel	-10.694
ttach	-10.694
▁valu	-10.6944
▁breasts	-10.6947
▁soli	-10.695
▁kindly	-10.6951
▁beans	-10.6955
▁miles	-10.6958
▁suit	-10.6961
▁...	-10.6966
ix	-10.6973
▁leavened	-10.6973
▁baskets	-10.6978
▁cloths	-10.699
▁prisoners	-10.7007
▁bestow	-10.7008
▁besides	-10.7021
▁beating	-10.7039
▁mess	-10.7047
▁lots	-10.7052
▁exalt	-10.7053
▁says	-10.7055
op	-10.7082
▁coats	-10.7095
▁salutation	-10.7104
▁stoned	-10.7107
mah	-10.7151
▁fearful	-10.7162
▁parables	-10.717
▁reasoning	-10.7183
▁lands	-10.7188
▁ward	-10.7199
▁tombs	-10.7202
▁Ho	-10.722
▁god	-10.7235
▁sp	-10.7318
▁aim	-10.7319
fully	-10.7322
ans	-10.7332
▁clouds	-10.7343
▁today	-10.7364
ia	-10.7376
ture	-10.7381
ol	-10.7408
▁haven	-10.7439
na	-10.7446
▁puff	-10.7488
u	-10.7495
▁rebuk	-10.7586
▁arrow	-10.7611
▁stepp	-10.7643
godly	-10.7659
▁Repe	-10.7676
formed	-10.769
▁po	-10.7729
▁avenge	-10.773
▁withstand	-10.7739
me	-10.7775
▁rattl	-10.7777
dal	-10.7778
▁looks	-10.7783
▁step	-10.7821
ern	-10.7823
▁judgments	-10.7844
▁inward	-10.7848
▁Arables	-10.7866
▁doors	-10.7885
ries	-10.7886
morrow	-10.7892
▁ho	-10.7898
▁bush	-10.7918
▁Abi	-10.796
▁cove	-10.7962
▁hem	-10.7964
ered	-10.7979
▁watered	-10.7984
ent	-10.7986
gged	-10.8009
nother	-10.8017
▁fail	-10.802
▁tradition	-10.8029
▁Cas	-10.8032
▁climb	-10.8038
▁trunk	-10.8039
kins	-10.8041
▁fugitive	-10.8042
▁chariot	-10.8042
▁mile	-10.8042
▁bras	-10.8045
▁toil	-10.8046
▁shoe	-10.805
K	-10.8067
aram	-10.8072
you	-10.8073
Fern	-10.8074
▁fold	-10.8075
▁bone	-10.8076
▁tear	-10.8078
▁rail	-10.8078
▁torment	-10.8082
▁dress	-10.8084
▁entreat	-10.8085
down	-10.8091
▁baptize	-10.8097
rust	-10.81
some	-10.8101
▁provoke	-10.8107
doing	-10.811
▁becoming	-10.8114
▁patient	-10.8115
▁crow	-10.8118
▁Maj	-10.8123
▁murder	-10.8123
aithful	-10.8127
eathen	-10.8128
▁vari	-10.8128
▁advantage	-10.8129
▁Barabbas	-10.8129
▁Caiaphas	-10.8129
▁Cephas	-10.8129
▁Cilicia	-10.8129
▁Naphtali	-10.8129
▁Rejoice	-10.8129
▁Return	-10.8129
▁Stretch	-10.8129
▁Zebulun	-10.8129
▁abundance	-10.8129
▁anguish	-10.8129
▁attempt	-10.8129
▁beauty	-10.8129
▁capital	-10.8129
▁cloak	-10.8129
▁coffee	-10.8129
▁courage	-10.8129
▁dancing	-10.8129
▁desperate	-10.8129
▁example	-10.8129
▁expedient	-10.8129
▁experience	-10.8129
▁necessity	-10.8129
▁ninth	-10.8129
▁nourish	-10.8129
▁olive	-10.8129
▁ouches	-10.8129
▁perdition	-10.8129
▁pledge	-10.8129
▁renew	-10.8129
▁stories	-10.8129
▁supply	-10.8129
▁terribl	-10.8129
▁uncircumcised	-10.8129
▁valley	-10.8129
▁wolf	-10.8129
▁Scot	-10.8129
▁almonds	-10.8129
▁mitre	-10.8129
▁stiff	-10.8129
▁Bethlehem	-10.8129
▁Dinah	-10.8129
▁blank	-10.8129
▁easy	-10.8129
▁snake	-10.8129
▁narrow	-10.8129
▁baby	-10.8129
▁calm	-10.8129
▁Mark	-10.8129
▁dispute	-10.8129
▁pattern	-10.8129
▁Rome	-10.8129
▁redemption	-10.8129
▁Think	-10.8129
▁yoke	-10.8129
▁abomination	-10.8129
▁conversation	-10.8129
▁provide	-10.8129
▁tunnel	-10.8129
▁townhouse	-10.8129
▁chance	-10.8129
▁Gerar	-10.8129
▁coals	-10.8129
▁Great	-10.8129
▁division	-10.8129
▁Adah	-10.8129
▁blameless	-10.8129
▁disgust	-10.8129
▁lump	-10.8129
▁impossible	-10.8129
▁Tyre	-10.8129
▁zealous	-10.8129
▁blasphemy	-10.8129
▁covetousness	-10.8129
▁miserable	-10.813
▁admonish	-10.813
▁signet	-10.813
▁Jake	-10.813
▁torn	-10.813
▁kindled	-10.813
▁Eber	-10.813
ook	-10.8131
▁sufficien	-10.8131
▁spies	-10.8131
▁partake	-10.8131
▁profitable	-10.8131
▁sorrowful	-10.8132
▁dish	-10.8132
▁dear	-10.8132
▁privately	-10.8133
▁clay	-10.8133
▁clerk	-10.8133
▁skull	-10.8133
▁shift	-10.8133
▁fresh	-10.8133
▁Lowan	-10.8133
▁scourge	-10.8133
▁Love	-10.8134
▁vast	-10.8134
▁weakness	-10.8134
▁doesn	-10.8135
▁cheek	-10.8135
▁firstfruits	-10.8136
▁uncleanness	-10.8136
▁track	-10.8137
▁ordained	-10.8138
▁grabbed	-10.8138
▁discover	-10.8139
▁anyway	-10.814
▁hopeless	-10.8141
▁hay	-10.8142
▁entirely	-10.8142
▁wasn	-10.8143
up	-10.8144
▁selves	-10.8147
▁fist	-10.8148
▁health	-10.8149
▁farther	-10.8151
▁descending	-10.8151
▁waved	-10.8152
▁Soon	-10.8152
▁stripes	-10.8152
▁contain	-10.8153
light	-10.8154
▁shade	-10.8157
▁clearly	-10.8159
▁smaller	-10.8162
line	-10.8164
▁yelled	-10.8164
ul	-10.8165
▁endured	-10.8166
▁disappeared	-10.8168
▁pearls	-10.8171
▁ridges	-10.8171
▁diseases	-10.8171
▁pins	-10.8181
▁limbs	-10.8182
▁babes	-10.8183
▁porch	-10.8183
▁music	-10.8184
▁openly	-10.8185
▁corrupted	-10.8186
▁bugs	-10.8187
mote	-10.8189
▁dressed	-10.8194
▁wagons	-10.8195
▁transgressions	-10.8195
▁clothing	-10.8196
▁proved	-10.8201
▁quarter	-10.8203
▁freely	-10.8204
▁teacheth	-10.8204
▁sowed	-10.8213
▁island	-10.822
pa	-10.8224
▁poke	-10.8229
▁drops	-10.8231
▁ordinances	-10.8243
▁princes	-10.8243
ab	-10.8247
▁pigs	-10.8249
▁barely	-10.8266
▁ra	-10.8268
lee	-10.8274
▁judgest	-10.8274
▁obeyed	-10.8276
ping	-10.8276
▁nets	-10.8287
ites	-10.8289
▁shepherds	-10.8291
▁towns	-10.8291
▁preacher	-10.8292
ctually	-10.8302
▁weeks	-10.8303
▁wit	-10.8311
▁hills	-10.8315
▁beholding	-10.8315
▁sawest	-10.8317
▁Seth	-10.8318
▁opening	-10.8349
▁handle	-10.8357
▁acknowledge	-10.8362
▁Write	-10.8363
▁songs	-10.8376
▁perfected	-10.8399
▁seeme	-10.841
ions	-10.8431
▁rods	-10.8446
iel	-10.8479
ee	-10.8486
▁lights	-10.8493
▁ti	-10.8518
▁lover	-10.8528
▁strike	-10.8542
aved	-10.8545
cy	-10.8581
▁Ar	-10.8648
tuck	-10.865
▁sisters	-10.866
▁principal	-10.8698
hu	-10.8811
ree	-10.8818
▁Al	-10.8832
▁Les	-10.8839
▁dra	-10.8841
▁Z	-10.8843
▁Whe	-10.8856
pe	-10.8871
ft	-10.888
ush	-10.8884
▁settl	-10.8895
mer	-10.8898
▁thereby	-10.8905
▁saidst	-10.8913
▁ended	-10.892
ated	-10.8925
▁admir	-10.8955
▁camest	-10.8976
▁liken	-10.898
dden	-10.903
▁du	-10.906
▁bus	-10.908
▁wa	-10.9116
ver	-10.9145
way	-10.9154
ice	-10.918
▁distress	-10.9209
▁butter	-10.9281
▁hearted	-10.9332
▁Am	-10.9333
▁plan	-10.9339
ade	-10.9348
rash	-10.9364
▁Ja	-10.9369
ut	-10.937
ash	-10.9381
ipped	-10.9393
▁Wa	-10.9397
▁”	-10.9413
W	-10.9423
il	-10.9423
house	-10.9428
▁Er	-10.9432
over	-10.9439
▁bullock	-10.9447
▁platter	-10.9449
▁plant	-10.945
▁tale	-10.9458
▁bank	-10.9459
▁blade	-10.9463
▁dance	-10.9464
▁listen	-10.9466
▁clothe	-10.9468
▁thunder	-10.9469
▁mock	-10.947
▁talent	-10.9472
▁breast	-10.9474
▁weigh	-10.9483
▁forbear	-10.9499
Just	-10.9499
stool	-10.95
deep	-10.9501
Where	-10.9502
but	-10.9502
▁suppos	-10.9503
So	-10.9504
Go	-10.9504
▁envy	-10.9504
My	-10.9508
▁afflict	-10.9511
▁disappear	-10.9512
▁favour	-10.9513
▁hatch	-10.9514
▁jump	-10.9514
▁finish	-10.9515
▁harp	-10.9525
same	-10.9528
▁persecute	-10.9531
▁harden	-10.9536
▁plot	-10.9539
▁pea	-10.954
▁silent	-10.9544
▁quick	-10.9546
pon	-10.9547
▁adulter	-10.9548
▁careful	-10.9549
▁fade	-10.955
▁potato	-10.9555
▁forsake	-10.9556
▁birth	-10.9556
▁speed	-10.9557
▁affection	-10.9557
▁Galil	-10.9557
▁Achaia	-10.9557
▁Aholibamah	-10.9557
▁Arphaxad	-10.9557
▁Beelzebub	-10.9557
▁Children	-10.9557
▁Cornelius	-10.9557
▁Cyprus	-10.9557
▁Eliphaz	-10.9557
▁Elisabeth	-10.9557
▁Felix	-10.9557
▁Fussy	-10.9557
▁Galatia	-10.9557
▁Grounds	-10.9557
▁Hezron	-10.9557
▁Lieutenant	-10.9557
▁Melchizedek	-10.9557
▁Milcah	-10.9557
▁Zilpah	-10.9557
▁Zoar	-10.9557
▁accompan	-10.9557
▁adversaries	-10.9557
▁carnal	-10.9557
▁frozen	-10.9557
▁furniture	-10.9557
▁grandchildren	-10.9557
▁grapes	-10.9557
▁honour	-10.9557
▁infirmity	-10.9557
▁mediator	-10.9557
▁midwives	-10.9557
▁mischief	-10.9557
▁obedient	-10.9557
▁opportunity	-10.9557
▁outdoors	-10.9557
▁refuge	-10.9557
▁ringstraked	-10.9557
▁runners	-10.9557
▁steep	-10.9557
▁storm	-10.9557
▁strove	-10.9557
▁woke	-10.9557
▁wolves	-10.9557
▁Cyren	-10.9557
▁aloud	-10.9557
▁clever	-10.9557
▁enormous	-10.9557
▁slaughter	-10.9557
▁Olives	-10.9557
▁beckon	-10.9557
▁gnash	-10.9557
▁pertain	-10.9557
▁occupied	-10.9557
▁adversary	-10.9557
▁myrrh	-10.9557
▁Korah	-10.9557
▁consecrate	-10.9557
▁regular	-10.9557
▁important	-10.9557
▁doctor	-10.9557
▁stockade	-10.9557
▁punishment	-10.9557
▁sinneth	-10.9557
▁Enos	-10.9557
▁birthright	-10.9557
▁holiness	-10.9557
▁stedfast	-10.9557
▁engrav	-10.9558
▁offspring	-10.9558
▁frame	-10.9558
▁Hades	-10.9558
▁train	-10.9558
▁mercies	-10.9558
▁freedom	-10.9558
▁litter	-10.9558
▁comment	-10.9558
▁reins	-10.9558
▁grate	-10.9558
▁check	-10.9558
▁Bash	-10.9559
▁flight	-10.9559
▁imagination	-10.9559
▁useful	-10.9559
▁lame	-10.956
▁Asher	-10.956
▁rejecteth	-10.956
▁hundredfold	-10.956
▁human	-10.956
▁err	-10.9561
▁Bar	-10.9561
▁sense	-10.9561
▁evermore	-10.9561
▁perplexed	-10.9561
▁spear	-10.9561
▁fever	-10.9561
▁swarm	-10.9561
▁Him	-10.9561
▁southward	-10.9561
▁chest	-10.9561
▁Cainan	-10.9562
▁eastward	-10.9562
▁adorn	-10.9562
▁bake	-10.9562
▁throat	-10.9562
▁onyx	-10.9562
▁lend	-10.9563
zale	-10.9564
▁fourscore	-10.9564
▁recent	-10.9564
▁gladness	-10.9564
▁books	-10.9564
▁frost	-10.9566
▁menservants	-10.9567
▁view	-10.9568
▁sickle	-10.9569
▁box	-10.9569
▁pursued	-10.9569
▁march	-10.957
▁Watch	-10.9571
▁shineth	-10.9571
▁ham	-10.9573
▁managed	-10.9573
▁deceived	-10.9574
▁ascended	-10.9574
▁refreshed	-10.9575
▁passage	-10.9576
▁tithes	-10.9578
▁soweth	-10.9579
▁Hast	-10.9579
der	-10.9581
▁loaded	-10.9582
▁strengthened	-10.9583
▁Gad	-10.9584
▁axe	-10.9586
▁convict	-10.9589
▁manna	-10.9591
tial	-10.9592
▁restored	-10.9593
▁scared	-10.9593
ked	-10.9596
▁realize	-10.9602
skins	-10.9603
▁observed	-10.9604
▁gladly	-10.9605
▁pe	-10.9609
▁tasted	-10.9609
▁climbing	-10.9612
▁Amorites	-10.962
▁Only	-10.9621
▁higher	-10.9622
▁wondering	-10.9628
ue	-10.9628
▁weary	-10.9639
▁answereth	-10.964
▁hanged	-10.9645
▁sealed	-10.9647
▁rust	-10.9649
▁mid	-10.965
▁plans	-10.965
▁incorruptible	-10.9655
▁beware	-10.9658
▁Hai	-10.966
▁trunks	-10.9662
▁therewith	-10.9664
▁steps	-10.9665
▁noon	-10.9671
▁redeemed	-10.9673
▁baker	-10.9673
▁doves	-10.9676
L	-10.9678
▁learning	-10.9679
▁fainted	-10.9685
▁upward	-10.9688
tion	-10.9702
▁shadows	-10.9719
▁tempt	-10.9721
▁accus	-10.9723
▁feeding	-10.9723
▁herbs	-10.973
immed	-10.9746
▁castle	-10.9746
▁dogs	-10.9747
▁meant	-10.975
▁wouldn	-10.9789
ack	-10.9801
▁attend	-10.9809
▁suffering	-10.9814
▁possessions	-10.9818
stroke	-10.9819
▁sixt	-10.982
▁spot	-10.9823
▁reed	-10.9828
▁candlesticks	-10.9846
▁pitch	-10.9894
do	-10.9938
▁temper	-10.9945
▁captains	-10.9946
▁lovely	-10.9958
▁imagine	-10.9962
▁seats	-10.997
more	-10.9976
▁blot	-11.0013
▁Roman	-11.0019
ins	-11.0037
dge	-11.0045
go	-11.0049
▁killing	-11.0071
▁keeper	-11.0101
▁wars	-11.0108
ith	-11.0124
▁Will	-11.014
▁boats	-11.0149
▁sounds	-11.0152
om	-11.0155
lock	-11.0159
▁courts	-11.0179
▁Ad	-11.0217
▁El	-11.0289
she	-11.0298
▁Bo	-11.0319
▁tents	-11.0327
ified	-11.0339
▁De	-11.0354
▁herd	-11.0366
ship	-11.0374
nd	-11.0375
▁fan	-11.0386
ni	-11.039
▁dippe	-11.0408
▁worm	-11.0409
▁base	-11.0418
▁comest	-11.0445
▁pai	-11.0492
liness	-11.0567
▁prov	-11.0632
ble	-11.067
▁sa	-11.0675
br	-11.0688
▁va	-11.0704
▁yell	-11.0704
ster	-11.072
don	-11.0732
▁n	-11.0773
▁fro	-11.0774
pers	-11.0806
▁com	-11.0815
▁gun	-11.0828
ane	-11.0838
ally	-11.0847
ay	-11.0918
▁befall	-11.0927
test	-11.0948
▁pre	-11.0963
head	-11.0975
▁Yes	-11.0997
set	-11.0999
lk	-11.1021
ough	-11.1026
servant	-11.1044
pped	-11.106
▁hours	-11.1082
▁cha	-11.1082
▁scrap	-11.1096
▁Sa	-11.1097
▁balloon	-11.1099
ced	-11.1107
fold	-11.1109
▁webs	-11.1112
▁whoso	-11.1112
▁labour	-11.1114
sh	-11.1114
▁scatter	-11.1117
▁sepulchre	-11.1124
▁brick	-11.1124
ations	-11.1126
▁lion	-11.1127
▁statute	-11.1129
▁provision	-11.1129
▁persecution	-11.1129
▁liar	-11.1129
▁messenger	-11.1131
▁maidservant	-11.1133
▁murderer	-11.1134
▁wound	-11.1134
▁wagon	-11.1135
▁transgression	-11.1135
▁idol	-11.1137
▁publican	-11.1139
▁Canaanite	-11.1145
H	-11.1154
control	-11.1156
Please	-11.1157
ists	-11.1161
▁receiv	-11.1161
▁stir	-11.1162
▁pound	-11.1163
May	-11.1164
▁officer	-11.1165
▁gnaw	-11.1166
chamber	-11.1166
Some	-11.1168
Come	-11.1168
Templeton	-11.1168
▁boil	-11.1169
She	-11.1172
▁attain	-11.1174
li	-11.1174
▁confirm	-11.1175
▁oppress	-11.1176
▁tabernacles	-11.1177
▁bark	-11.118
▁cow	-11.1185
icken	-11.1185
▁reveal	-11.1187
▁eviden	-11.1189
All	-11.1192
▁sc	-11.1193
▁fin	-11.1194
▁Y	-11.1194
▁deceive	-11.1197
▁gird	-11.1202
▁mud	-11.1202
▁peri	-11.1202
▁inquire	-11.1204
▁require	-11.1205
rough	-11.1208
bor	-11.1208
▁remove	-11.1209
▁fierce	-11.1211
▁assured	-11.1211
▁glorious	-11.1214
uffer	-11.1216
▁knock	-11.1218
▁Syria	-11.122
gers	-11.1221
▁gentle	-11.1221
urthermore	-11.1222
▁sect	-11.1222
▁correct	-11.1223
stitute	-11.1223
▁abst	-11.1224
▁Reu	-11.1224
▁effect	-11.1224
torium	-11.1224
▁Alexander	-11.1224
▁Aquila	-11.1224
▁Creek	-11.1224
▁Eleazar	-11.1224
▁Hebron	-11.1224
▁Iconium	-11.1224
▁Issachar	-11.1224
▁Jericho	-11.1224
▁KING	-11.1224
▁Laodicea	-11.1224
▁Lystra	-11.1224
▁Machpelah	-11.1224
▁Mahalaleel	-11.1224
▁Methuselah	-11.1224
▁Nazarene	-11.1224
▁Peleg	-11.1224
▁Sunday	-11.1224
▁Troas	-11.1224
▁Zibeon	-11.1224
▁audience	-11.1224
▁autumn	-11.1224
▁baptizing	-11.1224
▁blemish	-11.1224
▁bracelets	-11.1224
▁breeze	-11.1224
▁ceiling	-11.1224
▁cleave	-11.1224
▁conditions	-11.1224
▁desolation	-11.1224
▁eldest	-11.1224
▁enmity	-11.1224
▁ensample	-11.1224
▁execute	-11.1224
▁extra	-11.1224
▁foreordained	-11.1224
▁foreskin	-11.1224
▁ignorance	-11.1224
▁jasper	-11.1224
▁majesty	-11.1224
▁merchandise	-11.1224
▁mirror	-11.1224
▁muscle	-11.1224
▁newspaper	-11.1224
▁opinion	-11.1224
▁plenteous	-11.1224
▁rejoicing	-11.1224
▁relief	-11.1224
▁reprobate	-11.1224
▁reserved	-11.1224
▁rotten	-11.1224
▁savor	-11.1224
▁serving	-11.1224
▁studie	-11.1224
▁taskmasters	-11.1224
▁tetrarch	-11.1224
▁tobacco	-11.1224
▁treasury	-11.1224
▁unprofitable	-11.1224
▁wool	-11.1224
▁Army	-11.1224
▁Believe	-11.1224
▁Word	-11.1224
▁downhill	-11.1224
▁overshadow	-11.1224
▁paused	-11.1224
▁queer	-11.1224
▁represent	-11.1224
▁roar	-11.1224
▁shield	-11.1224
▁magic	-11.1224
▁scorch	-11.1224
▁Eden	-11.1224
▁existence	-11.1224
▁spell	-11.1224
▁soap	-11.1224
▁success	-11.1224
▁Alph	-11.1224
▁excellenc	-11.1224
▁needlework	-11.1224
▁stink	-11.1224
▁limit	-11.1224
▁estate	-11.1224
▁grind	-11.1224
▁magnified	-11.1224
▁Jesse	-11.1224
▁triumph	-11.1224
▁foursquare	-11.1224
▁Tamar	-11.1224
▁vinegar	-11.1224
▁quail	-11.1224
▁brave	-11.1224
▁displease	-11.1224
▁unfruitful	-11.1224
▁aforetime	-11.1224
▁Government	-11.1224
▁situation	-11.1224
▁folk	-11.1224
▁serious	-11.1224
▁squatted	-11.1224
▁Salah	-11.1224
▁fame	-11.1224
▁doughnut	-11.1224
▁encamp	-11.1224
▁herdmen	-11.1224
▁government	-11.1224
▁message	-11.1224
▁omer	-11.1225
▁Jared	-11.1225
▁object	-11.1225
▁Reuel	-11.1225
▁readiness	-11.1225
▁Rain	-11.1225
▁hypocrisy	-11.1225
▁tenons	-11.1225
▁center	-11.1225
▁Moon	-11.1225
▁melt	-11.1225
▁dy	-11.1225
▁barnyard	-11.1226
▁dangerous	-11.1226
▁proof	-11.1226
▁depth	-11.1226
▁match	-11.1226
▁Rise	-11.1226
▁saving	-11.1227
▁Shelah	-11.1228
▁Syrian	-11.1228
▁Old	-11.1228
▁squash	-11.1229
▁range	-11.1229
▁recover	-11.1229
▁thrash	-11.123
▁study	-11.123
▁Without	-11.1231
▁spotted	-11.1231
▁mass	-11.1231
▁laden	-11.1232
▁convert	-11.1233
▁whiskers	-11.1233
▁prophesied	-11.1233
▁purchased	-11.1233
▁circle	-11.1233
▁justice	-11.1235
ext	-11.1235
▁lonely	-11.1236
▁surety	-11.1236
▁eighth	-11.1236
foot	-11.1236
▁repeated	-11.1237
▁sniffed	-11.1237
▁vexed	-11.1237
▁prof	-11.1237
▁reproved	-11.1237
▁edifying	-11.1237
workers	-11.1239
▁pair	-11.124
▁ripe	-11.124
▁sickness	-11.1241
▁sum	-11.1241
▁nurse	-11.1242
▁sinful	-11.1242
▁sway	-11.1243
▁Hur	-11.1244
▁fixed	-11.1245
cut	-11.1246
ael	-11.1246
▁couch	-11.1247
▁inquired	-11.1249
▁setting	-11.125
muel	-11.1251
▁blaspheme	-11.1252
▁covet	-11.1252
▁instructed	-11.1253
▁collected	-11.1253
▁exten	-11.1254
▁groaning	-11.1255
▁softly	-11.1256
uffle	-11.1257
▁nodded	-11.1258
▁evident	-11.1258
▁backward	-11.1262
▁plainly	-11.1263
▁riding	-11.1264
▁Other	-11.1265
▁somebody	-11.1266
▁wounded	-11.127
▁despised	-11.1274
▁released	-11.1274
▁lace	-11.1274
▁marvell	-11.1276
▁pervert	-11.1279
▁Cret	-11.1281
▁murmurings	-11.1282
▁distressed	-11.1285
▁forbidd	-11.1294
▁distan	-11.1296
▁cursed	-11.1298
▁searching	-11.1299
▁testifying	-11.1299
▁hogs	-11.1299
▁Samaritans	-11.1299
▁marketplaces	-11.1299
▁questionings	-11.1299
▁May	-11.1302
▁openeth	-11.1302
▁accepted	-11.1303
▁intent	-11.1304
▁hairy	-11.1306
▁ju	-11.1311
▁sojourned	-11.1312
▁pounds	-11.1316
▁maidservants	-11.1316
▁housetop	-11.132
▁laws	-11.1326
▁plants	-11.1332
robably	-11.1334
▁begged	-11.1338
▁workers	-11.1338
▁ours	-11.1348
▁coves	-11.135
▁exhorted	-11.1354
▁paths	-11.1366
▁virgins	-11.1366
▁waves	-11.1367
▁uttered	-11.137
▁speakest	-11.1371
▁labored	-11.1372
▁knops	-11.1383
Not	-11.1384
▁shapes	-11.1385
▁clearing	-11.1387
▁Good	-11.1389
▁entertain	-11.1397
▁Mo	-11.1404
▁hundreds	-11.1404
▁burying	-11.1405
▁beach	-11.1411
▁bands	-11.1416
▁pots	-11.142
▁Eli	-11.1429
▁appearing	-11.1432
ech	-11.1434
▁drinketh	-11.1443
▁Mi	-11.1446
▁supplications	-11.1451
▁occasions	-11.1455
▁Sometime	-11.1459
iness	-11.146
▁Co	-11.1463
gging	-11.147
▁rac	-11.1481
▁di	-11.1485
▁serpents	-11.1502
▁En	-11.1519
▁roots	-11.1536
▁fasting	-11.1538
▁Ou	-11.1545
▁holes	-11.1553
ide	-11.1567
▁constrain	-11.1572
nce	-11.1579
▁creeks	-11.1604
▁Pi	-11.1605
▁dreaming	-11.1607
▁bother	-11.1621
▁char	-11.1622
▁examin	-11.1642
▁smelling	-11.1645
▁sayings	-11.1646
▁seest	-11.1658
▁helping	-11.1674
▁lone	-11.1675
▁Ne	-11.1692
▁pop	-11.1695
▁Sin	-11.1707
▁process	-11.1732
▁gra	-11.174
ha	-11.1744
▁sta	-11.1769
▁tangle	-11.1792
uch	-11.1877
how	-11.1888
by	-11.1922
longeth	-11.1968
ig	-11.1975
trusted	-11.2005
▁nuts	-11.2031
▁hairs	-11.2044
v	-11.2061
pic	-11.2069
lushed	-11.2083
tur	-11.21
Is	-11.2101
▁signifie	-11.2105
▁Con	-11.2106
pensation	-11.214
▁spi	-11.2147
▁member	-11.2148
ious	-11.2149
lic	-11.2166
▁Ari	-11.2182
son	-11.2199
▁Jo	-11.2215
▁Le	-11.2242
▁mere	-11.2244
N	-11.2285
▁win	-11.2307
tic	-11.232
▁cur	-11.2337
os	-11.2339
▁sub	-11.2342
treated	-11.2353
da	-11.236
are	-11.2371
▁welcome	-11.2371
ign	-11.238
▁treasures	-11.238
▁im	-11.2392
▁bas	-11.2393
▁ease	-11.24
ancy	-11.2414
lah	-11.2422
▁throw	-11.244
▁sprinkle	-11.2441
▁pie	-11.2459
sive	-11.2497
▁dodg	-11.254
▁cutt	-11.2552
ale	-11.2575
▁fain	-11.2586
▁lords	-11.2631
cession	-11.2637
▁imagin	-11.2665
io	-11.2675
bal	-11.2685
▁simpl	-11.2685
mit	-11.2696
▁shave	-11.271
llen	-11.2714
▁heave	-11.2723
▁longing	-11.2732
▁examine	-11.2736
shed	-11.2739
▁Sheba	-11.2746
nas	-11.2784
▁cor	-11.2788
pping	-11.2793
pots	-11.2821
▁Gree	-11.2823
▁min	-11.2832
tained	-11.2871
▁cap	-11.2892
▁flu	-11.2924
▁Ju	-11.2945
own	-11.2957
▁Sha	-11.2967
long	-11.2979
ving	-11.2986
ged	-11.2991
▁Ten	-11.3014
like	-11.3029
M	-11.306
right	-11.3066
cept	-11.308
hold	-11.3085
▁ga	-11.309
▁rid	-11.3092
held	-11.3095
ccord	-11.311
▁tumult	-11.3114
▁trans	-11.3128
▁eunuch	-11.3131
▁shilling	-11.3131
▁chestnut	-11.3131
▁sheet	-11.3132
corruptible	-11.3132
▁plate	-11.3133
▁Samaritan	-11.3133
▁marketplace	-11.3133
▁Day	-11.3133
▁Amorite	-11.3134
▁babe	-11.3135
worker	-11.3136
▁hunter	-11.3143
▁push	-11.3152
wear	-11.3154
▁hog	-11.3154
▁limb	-11.3156
▁instruction	-11.3163
Will	-11.3165
color	-11.3167
▁pin	-11.3167
When	-11.3168
Wilbur	-11.3169
▁includ	-11.3169
midst	-11.317
▁accomplish	-11.318
▁prevail	-11.318
Of	-11.3181
▁Late	-11.3181
▁charg	-11.3182
▁hind	-11.3184
▁handful	-11.3188
yard	-11.3191
▁dim	-11.3193
▁Na	-11.3198
▁K	-11.3202
▁decide	-11.3205
▁conceive	-11.3205
▁circumcise	-11.3206
lace	-11.3208
ursed	-11.3209
▁lunch	-11.3209
▁confident	-11.321
▁fervent	-11.321
▁brief	-11.3211
▁shout	-11.3211
▁deceitful	-11.3212
▁difficult	-11.3214
uddenly	-11.3214
▁warn	-11.3215
▁rend	-11.3216
▁overthrow	-11.322
▁purse	-11.3222
▁pant	-11.3223
▁zeal	-11.3223
▁mouths	-11.3223
▁confus	-11.3223
▁deceit	-11.3223
▁cruel	-11.3223
▁Corinth	-11.3224
▁lascivious	-11.3224
▁progress	-11.3224
▁Bethsaida	-11.3224
▁Boudinot	-11.3224
▁Chedorlaomer	-11.3224
▁Chief	-11.3224
▁Deliver	-11.3224
▁Friend	-11.3224
▁Nadab	-11.3224
▁Pamphylia	-11.3224
▁Philippi	-11.3224
▁Serug	-11.3224
▁Tarsus	-11.3224
▁Thomas	-11.3224
▁Tychicus	-11.3224
▁YHWH	-11.3224
▁abolish	-11.3224
▁accurately	-11.3224
▁affrighted	-11.3224
▁amazement	-11.3224
▁anathema	-11.3224
▁attitude	-11.3224
▁beguile	-11.3224
▁betrothed	-11.3224
▁borrow	-11.3224
▁bridle	-11.3224
▁carriage	-11.3224
▁cheese	-11.3224
▁consecration	-11.3224
▁cornmeal	-11.3224
▁cotton	-11.3224
▁dissolved	-11.3224
▁excess	-11.3224
▁furlongs	-11.3224
▁grandmother	-11.3224
▁grandstand	-11.3224
▁grief	-11.3224
▁grinned	-11.3224
▁heretofore	-11.3224
▁hospitality	-11.3224
▁hurry	-11.3224
▁infirmities	-11.3224
▁insurrection	-11.3224
▁leather	-11.3224
▁magazine	-11.3224
▁mandrakes	-11.3224
▁muttered	-11.3224
▁nutrients	-11.3224
▁organisms	-11.3224
▁perfume	-11.3224
▁racket	-11.3224
▁regret	-11.3224
▁religion	-11.3224
▁spinnerets	-11.3224
▁stunned	-11.3224
▁swelling	-11.3224
▁task	-11.3224
▁terrified	-11.3224
▁thieves	-11.3224
▁thoroughly	-11.3224
▁ungodliness	-11.3224
▁upstairs	-11.3224
▁vanity	-11.3224
▁vengeance	-11.3224
▁whisky	-11.3224
closing	-11.3224
▁avoid	-11.3224
▁cream	-11.3224
▁deaf	-11.3224
▁decision	-11.3224
▁flavor	-11.3224
▁indoors	-11.3224
▁kinsmen	-11.3224
▁orchard	-11.3224
▁powder	-11.3224
▁strict	-11.3224
▁sweep	-11.3224
▁thumb	-11.3224
▁worried	-11.3224
▁Diana	-11.3224
▁Nathanael	-11.3224
▁alien	-11.3224
▁burst	-11.3224
▁neglect	-11.3224
▁polish	-11.3224
▁secur	-11.3224
▁Hosanna	-11.3224
▁rumor	-11.3224
▁slumber	-11.3224
▁sneak	-11.3224
▁Aholi	-11.3224
▁Like	-11.3224
▁gravity	-11.3224
▁crumbs	-11.3224
▁difference	-11.3224
▁citizenship	-11.3224
▁snout	-11.3224
Sleep	-11.3224
▁choke	-11.3224
▁heavily	-11.3224
▁continuing	-11.3224
▁fables	-11.3224
Humble	-11.3224
▁Deep	-11.3224
▁delay	-11.3224
▁tag	-11.3224
▁overtake	-11.3224
▁bald	-11.3224
▁odor	-11.3224
diment	-11.3224
▁Gaius	-11.3224
▁Zerah	-11.3224
▁Jason	-11.3224
▁bowels	-11.3224
▁Heaven	-11.3224
▁Depart	-11.3224
▁support	-11.3224
▁babies	-11.3224
▁straitened	-11.3224
▁consolation	-11.3224
▁bucket	-11.3224
▁seventeen	-11.3224
▁riverboat	-11.3224
▁Tru	-11.3224
▁graft	-11.3224
▁urgent	-11.3224
▁bleed	-11.3224
▁uncertain	-11.3224
▁brook	-11.3224
▁stewardship	-11.3224
▁sincerity	-11.3224
▁dig	-11.3224
▁gentlemen	-11.3224
▁dollar	-11.3224
▁buck	-11.3225
▁wallet	-11.3225
▁partner	-11.3225
▁property	-11.3225
▁crook	-11.3225
▁assign	-11.3225
▁accusation	-11.3225
▁otherwise	-11.3225
▁Herodias	-11.3225
▁confusion	-11.3225
▁provender	-11.3225
▁scales	-11.3225
▁stem	-11.3225
▁victory	-11.3225
▁attack	-11.3225
▁tower	-11.3225
▁envie	-11.3225
▁assay	-11.3225
▁hys	-11.3225
▁landscape	-11.3225
▁liquor	-11.3225
▁wot	-11.3225
▁duty	-11.3225
▁chew	-11.3225
▁shamefully	-11.3226
▁carton	-11.3226
▁lice	-11.3226
Bee	-11.3226
▁dung	-11.3226
▁shortened	-11.3226
▁utterance	-11.3226
neck	-11.3226
▁distinction	-11.3226
▁friendship	-11.3226
▁raw	-11.3226
▁expectation	-11.3226
▁behave	-11.3226
▁motionless	-11.3226
▁square	-11.3226
▁offence	-11.3226
▁appearance	-11.3227
▁potatoes	-11.3227
▁westward	-11.3227
▁firm	-11.3227
▁filthy	-11.3227
▁dizzy	-11.3227
▁memory	-11.3227
▁pepper	-11.3227
▁spilled	-11.3227
▁peach	-11.3228
▁tossed	-11.3228
▁potter	-11.3228
▁argument	-11.3228
▁Save	-11.3229
▁election	-11.3229
▁cris	-11.3229
▁punished	-11.323
▁frightened	-11.323
▁booth	-11.323
▁ladies	-11.3231
agement	-11.3231
▁Jonah	-11.3232
▁Keep	-11.3232
▁boast	-11.3233
▁wake	-11.3233
▁priesthood	-11.3234
▁glanc	-11.3235
▁squirrels	-11.3235
▁relieved	-11.3236
▁Onan	-11.3236
▁Sam	-11.3239
tual	-11.3239
▁chuckled	-11.324
▁explained	-11.324
▁comfortable	-11.324
▁trembled	-11.324
▁Over	-11.324
▁gainsaying	-11.324
▁graven	-11.3241
▁slight	-11.3242
R	-11.3243
▁pretend	-11.3243
▁stage	-11.3244
▁pine	-11.3246
▁moth	-11.3248
▁noble	-11.3249
lapped	-11.3249
ross	-11.325
▁whispering	-11.3251
▁chastening	-11.3251
▁scar	-11.3251
▁upside	-11.3253
▁damp	-11.3254
▁weave	-11.3254
▁however	-11.3254
▁Fall	-11.3254
▁tares	-11.3255
▁warriors	-11.3255
▁idolaters	-11.3256
▁swo	-11.3256
▁blasphemed	-11.3256
▁entr	-11.3256
servants	-11.3257
▁stern	-11.3257
▁liver	-11.3258
▁closer	-11.326
▁laborers	-11.3262
▁Anna	-11.3268
▁ax	-11.3269
▁severally	-11.327
▁position	-11.3271
▁key	-11.3272
▁Nothing	-11.3272
▁humbled	-11.3273
▁assembled	-11.3274
▁grievously	-11.3276
▁Jebusites	-11.3276
▁fornicators	-11.3276
▁shelters	-11.3276
▁Perizzites	-11.3276
▁forthwith	-11.3278
▁throwing	-11.3278
▁chase	-11.328
▁bug	-11.328
▁split	-11.3281
▁girded	-11.3281
▁flatter	-11.3284
▁barking	-11.3284
▁scattering	-11.3284
▁sir	-11.3286
▁spinn	-11.3286
▁stack	-11.3287
▁passions	-11.329
▁news	-11.329
▁ma	-11.3292
▁thereunto	-11.3293
▁seethe	-11.3293
▁fi	-11.3294
▁mocking	-11.3295
▁droppings	-11.3297
▁joints	-11.3297
▁sparrows	-11.3297
▁personal	-11.33
▁tormented	-11.3302
▁perisheth	-11.3304
▁failing	-11.3306
bed	-11.3307
▁closely	-11.331
▁starv	-11.331
▁deck	-11.3311
▁fatherless	-11.3311
▁delighted	-11.3312
Thank	-11.3313
▁shillings	-11.3317
▁eunuchs	-11.3317
▁chestnuts	-11.3317
▁plates	-11.3318
▁thinkest	-11.3322
som	-11.3323
▁stopp	-11.3324
▁treated	-11.3327
▁veiled	-11.3333
▁questioning	-11.3336
▁invisible	-11.3337
▁messengers	-11.3338
▁Whom	-11.3339
ature	-11.3343
arley	-11.3346
▁singing	-11.335
▁wont	-11.3354
▁firstling	-11.3358
sop	-11.3359
ole	-11.3359
▁considered	-11.3361
▁prophesying	-11.3361
▁inhabited	-11.3365
▁pa	-11.3368
▁mist	-11.3371
ton	-11.3376
▁manif	-11.3378
▁interesting	-11.338
iest	-11.3383
▁serveth	-11.3384
▁ahead	-11.3384
▁needeth	-11.3385
▁exhorting	-11.3395
II	-11.3396
▁efforts	-11.3401
▁cart	-11.341
▁proceeded	-11.3416
vile	-11.3416
▁older	-11.3417
▁minutes	-11.3422
▁windows	-11.3423
▁filling	-11.3423
ards	-11.3428
▁believest	-11.343
▁ja	-11.3433
▁dec	-11.3437
▁fashioned	-11.3438
▁hatchets	-11.3443
his	-11.3452
▁fle	-11.3453
▁breathing	-11.3456
side	-11.3458
▁heirs	-11.3464
▁awful	-11.348
▁seals	-11.3491
ible	-11.3502
alam	-11.3516
▁tooth	-11.3538
▁divine	-11.3545
mp	-11.3548
▁forever	-11.3551
▁fowls	-11.357
▁miracles	-11.357
▁males	-11.3571
▁pri	-11.3571
revious	-11.3597
▁wheels	-11.3613
▁afterwards	-11.3613
▁sco	-11.3613
▁questions	-11.3615
▁remind	-11.3617
▁Se	-11.3625
▁Bu	-11.3634
▁cane	-11.3634
ff	-11.3671
co	-11.3675
▁pleasures	-11.3678
▁helper	-11.3678
nath	-11.3682
▁Cana	-11.3692
▁tails	-11.3699
ran	-11.3727
bah	-11.3729
dom	-11.3743
▁accuser	-11.3754
▁helped	-11.376
uth	-11.3778
hin	-11.3798
▁images	-11.3808
▁ash	-11.3808
row	-11.3813
▁scorn	-11.3866
▁doll	-11.3876
urge	-11.3893
gy	-11.3911
▁orders	-11.3916
▁shell	-11.3975
eph	-11.4014
▁points	-11.4042
ise	-11.406
▁peaceful	-11.4066
ears	-11.4068
▁trac	-11.4094
▁su	-11.4094
▁intreat	-11.4102
ias	-11.4103
▁sy	-11.4105
▁lur	-11.4134
ast	-11.414
▁tip	-11.4165
ork	-11.4186
tal	-11.4223
▁decompose	-11.4224
▁bl	-11.424
aph	-11.4258
▁helps	-11.4313
▁ver	-11.432
ating	-11.4388
▁runt	-11.4391
▁puffe	-11.4396
▁empt	-11.4426
por	-11.4459
▁commune	-11.4483
▁decompos	-11.4488
▁bees	-11.4493
▁steppe	-11.4494
rushed	-11.4532
nched	-11.4546
▁mar	-11.4558
ify	-11.46
ull	-11.463
▁layer	-11.4653
cked	-11.4665
▁tu	-11.469
als	-11.4695
▁tool	-11.4705
ile	-11.4746
▁Ti	-11.4749
▁Si	-11.4755
phe	-11.4765
▁bar	-11.4781
▁Whit	-11.4791
rim	-11.483
pture	-11.4845
▁val	-11.4869
▁mol	-11.489
▁qua	-11.4891
angled	-11.4893
erah	-11.4898
▁lid	-11.496
pen	-11.5013
iv	-11.5014
rous	-11.5019
▁kn	-11.503
▁dip	-11.5071
▁Wi	-11.5097
▁doer	-11.5118
▁distribute	-11.5129
com	-11.5131
▁Ah	-11.5142
▁Di	-11.5158
▁settle	-11.518
dull	-11.5182
bout	-11.5223
▁whit	-11.5238
ere	-11.527
▁rag	-11.5299
ians	-11.5336
▁injur	-11.5343
▁Ca	-11.5344
lations	-11.5356
eak	-11.5375
▁overthr	-11.5376
unt	-11.5378
ung	-11.5394
board	-11.5395
rated	-11.5403
▁cake	-11.5405
onsider	-11.541
eez	-11.5433
uck	-11.5444
ower	-11.5462
▁Bela	-11.5466
tled	-11.551
▁Mu	-11.5533
wled	-11.5544
round	-11.5551
work	-11.5554
▁vow	-11.5569
▁prefer	-11.5573
▁skill	-11.5577
visible	-11.5581
▁Set	-11.5589
antic	-11.5606
ttention	-11.561
▁candle	-11.5611
cerning	-11.5617
▁invent	-11.5618
▁exp	-11.5623
▁nail	-11.5625
▁rank	-11.5625
▁debtor	-11.5626
▁groan	-11.5628
▁pomegranate	-11.5629
▁weapon	-11.5629
▁murmur	-11.563
ngel	-11.5631
▁sparrow	-11.5631
▁dropping	-11.5632
▁deceiver	-11.5633
stone	-11.5634
▁disease	-11.5635
▁descend	-11.5637
▁gosling	-11.5638
took	-11.5639
▁perver	-11.5639
▁loop	-11.564
▁cla	-11.5641
ined	-11.5642
▁pearl	-11.5642
aged	-11.5647
▁partaker	-11.5648
▁chain	-11.565
course	-11.5651
▁Kno	-11.5653
▁prais	-11.5661
Stop	-11.5661
▁judg	-11.5663
Nothing	-11.5663
▁despair	-11.5666
Edith	-11.5666
terrific	-11.5666
bow	-11.5668
front	-11.5668
Who	-11.5668
worthy	-11.5669
gave	-11.5669
Did	-11.567
▁waste	-11.5671
▁purify	-11.5671
master	-11.5672
fell	-11.5673
▁load	-11.5674
face	-11.5674
For	-11.5674
▁instruct	-11.5677
thirst	-11.5677
▁jo	-11.5678
▁collect	-11.5678
▁ridge	-11.568
▁murmuring	-11.5683
nets	-11.5686
▁threaten	-11.569
Then	-11.569
▁strengthen	-11.5697
ouched	-11.5697
key	-11.5699
rent	-11.5699
▁excite	-11.5701
▁arrange	-11.5702
▁tremble	-11.5703
▁surprise	-11.5703
▁reprove	-11.5703
▁approve	-11.5705
▁preten	-11.5705
▁swa	-11.5705
▁general	-11.571
ounded	-11.571
no	-11.571
▁vague	-11.5711
▁clan	-11.5711
▁Ke	-11.5711
▁exact	-11.5712
▁abundant	-11.5712
▁immediate	-11.5712
▁bruise	-11.5712
▁supplie	-11.5713
▁greas	-11.5714
▁map	-11.5715
▁cheerful	-11.5715
▁glorie	-11.5716
hood	-11.5717
They	-11.5718
▁ski	-11.5718
ps	-11.5719
▁sur	-11.5719
▁safe	-11.572
spect	-11.572
▁bon	-11.5721
▁transgress	-11.5721
▁dr	-11.5721
▁railing	-11.5721
weed	-11.5721
belief	-11.5721
they	-11.5722
▁debt	-11.5722
▁riot	-11.5722
▁express	-11.5723
▁cherub	-11.5723
▁proper	-11.5723
▁flour	-11.5723
▁yo	-11.5723
▁strait	-11.5724
nswere	-11.5724
bby	-11.5724
Terrific	-11.5724
▁cabbage	-11.5724
▁correspond	-11.5724
▁haught	-11.5724
▁unimagin	-11.5724
Listen	-11.5724
latchet	-11.5724
tarsus	-11.5724
▁Amminadab	-11.5724
▁Aristarchus	-11.5724
▁Comforter	-11.5724
▁Congress	-11.5724
▁Cranshaw	-11.5724
▁Derbe	-11.5724
▁Dishon	-11.5724
▁Ephrath	-11.5724
▁Euphrates	-11.5724
▁GOD	-11.5724
▁Havilah	-11.5724
▁Hearken	-11.5724
▁Hogsucker	-11.5724
▁Ishmeelites	-11.5724
▁Kohath	-11.5724
▁Nicodemus	-11.5724
▁PIG	-11.5724
▁Receive	-11.5724
▁Servant	-11.5724
▁Succoth	-11.5724
▁Would	-11.5724
▁Zohar	-11.5724
▁absence	-11.5724
▁adoption	-11.5724
▁afford	-11.5724
▁assurance	-11.5724
▁blowgun	-11.5724
▁bounty	-11.5724
▁century	-11.5724
▁chapiters	-11.5724
▁cinnamon	-11.5724
▁concubine	-11.5724
▁demanded	-11.5724
▁devise	-11.5724
▁disappoint	-11.5724
▁emerald	-11.5724
▁engine	-11.5724
▁foxes	-11.5724
▁glutton	-11.5724
▁greeting	-11.5724
▁handkerchief	-11.5724
▁hereafter	-11.5724
▁horizon	-11.5724
▁incorruption	-11.5724
▁insects	-11.5724
▁level	-11.5724
▁necessities	-11.5724
▁nostrils	-11.5724
▁obeisance	-11.5724
▁occur	-11.5724
▁perform	-11.5724
▁picture	-11.5724
▁pilgrims	-11.5724
▁president	-11.5724
▁pronounce	-11.5724
▁propitiation	-11.5724
▁province	-11.5724
▁raspberr	-11.5724
▁request	-11.5724
▁response	-11.5724
▁restitution	-11.5724
▁restrained	-11.5724
▁reviling	-11.5724
▁revived	-11.5724
▁riverbank	-11.5724
▁sapphire	-11.5724
▁sardius	-11.5724
▁showbread	-11.5724
▁shrank	-11.5724
▁smiled	-11.5724
▁straddle	-11.5724
▁survive	-11.5724
▁sworn	-11.5724
▁terror	-11.5724
▁twig	-11.5724
▁unloose	-11.5724
▁unmarried	-11.5724
▁unusual	-11.5724
▁whiskey	-11.5724
▁Brother	-11.5724
▁convenient	-11.5724
▁diminish	-11.5724
▁element	-11.5724
▁emerge	-11.5724
▁impart	-11.5724
▁latter	-11.5724
▁merchant	-11.5724
▁mysterious	-11.5724
▁orange	-11.5724
▁proconsul	-11.5724
▁queen	-11.5724
▁raven	-11.5724
▁roam	-11.5724
▁scrivener	-11.5724
▁solemn	-11.5724
▁swift	-11.5724
▁Gilead	-11.5724
▁Ithamar	-11.5724
▁Likewise	-11.5724
▁discreet	-11.5724
▁fraction	-11.5724
▁impress	-11.5724
▁knuckle	-11.5724
▁leprosy	-11.5724
▁mammon	-11.5724
▁mule	-11.5724
▁mysteries	-11.5724
▁reproof	-11.5724
▁giant	-11.5724
▁Potiph	-11.5724
▁clipping	-11.5724
▁middling	-11.5724
▁crystal	-11.5724
▁adulteress	-11.5724
▁bereaved	-11.5724
▁bondwoman	-11.5724
▁exchange	-11.5724
▁holler	-11.5724
▁noodle	-11.5724
▁beggar	-11.5724
▁circum	-11.5724
▁kicked	-11.5724
▁title	-11.5724
▁Christmas	-11.5724
▁buryingplace	-11.5724
▁instru	-11.5724
▁refrain	-11.5724
▁Salmon	-11.5724
▁turban	-11.5724
▁liberality	-11.5724
▁enchantments	-11.5724
▁workmanship	-11.5724
▁occupation	-11.5724
▁sackcloth	-11.5724
▁Preparation	-11.5724
▁bodily	-11.5724
▁flash	-11.5724
▁gorge	-11.5724
▁Count	-11.5724
▁snapp	-11.5724
▁stumblingblock	-11.5724
▁Joses	-11.5724
▁Buddy	-11.5724
▁arrival	-11.5724
▁blasphemies	-11.5724
▁blossoms	-11.5724
▁freewoman	-11.5724
▁fungus	-11.5724
▁covetous	-11.5724
▁Abb	-11.5724
access	-11.5724
▁palsied	-11.5724
▁nap	-11.5724
▁Walk	-11.5724
▁winepress	-11.5724
▁digging	-11.5724
▁decree	-11.5724
▁Moab	-11.5724
▁paddle	-11.5724
▁foggy	-11.5724
▁job	-11.5724
▁reverence	-11.5724
▁Drink	-11.5724
▁Italy	-11.5724
▁confe	-11.5724
▁Goodbye	-11.5724
▁Little	-11.5724
▁principalities	-11.5724
▁thicket	-11.5724
▁tonight	-11.5724
kay	-11.5724
▁cursing	-11.5724
▁gently	-11.5724
▁permit	-11.5724
▁Shur	-11.5725
nquire	-11.5725
▁Haden	-11.5725
▁announcement	-11.5725
▁lane	-11.5725
▁pink	-11.5725
▁Shinar	-11.5725
▁towel	-11.5725
▁tempest	-11.5725
▁scoop	-11.5725
▁flick	-11.5725
▁Gran	-11.5725
▁adj	-11.5725
▁conceal	-11.5725
▁patch	-11.5725
▁package	-11.5725
▁midday	-11.5725
▁candy	-11.5725
ntil	-11.5725
▁apostleship	-11.5725
▁halt	-11.5725
▁entangle	-11.5725
▁Elam	-11.5725
▁guilty	-11.5725
▁loving	-11.5725
▁crime	-11.5725
▁malice	-11.5725
▁countries	-11.5726
▁heathen	-11.5726
▁awkwardly	-11.5726
▁crash	-11.5726
▁Miz	-11.5726
▁shore	-11.5726
ndy	-11.5726
ville	-11.5726
▁main	-11.5727
▁pillow	-11.5727
▁claw	-11.5727
▁furthermore	-11.5727
▁satisfied	-11.5727
▁defer	-11.5727
▁thistles	-11.5727
▁stedfastness	-11.5727
▁vo	-11.5728
▁Weep	-11.5728
▁barbarian	-11.5728
▁bill	-11.5728
▁communicate	-11.5728
▁husbandman	-11.5729
▁Abib	-11.5729
▁cleansing	-11.5729
▁nearby	-11.5729
▁operat	-11.5729
▁sheepfold	-11.573
▁easily	-11.573
▁super	-11.5731
▁blast	-11.5731
▁jar	-11.5731
▁armor	-11.5731
▁violent	-11.5731
▁forsaken	-11.5732
▁gambl	-11.5732
▁grunted	-11.5732
chol	-11.5732
eedy	-11.5732
▁phone	-11.5733
▁crushed	-11.5733
▁whiteman	-11.5733
▁disturb	-11.5734
▁skirt	-11.5734
▁grease	-11.5734
▁wealth	-11.5734
▁supplieth	-11.5734
▁Jam	-11.5735
ently	-11.5735
▁blame	-11.5736
▁difficulty	-11.5737
▁agreement	-11.5737
▁vaguely	-11.5737
▁Else	-11.5737
▁needful	-11.5737
▁wrist	-11.5737
▁weaving	-11.5737
pro	-11.5738
▁trott	-11.5738
▁contend	-11.5738
▁cheerfully	-11.5738
▁curv	-11.5738
▁ribs	-11.5739
▁acres	-11.5739
▁magistrates	-11.5739
▁Lotan	-11.574
▁cost	-11.574
▁knot	-11.574
▁candie	-11.574
▁briefly	-11.574
sual	-11.5741
▁deceitfully	-11.5741
▁persecutest	-11.5741
▁maple	-11.5744
▁ability	-11.5744
▁fiercely	-11.5744
▁sink	-11.5744
▁vanished	-11.5745
▁overhead	-11.5745
▁arranged	-11.5745
▁slipp	-11.5746
▁sower	-11.5748
▁silently	-11.5748
▁dare	-11.5748
▁clang	-11.575
▁float	-11.5751
quil	-11.5751
▁stalk	-11.5751
ode	-11.5752
▁Summ	-11.5752
▁wink	-11.5753
▁block	-11.5753
▁quake	-11.5753
▁platt	-11.5753
▁reconciled	-11.5754
▁shovel	-11.5755
▁thirsty	-11.5756
▁soup	-11.5757
▁Never	-11.5758
▁overthrown	-11.5758
▁Men	-11.5758
▁steady	-11.5759
▁remark	-11.576
ration	-11.5763
▁sincere	-11.5764
▁slopes	-11.5765
▁physicians	-11.5765
▁killers	-11.5766
▁action	-11.5767
▁dad	-11.5767
▁louder	-11.5768
irst	-11.5768
▁endless	-11.5769
▁commendeth	-11.577
▁groaned	-11.5772
▁card	-11.5772
▁manservant	-11.5773
▁anew	-11.5773
▁joint	-11.5774
▁sever	-11.5781
▁stumbleth	-11.5786
▁naturally	-11.5789
▁pushing	-11.5789
▁flip	-11.5792
▁earrings	-11.5793
▁lepers	-11.5793
▁boughs	-11.5793
▁transgressors	-11.5793
▁shit	-11.5795
▁faithless	-11.5795
▁trapper	-11.5795
▁invented	-11.5796
▁sojourners	-11.5798
azed	-11.5798
▁Remov	-11.5799
▁oppressed	-11.5799
▁confirmed	-11.5799
▁melted	-11.5801
▁urge	-11.5802
▁yester	-11.5803
▁wildly	-11.5807
▁particle	-11.5807
▁whoring	-11.5808
▁completed	-11.5808
▁companions	-11.5809
▁Hous	-11.5813
▁hon	-11.5818
▁pomegranates	-11.582
▁weapons	-11.582
▁wond	-11.582
▁overmuch	-11.5822
▁actions	-11.5822
▁hatched	-11.5824
ev	-11.5826
▁Teman	-11.5831
▁continueth	-11.5832
▁commandeth	-11.5833
▁rep	-11.5835
▁extortioner	-11.5839
this	-11.5841
▁mourned	-11.5841
▁thereto	-11.5843
▁wh	-11.5844
▁sen	-11.5845
alutations	-11.5845
▁mudd	-11.5849
▁ci	-11.5849
▁department	-11.5852
aid	-11.5856
erable	-11.5856
king	-11.5859
za	-11.5862
position	-11.5865
ac	-11.5865
▁rider	-11.5866
▁comb	-11.5866
In	-11.5867
▁richly	-11.5867
rops	-11.5871
lessly	-11.5873
▁liars	-11.5875
▁statutes	-11.5875
▁provisions	-11.5875
▁persecutions	-11.5875
▁guns	-11.5877
▁murderers	-11.5879
▁sucked	-11.5882
▁chin	-11.5883
▁needy	-11.5887
▁transform	-11.5888
its	-11.5893
▁Romans	-11.5893
▁wanton	-11.5894
▁finest	-11.5895
▁driver	-11.5896
▁preacheth	-11.59
▁dances	-11.5902
oc	-11.5925
▁squa	-11.5925
▁deeply	-11.5927
▁smoked	-11.5931
ups	-11.5932
ction	-11.5935
cum	-11.5936
▁lacked	-11.5938
gered	-11.594
unny	-11.5945
▁mete	-11.5951
▁goes	-11.5951
ep	-11.5957
▁nests	-11.5958
▁games	-11.5958
▁captives	-11.5958
▁habitations	-11.5958
▁girls	-11.5958
▁profited	-11.5965
▁flowers	-11.5965
vice	-11.5966
▁trapp	-11.5971
▁pi	-11.5975
▁regarded	-11.5979
▁thighs	-11.5986
tty	-11.5987
▁worrying	-11.5993
▁amount	-11.6002
T	-11.6008
▁righteously	-11.6008
▁logs	-11.6014
▁tea	-11.6024
▁willeth	-11.6025
▁killeth	-11.6036
mong	-11.6039
▁colors	-11.6042
▁papers	-11.6042
che	-11.6053
cakes	-11.606
▁customs	-11.607
ius	-11.6079
oth	-11.608
▁forgett	-11.6081
▁regions	-11.6098
ric	-11.6099
bs	-11.6099
▁meaning	-11.6101
▁Abid	-11.6107
▁seasoned	-11.6108
▁tomorrow	-11.612
▁Christian	-11.6122
▁embrace	-11.6126
▁streams	-11.6126
▁worshipp	-11.6128
▁style	-11.613
full	-11.6152
▁aged	-11.6154
▁figs	-11.6155
▁buildings	-11.6155
▁staying	-11.6172
▁crowned	-11.6188
▁visions	-11.6194
▁owners	-11.6196
▁mon	-11.6229
▁governors	-11.624
▁sus	-11.6249
▁Fe	-11.6264
uz	-11.6268
figur	-11.6272
▁ships	-11.6275
▁Par	-11.6289
arm	-11.6299
et	-11.6303
ives	-11.6305
▁treat	-11.6309
compelled	-11.6323
inning	-11.6326
▁charges	-11.6331
▁doings	-11.6364
▁Eph	-11.6381
▁afternoons	-11.6385
enable	-11.6414
ok	-11.6424
▁ink	-11.645
▁penn	-11.6453
▁favorabl	-11.6471
▁rehears	-11.6477
fe	-11.6492
▁wanting	-11.6495
▁edges	-11.6501
racles	-11.6507
▁writer	-11.652
mma	-11.6572
▁rattle	-11.6602
tent	-11.6609
inner	-11.6623
anke	-11.6642
▁smit	-11.673
▁busi	-11.673
▁perp	-11.6742
▁shower	-11.675
▁Was	-11.6757
▁earthy	-11.6763
ons	-11.6782
▁Stop	-11.6786
▁swords	-11.6801
▁fellows	-11.6801
bone	-11.6802
▁entice	-11.6814
ave	-11.6822
▁belong	-11.685
▁curl	-11.6853
▁lap	-11.6858
▁journeys	-11.686
ddle	-11.6863
▁differ	-11.6872
▁heel	-11.689
▁prisons	-11.6892
x	-11.69
ema	-11.6906
eral	-11.6923
vil	-11.6927
Be	-11.6936
born	-11.6945
▁beard	-11.6958
ich	-11.6969
ular	-11.6974
▁Ph	-11.6998
▁Ben	-11.7018
ban	-11.7029
aking	-11.7032
▁afore	-11.7043
▁ch	-11.7046
▁lashe	-11.7048
▁earthly	-11.7079
van	-11.7084
▁meats	-11.7114
ore	-11.7253
bel	-11.7268
dder	-11.7335
▁parting	-11.7336
wood	-11.7342
▁argu	-11.7342
▁mus	-11.7385
ond	-11.7416
▁Phi	-11.7419
lings	-11.7422
▁gaz	-11.7487
▁interrupt	-11.7502
her	-11.7521
wardly	-11.7527
▁feasts	-11.7536
▁struggle	-11.7608
nut	-11.7639
ai	-11.7674
▁inch	-11.7722
▁Shal	-11.774
▁owe	-11.7763
lation	-11.7767
pringtime	-11.7789
▁ob	-11.7803
▁driv	-11.7833
dding	-11.7855
▁hug	-11.7867
▁strik	-11.79
ro	-11.7985
▁breathe	-11.8042
▁Pra	-11.8076
rred	-11.8118
▁temperat	-11.8132
mortal	-11.8143
uni	-11.8154
▁j	-11.8161
▁pur	-11.8173
▁ascend	-11.8176
ities	-11.8176
▁striv	-11.8195
itches	-11.8196
nic	-11.8197
▁cares	-11.8213
▁calls	-11.8223
uring	-11.8228
▁crack	-11.8234
▁Ass	-11.8237
doers	-11.8264
▁chi	-11.8271
uddle	-11.8272
▁mis	-11.8279
urn	-11.8298
lab	-11.8315
ten	-11.8323
fare	-11.8342
ener	-11.835
fire	-11.8354
▁bre	-11.8384
ca	-11.8398
▁Ro	-11.8424
rian	-11.8448
▁oppos	-11.8472
we	-11.8501
▁Eu	-11.8502
eyed	-11.8509
▁Eve	-11.8521
▁embrac	-11.8523
mus	-11.8549
ati	-11.8563
mmed	-11.8612
tery	-11.8629
tops	-11.8649
lia	-11.8658
▁fla	-11.8674
rance	-11.8677
▁resid	-11.8687
▁fre	-11.8709
▁conce	-11.8714
pher	-11.8731
eries	-11.8752
▁temples	-11.8763
ak	-11.8764
▁Sal	-11.8768
sha	-11.8819
▁bu	-11.8819
tting	-11.8842
unted	-11.8846
▁fir	-11.8851
ized	-11.887
Th	-11.888
ega	-11.8882
handed	-11.8888
aimed	-11.8898
▁extortion	-11.8899
▁Mes	-11.8909
ading	-11.891
doer	-11.8916
gg	-11.8919
▁bough	-11.8932
nceforth	-11.8939
orted	-11.8942
▁chasten	-11.8947
▁benefit	-11.8948
▁patriarch	-11.8948
▁guest	-11.8948
▁result	-11.8948
▁bishop	-11.8948
▁ewe	-11.8949
will	-11.8949
▁bo	-11.8951
▁faction	-11.8953
rches	-11.8953
▁psalm	-11.8958
▁senator	-11.8958
▁pigeon	-11.8958
come	-11.8958
▁eagle	-11.8959
▁section	-11.896
▁Levite	-11.8961
dressed	-11.8962
unch	-11.8962
▁leper	-11.8962
▁transgressor	-11.8965
▁whisper	-11.8965
▁Jebusite	-11.8965
▁Perizzite	-11.8965
▁fornicator	-11.8965
hand	-11.8966
▁bla	-11.8967
▁earring	-11.8968
▁shelter	-11.8968
▁compel	-11.8971
▁hook	-11.8974
▁repute	-11.8975
upon	-11.8978
▁stab	-11.8978
▁spice	-11.8979
▁sojourner	-11.898
▁gir	-11.8984
quench	-11.8985
eas	-11.8985
witch	-11.8985
load	-11.8988
▁needle	-11.8989
▁farmer	-11.899
owing	-11.8991
bbed	-11.8992
Certainly	-11.8992
warm	-11.8992
bas	-11.8995
Y	-11.8995
stood	-11.8997
ridge	-11.8998
hearted	-11.8999
Pig	-11.8999
floor	-11.9
prisoner	-11.9
hooks	-11.9
Ho	-11.9
learned	-11.9001
legs	-11.9001
quiet	-11.9001
pieces	-11.9001
break	-11.9001
thirty	-11.9001
closed	-11.9002
▁wrest	-11.9002
blood	-11.9002
finger	-11.9002
wife	-11.9002
▁encounter	-11.9002
▁remov	-11.9002
Take	-11.9003
ground	-11.9003
looking	-11.9003
▁assembl	-11.9005
Sure	-11.9005
ick	-11.9006
▁loos	-11.9007
▁affirm	-11.9007
▁buffet	-11.9007
Every	-11.901
▁refresh	-11.9012
speak	-11.9014
ocked	-11.9017
▁fix	-11.9017
sembled	-11.9019
volut	-11.9019
que	-11.902
back	-11.9021
five	-11.9026
An	-11.9026
hath	-11.9026
▁Alexandria	-11.9032
Here	-11.9033
Te	-11.9033
▁Right	-11.9034
▁miss	-11.9034
▁cree	-11.9034
▁enlarge	-11.9035
▁relieve	-11.9036
▁prophesie	-11.9037
▁purchase	-11.9037
▁bore	-11.9037
▁determine	-11.9038
▁excuse	-11.9039
▁marrie	-11.9039
▁pursue	-11.9039
▁arrive	-11.904
▁meek	-11.9041
▁pierce	-11.9041
▁delicate	-11.9042
posed	-11.9044
▁nervous	-11.9044
▁app	-11.9044
cient	-11.9046
▁private	-11.9046
ocia	-11.9046
alvation	-11.9048
▁possibl	-11.9048
▁jealous	-11.9048
atic	-11.9049
ju	-11.905
ected	-11.9051
upp	-11.9052
istles	-11.9053
▁brim	-11.9055
▁gener	-11.9055
ossum	-11.9056
▁mirac	-11.9056
▁forgot	-11.9056
ntity	-11.9056
▁princip	-11.9056
▁meditat	-11.9056
roi	-11.9056
▁announce	-11.9056
orthy	-11.9056
appy	-11.9056
▁author	-11.9057
olonel	-11.9057
▁desp	-11.9057
oyal	-11.9057
▁achieve	-11.9057
Congratu	-11.9057
wilight	-11.9057
zziah	-11.9057
▁Adullamite	-11.9057
▁Ahaz	-11.9057
▁Aranea	-11.9057
▁Bartholomew	-11.9057
▁Bernice	-11.9057
▁Bethphage	-11.9057
▁Boaz	-11.9057
▁Boston	-11.9057
▁Breakfast	-11.9057
▁Chaldees	-11.9057
▁Chesapeake	-11.9057
▁Crawdaddy	-11.9057
▁Decapolis	-11.9057
▁Demetrius	-11.9057
▁Echota	-11.9057
▁Eliezer	-11.9057
▁Epaphras	-11.9057
▁Ethiopia	-11.9057
▁Galway	-11.9057
▁Gennesaret	-11.9057
▁Gershon	-11.9057
▁Golgotha	-11.9057
▁Hallelujah	-11.9057
▁Hezekiah	-11.9057
▁Horeb	-11.9057
▁Jehovah	-11.9057
▁Jeremiah	-11.9057
▁Joktan	-11.9057
▁Jotham	-11.9057
▁Jupiter	-11.9057
▁Kadesh	-11.9057
▁Kenaz	-11.9057
▁Luke	-11.9057
▁Matthew	-11.9057
▁Merari	-11.9057
▁Nahshon	-11.9057
▁Nebajoth	-11.9057
▁Nellie	-11.9057
▁Notwithstanding	-11.9057
▁Olivet	-11.9057
▁Peabody	-11.9057
▁Pentecost	-11.9057
▁Perez	-11.9057
▁Perga	-11.9057
▁Pharez	-11.9057
▁Phrygia	-11.9057
▁Pontus	-11.9057
▁Prince	-11.9057
▁Priscilla	-11.9057
▁Psalms	-11.9057
▁Rehoboth	-11.9057
▁Rephidim	-11.9057
▁Sardis	-11.9057
▁Shealtiel	-11.9057
▁Siddim	-11.9057
▁Silvanus	-11.9057
▁Street	-11.9057
▁Symeon	-11.9057
▁Tarshish	-11.9057
▁Thessalonica	-11.9057
▁Trophimus	-11.9057
▁Twelve	-11.9057
▁Zeboi	-11.9057
▁Zillah	-11.9057
▁Zipporah	-11.9057
▁addition	-11.9057
▁advance	-11.9057
▁aeronaut	-11.9057
▁affairs	-11.9057
▁anxiety	-11.9057
▁apiece	-11.9057
▁attire	-11.9057
▁avail	-11.9057
▁balsam	-11.9057
▁bountifully	-11.9057
▁canvas	-11.9057
▁chickadee	-11.9057
▁colours	-11.9057
▁column	-11.9057
▁compact	-11.9057
▁conclusion	-11.9057
▁conduct	-11.9057
▁conflict	-11.9057
▁congealed	-11.9057
▁congress	-11.9057
▁conquer	-11.9057
▁constructed	-11.9057
▁contrariwise	-11.9057
▁contributi	-11.9057
▁corpse	-11.9057
▁crazy	-11.9057
▁curiosity	-11.9057
▁deacons	-11.9057
▁desperation	-11.9057
▁destiny	-11.9057
▁disorderly	-11.9057
▁disputing	-11.9057
▁dissension	-11.9057
▁district	-11.9057
▁draught	-11.9057
▁dungeon	-11.9057
▁edifieth	-11.9057
▁embarrass	-11.9057
▁esteem	-11.9057
▁exhausted	-11.9057
▁exotic	-11.9057
▁farewell	-11.9057
▁fascinating	-11.9057
▁feeble	-11.9057
▁fetters	-11.9057
▁fifties	-11.9057
▁forewarn	-11.9057
▁fragments	-11.9057
▁frankincense	-11.9057
▁furnished	-11.9057
▁handbreadth	-11.9057
▁hayloft	-11.9057
▁hymn	-11.9057
▁immortality	-11.9057
▁increasing	-11.9057
▁jailor	-11.9057
▁journals	-11.9057
▁kinsfolk	-11.9057
▁knothole	-11.9057
▁leanfleshed	-11.9057
▁lodging	-11.9057
▁machine	-11.9057
▁major	-11.9057
▁matrix	-11.9057
▁meadow	-11.9057
▁mistress	-11.9057
▁moisture	-11.9057
▁mosquitoes	-11.9057
▁opposition	-11.9057
▁philosoph	-11.9057
▁pilgrimage	-11.9057
▁pistol	-11.9057
▁poison	-11.9057
▁poverty	-11.9057
▁predator	-11.9057
▁produce	-11.9057
▁rabbit	-11.9057
▁recognize	-11.9057
▁rectang	-11.9057
▁remnant	-11.9057
▁replenish	-11.9057
▁representatives	-11.9057
▁retrieve	-11.9057
▁sermon	-11.9057
▁shewbread	-11.9057
▁shoot	-11.9057
▁shotgun	-11.9057
▁subsistence	-11.9057
▁swept	-11.9057
▁swipe	-11.9057
▁tavern	-11.9057
▁terrain	-11.9057
▁territory	-11.9057
▁throng	-11.9057
▁titmouse	-11.9057
▁tread	-11.9057
▁unawares	-11.9057
▁unceasing	-11.9057
▁undefiled	-11.9057
▁unexpected	-11.9057
▁unjust	-11.9057
▁unknown	-11.9057
▁unreasonable	-11.9057
▁unveiled	-11.9057
▁uproar	-11.9057
▁vehemently	-11.9057
▁vertical	-11.9057
▁virtue	-11.9057
▁waterproof	-11.9057
▁yesternight	-11.9057
▁Latin	-11.9057
▁apprecia	-11.9057
▁dedicat	-11.9057
▁distinguish	-11.9057
▁maintain	-11.9057
▁oblig	-11.9057
▁oven	-11.9057
▁quiver	-11.9057
▁Demas	-11.9057
▁antichrist	-11.9057
▁captivity	-11.9057
▁clover	-11.9057
▁dowry	-11.9057
▁dusk	-11.9057
▁freeze	-11.9057
▁gnat	-11.9057
▁pitfall	-11.9057
▁proverb	-11.9057
▁saddlebag	-11.9057
▁satisfy	-11.9057
▁unloaded	-11.9057
▁Asshur	-11.9057
▁Dishan	-11.9057
▁Glory	-11.9057
▁agony	-11.9057
▁conclud	-11.9057
▁desk	-11.9057
▁lucre	-11.9057
▁overwhelm	-11.9057
▁superscription	-11.9057
Play	-11.9057
dopted	-11.9057
satisfact	-11.9057
▁Bind	-11.9057
▁Serve	-11.9057
▁cedar	-11.9057
▁loaf	-11.9057
▁oats	-11.9057
▁smart	-11.9057
▁succeed	-11.9057
▁topaz	-11.9057
vaga	-11.9057
▁Erastus	-11.9057
▁Talk	-11.9057
▁moaned	-11.9057
▁profess	-11.9057
timber	-11.9057
▁Besides	-11.9057
▁approaching	-11.9057
▁backbit	-11.9057
▁procur	-11.9057
▁undone	-11.9057
▁Dedan	-11.9057
▁Arabia	-11.9057
▁Shobal	-11.9057
▁authorities	-11.9057
▁consult	-11.9057
Could	-11.9057
▁brawle	-11.9057
havi	-11.9057
ND	-11.9057
▁Jobab	-11.9057
▁River	-11.9057
▁Welch	-11.9057
▁limp	-11.9057
▁rebelled	-11.9057
▁wafer	-11.9057
alley	-11.9057
▁abated	-11.9057
▁united	-11.9057
▁surround	-11.9057
▁Balaam	-11.9057
▁delicious	-11.9057
▁dread	-11.9057
▁emotion	-11.9057
▁abuse	-11.9057
▁Syr	-11.9057
▁Marah	-11.9057
▁engage	-11.9057
▁swimming	-11.9057
▁mumbled	-11.9057
▁stock	-11.9057
▁tanner	-11.9057
▁Tiberias	-11.9057
▁Phoenicia	-11.9058
▁assistance	-11.9058
▁ceasing	-11.9058
▁tape	-11.9058
▁pottage	-11.9058
▁trading	-11.9058
▁chide	-11.9058
▁slanderers	-11.9058
▁Territories	-11.9058
▁prophetess	-11.9058
▁sheaf	-11.9058
▁Prisc	-11.9058
▁glow	-11.9058
▁grownups	-11.9058
▁terrify	-11.9058
▁vote	-11.9058
▁pestilence	-11.9058
▁route	-11.9058
▁Creator	-11.9058
▁midway	-11.9058
▁quill	-11.9058
▁slant	-11.9058
▁brink	-11.9058
▁luck	-11.9058
▁nobleman	-11.9058
▁device	-11.9058
choni	-11.9058
OM	-11.9058
iletus	-11.9058
▁scent	-11.9058
ella	-11.9058
▁contentious	-11.9058
▁Shuah	-11.9058
▁cords	-11.9058
▁smear	-11.9058
▁Zeal	-11.9058
▁Paradise	-11.9058
▁stubble	-11.9058
▁Ezer	-11.9058
▁indig	-11.9058
▁Luz	-11.9058
▁bolt	-11.9058
clock	-11.9058
▁Fift	-11.9058
▁destitute	-11.9058
▁Lys	-11.9058
▁crafti	-11.9058
kling	-11.9058
▁spun	-11.9058
▁amiss	-11.9058
everal	-11.9058
▁prun	-11.9058
▁mistake	-11.9058
▁locks	-11.9058
▁pouches	-11.9058
▁safety	-11.9059
east	-11.9059
▁birch	-11.9059
▁variet	-11.9059
▁lounge	-11.9059
phath	-11.9059
▁responsibilit	-11.9059
▁affectionate	-11.9059
▁bondman	-11.9059
▁possum	-11.9059
▁Herodians	-11.9059
▁lobby	-11.9059
▁moonlight	-11.9059
▁harness	-11.9059
▁shorn	-11.9059
▁poking	-11.9059
▁birthday	-11.9059
▁lawlessness	-11.9059
▁Corn	-11.9059
▁errand	-11.9059
▁cruse	-11.9059
noch	-11.9059
▁favorite	-11.9059
▁spru	-11.9059
▁stank	-11.9059
▁Big	-11.9059
▁jerky	-11.9059
▁hireling	-11.906
▁hatred	-11.906
▁garnet	-11.906
▁lowliness	-11.906
▁justification	-11.906
▁Still	-11.906
▁correction	-11.906
▁modest	-11.906
▁sideboards	-11.906
▁advertisement	-11.906
▁imprisonment	-11.906
▁peel	-11.906
▁lain	-11.906
▁pallet	-11.906
▁weaned	-11.906
▁Pass	-11.906
▁Meat	-11.906
▁Elon	-11.906
▁beryl	-11.906
▁equality	-11.906
▁departure	-11.906
▁Hard	-11.906
▁ladder	-11.9061
▁population	-11.9061
▁Esh	-11.9061
▁womenservants	-11.9061
ulous	-11.9061
▁scarce	-11.9061
▁harmless	-11.9062
▁Bethel	-11.9062
▁withereth	-11.9062
▁moss	-11.9062
▁forks	-11.9062
pparent	-11.9062
▁braid	-11.9062
▁observation	-11.9062
▁heritage	-11.9063
▁trance	-11.9063
▁hateful	-11.9063
▁Mother	-11.9063
▁weaknesses	-11.9063
▁decease	-11.9064
▁cele	-11.9064
▁Cush	-11.9065
▁lofty	-11.9065
▁thoughtfully	-11.9065
▁specifi	-11.9065
▁practic	-11.9065
circling	-11.9065
▁resolv	-11.9065
▁boundary	-11.9066
▁Canaanit	-11.9066
▁joyful	-11.9066
▁owest	-11.9066
▁visitors	-11.9067
▁More	-11.9067
▁cust	-11.9067
▁Dog	-11.9067
▁wrestl	-11.9067
▁purser	-11.9067
▁bay	-11.9067
▁Ram	-11.9068
▁broth	-11.9068
▁deliverance	-11.9068
▁engraver	-11.9068
▁Life	-11.9068
little	-11.9068
▁hoisted	-11.9068
▁Lif	-11.9068
▁Timnath	-11.9068
▁enlightened	-11.9068
mates	-11.9069
▁lingere	-11.9069
▁sevenfold	-11.9069
▁exist	-11.9069
▁rare	-11.907
lves	-11.907
▁bitterness	-11.9071
▁alleg	-11.9071
▁treaty	-11.9071
▁nervously	-11.9071
▁Five	-11.9071
▁reviled	-11.9071
▁thefts	-11.9071
▁overhear	-11.9071
ubtle	-11.9071
▁swoop	-11.9071
▁fur	-11.9072
▁plead	-11.9072
▁waist	-11.9072
▁rifle	-11.9072
▁smoking	-11.9072
▁wishes	-11.9072
▁drift	-11.9072
▁ridden	-11.9072
▁collection	-11.9072
▁barrel	-11.9072
▁Any	-11.9072
▁Really	-11.9073
▁sobbed	-11.9073
▁Ski	-11.9074
lick	-11.9074
▁maiden	-11.9074
▁Away	-11.9074
▁clu	-11.9074
▁slice	-11.9075
▁interpreter	-11.9075
▁Amram	-11.9075
▁costly	-11.9076
▁safely	-11.9076
▁stall	-11.9077
▁avenger	-11.9077
gar	-11.9078
▁quietness	-11.9078
▁dishes	-11.9078
▁plantation	-11.9078
roughly	-11.9078
▁forgiveness	-11.9079
▁reflect	-11.9079
▁Athens	-11.9079
▁Horites	-11.9079
▁stairs	-11.9079
▁Ephesians	-11.9079
▁buttocks	-11.9079
▁malefactors	-11.9079
▁ornaments	-11.9079
▁spoons	-11.9079
▁mounds	-11.908
▁enlarged	-11.908
▁discour	-11.908
▁sowest	-11.908
▁prey	-11.908
▁workman	-11.908
▁builders	-11.9081
makers	-11.9081
▁confidently	-11.9081
▁fervently	-11.9081
▁sport	-11.9081
▁passway	-11.9082
▁Obed	-11.9082
▁blasphemeth	-11.9085
▁blackness	-11.9085
bib	-11.9085
▁sup	-11.9085
▁fadeth	-11.9086
▁knocketh	-11.9087
▁quenched	-11.9087
▁confounded	-11.9088
▁unfe	-11.9088
▁balloonist	-11.9088
▁excited	-11.9089
▁hallowed	-11.9089
▁basin	-11.9089
▁signifying	-11.9089
▁threshing	-11.9089
▁blink	-11.909
▁faithfulness	-11.9091
uci	-11.9092
▁passion	-11.9094
quet	-11.9095
▁trout	-11.9095
▁compli	-11.9097
▁referr	-11.9097
▁source	-11.9097
▁patiently	-11.9098
▁lit	-11.9099
cated	-11.9099
▁consideration	-11.91
▁surprised	-11.91
▁bruised	-11.91
▁Ash	-11.91
▁diam	-11.9103
▁address	-11.9103
▁uprightly	-11.9103
llaba	-11.9103
▁pans	-11.9103
▁fishers	-11.9104
aster	-11.9104
▁tie	-11.9105
uit	-11.9106
▁affirmed	-11.9107
▁buffeted	-11.9107
▁mash	-11.9108
▁eighteen	-11.9108
▁outwardly	-11.9108
▁chastened	-11.9108
▁squat	-11.9108
onge	-11.9108
▁childless	-11.9108
▁contention	-11.9109
▁pierced	-11.911
▁joke	-11.9111
▁hor	-11.9111
▁beheaded	-11.9112
▁eleventh	-11.9112
▁pleasantly	-11.9114
▁brimm	-11.9116
ament	-11.9116
stance	-11.9116
▁None	-11.9117
▁strands	-11.9118
▁peaceable	-11.9118
▁anchors	-11.9118
▁features	-11.9118
▁sorcerers	-11.9118
▁basons	-11.9118
did	-11.9121
▁defilement	-11.9122
▁memorialize	-11.9123
mission	-11.9125
▁Hunt	-11.9127
▁purifie	-11.9128
▁Certainly	-11.9128
▁army	-11.9129
avan	-11.9129
▁threatening	-11.9131
▁purifying	-11.9131
hair	-11.9132
▁bidd	-11.9133
▁preserved	-11.9133
▁provoked	-11.9135
▁Herm	-11.9138
▁outhouse	-11.9139
gate	-11.914
▁pals	-11.9143
▁destroyer	-11.9144
▁har	-11.9144
▁boo	-11.9146
▁reapeth	-11.9146
Egg	-11.9148
▁impen	-11.9151
▁Lib	-11.9155
gars	-11.9155
▁stirr	-11.9157
▁pigeons	-11.9157
▁psalms	-11.9157
▁senators	-11.9157
▁Levites	-11.9158
▁eagles	-11.9158
▁sections	-11.9158
▁...”	-11.916
▁ruleth	-11.9162
oming	-11.9167
▁Timna	-11.9168
▁farmers	-11.9169
▁cured	-11.917
cob	-11.9171
▁fleeth	-11.9172
ical	-11.9173
▁wounding	-11.9173
▁scraping	-11.9174
▁lawless	-11.9176
▁control	-11.9179
▁lu	-11.9185
▁metal	-11.9187
attered	-11.9189
▁envying	-11.9194
▁remarks	-11.9195
RE	-11.9195
▁heels	-11.9196
▁agate	-11.9197
▁meaneth	-11.9197
▁nails	-11.9197
▁debtors	-11.9198
▁vows	-11.9198
▁Pat	-11.9198
▁tur	-11.9199
▁cards	-11.9199
▁loads	-11.9199
▁deceivers	-11.9199
▁moveth	-11.9201
▁fewer	-11.9201
▁Please	-11.9203
▁handled	-11.9205
▁cu	-11.921
▁attained	-11.9213
▁possessor	-11.9214
▁spl	-11.9224
ndered	-11.9225
▁slime	-11.9232
traightway	-11.9232
▁lowly	-11.9234
▁handfuls	-11.9238
▁Days	-11.9238
xa	-11.9241
▁falsely	-11.9244
▁pants	-11.9246
ways	-11.9247
edent	-11.925
▁patt	-11.9251
▁k	-11.9253
▁understandeth	-11.9268
▁traveled	-11.9268
▁ruled	-11.9271
▁doubled	-11.9271
killet	-11.9272
▁bricks	-11.9278
▁sepulchres	-11.9278
▁fastings	-11.9278
▁scraps	-11.9279
▁lions	-11.9279
▁justif	-11.9283
▁worms	-11.9284
▁pleasing	-11.9285
▁def	-11.9286
▁livers	-11.9287
▁swinging	-11.9299
▁doubting	-11.93
strain	-11.9302
▁favored	-11.9305
▁seemly	-11.9309
▁fetched	-11.9309
▁alike	-11.9311
▁frie	-11.9311
▁careth	-11.9312
▁goal	-11.9316
▁blades	-11.9319
▁banks	-11.9319
▁tales	-11.9319
▁Saying	-11.9322
▁rate	-11.9326
▁salted	-11.9329
▁burdened	-11.9331
▁harps	-11.9333
ference	-11.9344
▁flowed	-11.9348
ronic	-11.9349
sia	-11.935
▁deserted	-11.9352
mal	-11.9352
▁folds	-11.9358
▁traditions	-11.936
▁inv	-11.936
▁inwards	-11.938
ads	-11.9382
▁jell	-11.9398
changers	-11.9402
phan	-11.9406
▁beg	-11.9412
▁piti	-11.943
enness	-11.9437
▁guides	-11.9438
▁rubbe	-11.944
▁figures	-11.9441
▁earthquakes	-11.9442
▁fightings	-11.9442
▁healings	-11.9442
▁outward	-11.9448
zah	-11.9451
▁dine	-11.9459
▁sop	-11.9468
▁posts	-11.9479
▁scal	-11.9479
▁chambers	-11.9483
coal	-11.9483
▁threads	-11.9483
▁washing	-11.949
▁daze	-11.9496
skinned	-11.9515
▁playing	-11.9517
stern	-11.9538
▁Za	-11.955
ograph	-11.9563
▁cases	-11.9566
uts	-11.9566
lax	-11.9569
▁wail	-11.9576
▁multiplying	-11.9583
▁revelations	-11.9608
▁happens	-11.961
▁departing	-11.9631
▁adventure	-11.9632
ause	-11.9644
▁caves	-11.9651
▁girdles	-11.9651
▁deserts	-11.9653
—-	-11.9664
bach	-11.9664
▁oppose	-11.9678
▁hens	-11.9688
ittle	-11.9692
▁cabins	-11.9693
▁War	-11.9698
▁Sea	-11.9701
▁occasional	-11.9719
▁cau	-11.973
▁oaths	-11.9735
▁snows	-11.9735
▁bushe	-11.9754
oking	-11.9766
AN	-11.9766
omp	-11.9768
▁tribulations	-11.9778
▁labors	-11.9781
▁gallo	-11.9791
▁li	-11.9794
raise	-11.9797
stable	-11.982
▁afflictions	-11.9822
▁Hol	-11.9842
imate	-11.9865
▁Gre	-11.9872
▁hearer	-11.9888
ui	-11.9938
▁la	-11.9947
ium	-11.9949
▁class	-11.9957
▁states	-11.9995
▁rightly	-11.9998
▁res	-12.0017
▁blinded	-12.0023
cu	-12.0025
▁chil	-12.0028
▁fasted	-12.0032
▁Sett	-12.0036
▁perfecting	-12.0039
lent	-12.004
▁foundations	-12.0055
ON	-12.0057
▁Sh	-12.0061
oli	-12.0076
amped	-12.0077
uff	-12.0078
rah	-12.0081
▁breastplates	-12.0083
▁gat	-12.0086
▁Ab	-12.0103
▁fr	-12.0121
▁crackl	-12.0138
▁shove	-12.0155
▁Med	-12.0159
ecting	-12.0163
▁needles	-12.0207
▁counsels	-12.0216
▁sorrows	-12.0253
▁Haz	-12.0254
oned	-12.0266
▁inte	-12.0266
eady	-12.0268
▁Hush	-12.0268
▁Hid	-12.0273
ye	-12.0299
▁Gat	-12.03
▁famines	-12.0307
▁workings	-12.0312
▁socia	-12.0337
▁sel	-12.0337
▁pal	-12.0345
▁snatch	-12.0347
yst	-12.0371
▁wil	-12.0381
damn	-12.0386
▁persuad	-12.0388
▁uses	-12.0441
▁breaks	-12.0452
...”	-12.0471
▁Almo	-12.0492
▁numbers	-12.0494
▁Zi	-12.0525
Che	-12.0527
tended	-12.0534
▁services	-12.0629
▁weari	-12.0641
▁reform	-12.0648
▁fe	-12.0651
▁allow	-12.0708
MO	-12.0721
▁crates	-12.0723
nigh	-12.0749
cord	-12.075
herein	-12.075
▁struggl	-12.0752
▁rou	-12.0768
▁uncle	-12.0772
▁admire	-12.0795
arrows	-12.0812
eigne	-12.0842
▁hum	-12.0945
▁Ber	-12.0953
ander	-12.0979
B	-12.1001
allowed	-12.1021
▁gaze	-12.1039
mar	-12.1063
▁blackberr	-12.1076
▁uneas	-12.1076
▁argue	-12.1113
ching	-12.1115
vi	-12.1116
wist	-12.1124
▁pace	-12.1135
empti	-12.1159
claimed	-12.1193
▁cat	-12.1209
▁Jac	-12.122
▁elevate	-12.1225
▁Jet	-12.1227
▁Pen	-12.1253
▁loft	-12.1265
ray	-12.1267
actic	-12.1273
▁da	-12.1333
▁sole	-12.1411
berries	-12.1436
▁mood	-12.1454
top	-12.1475
epho	-12.1587
spir	-12.1593
▁pat	-12.1594
shell	-12.1617
illy	-12.1625
▁blu	-12.1629
ock	-12.1647
▁Car	-12.1664
▁Command	-12.1684
▁gall	-12.1708
▁sacr	-12.1716
lashes	-12.1724
▁trace	-12.18
▁commo	-12.1804
▁wi	-12.1838
iles	-12.1914
orn	-12.1941
hai	-12.1953
ame	-12.1983
▁waxe	-12.2012
came	-12.2036
▁invit	-12.2045
▁Jer	-12.2101
▁Hi	-12.2117
▁tast	-12.2117
Isn	-12.2119
▁Pu	-12.2124
lasses	-12.2136
▁che	-12.2149
ud	-12.2162
▁slu	-12.2173
onster	-12.2186
▁inde	-12.2283
ows	-12.2338
oved	-12.2346
ieth	-12.237
▁contr	-12.2388
lids	-12.2431
▁Ri	-12.2443
▁pr	-12.2443
▁rehearse	-12.2528
▁Sep	-12.2556
rity	-12.2613
zo	-12.2616
▁Sou	-12.2663
rench	-12.2673
ncy	-12.2782
ence	-12.2802
igure	-12.2814
met	-12.2826
congratu	-12.2867
▁constraine	-12.2908
oon	-12.2917
▁pu	-12.293
▁rage	-12.2941
hew	-12.2951
eek	-12.2958
bi	-12.2985
nah	-12.2988
tie	-12.2998
asped	-12.3025
▁Sho	-12.3026
▁Amon	-12.3049
tening	-12.3055
han	-12.3055
asty	-12.3059
▁considerabl	-12.306
vious	-12.3106
ow	-12.3114
▁strok	-12.3133
zens	-12.3136
▁spat	-12.3159
loo	-12.3165
husks	-12.3166
▁rais	-12.3166
To	-12.3167
▁scra	-12.3197
▁port	-12.3222
ace	-12.3239
▁wag	-12.3243
▁rec	-12.3257
mbled	-12.3276
▁actual	-12.3283
▁troubl	-12.3315
rie	-12.3332
awfully	-12.3353
ench	-12.3369
▁chal	-12.3397
laus	-12.3403
ron	-12.3465
cial	-12.3488
roth	-12.3495
ano	-12.3503
▁divid	-12.3523
P	-12.3561
▁stripe	-12.358
ER	-12.3618
any	-12.3648
obably	-12.3676
▁plo	-12.3677
giver	-12.3683
amo	-12.3709
oiled	-12.3717
amia	-12.3726
TH	-12.3741
ivity	-12.3746
wish	-12.3758
E	-12.3767
self	-12.3768
nger	-12.3769
▁attendan	-12.3777
▁slim	-12.3779
▁ston	-12.3798
itable	-12.3809
ging	-12.3809
ib	-12.3836
AR	-12.3838
minate	-12.3852
▁magn	-12.3857
sided	-12.3859
▁companion	-12.3866
▁rob	-12.3866
inch	-12.3869
Hey	-12.3873
icles	-12.3873
j	-12.388
ounding	-12.3899
never	-12.3903
▁impe	-12.3907
headed	-12.3907
▁Tra	-12.391
mobil	-12.3914
▁arch	-12.3916
struction	-12.3916
▁slap	-12.3918
ips	-12.3918
▁convi	-12.3924
▁wrap	-12.3925
him	-12.3928
▁horn	-12.393
▁Tim	-12.393
▁bite	-12.393
▁complain	-12.3946
▁impo	-12.3947
▁scorpion	-12.3949
▁poplar	-12.3949
▁elbow	-12.3949
oving	-12.3949
▁apron	-12.3949
▁impla	-12.395
▁hillside	-12.3951
▁explo	-12.3956
▁sorcerer	-12.3959
▁anchor	-12.3959
▁feature	-12.3959
worm	-12.3962
use	-12.3963
▁bason	-12.3963
▁slope	-12.3963
▁physician	-12.3964
▁Sanct	-12.3965
▁strand	-12.3965
▁warrior	-12.3966
▁highway	-12.3966
hereabouts	-12.3967
▁idolater	-12.3967
▁locust	-12.397
▁payment	-12.397
▁tithe	-12.3971
orry	-12.3971
▁speci	-12.3972
▁hypocrite	-12.3972
▁selve	-12.3972
▁robber	-12.3973
▁tare	-12.3974
▁observ	-12.3978
▁thorn	-12.3978
agger	-12.398
▁tran	-12.3982
▁sigh	-12.3982
▁revile	-12.3984
continu	-12.3985
rag	-12.3986
citizen	-12.3986
jected	-12.3986
Wash	-12.3986
uncle	-12.3988
▁mil	-12.399
corn	-12.3991
▁excus	-12.3992
source	-12.3992
handled	-12.3993
pathetic	-12.3993
draft	-12.3994
float	-12.3995
stalk	-12.3995
limb	-12.3996
block	-12.3996
tions	-12.3996
Summ	-12.3996
hog	-12.3997
▁pierc	-12.3997
Never	-12.3997
▁persecut	-12.3998
▁bro	-12.3998
▁sid	-12.3998
gird	-12.3998
None	-12.3998
stedfast	-12.3999
box	-12.3999
Watch	-12.3999
cloth	-12.3999
search	-12.3999
Seven	-12.4
Get	-12.4
Henry	-12.4
keeper	-12.4
soldier	-12.4
Perhaps	-12.4
J	-12.4
shekel	-12.4
fields	-12.4
▁whistl	-12.4
shot	-12.4001
kindness	-12.4001
condemned	-12.4001
Homer	-12.4001
please	-12.4001
Hur	-12.4001
horse	-12.4001
witnesses	-12.4002
pleasure	-12.4002
bade	-12.4002
spread	-12.4002
bush	-12.4002
Give	-12.4002
▁reject	-12.4002
friend	-12.4002
Lurvy	-12.4002
myself	-12.4002
wheel	-12.4002
perfect	-12.4002
With	-12.4002
▁ta	-12.4002
room	-12.4002
pans	-12.4002
generation	-12.4002
while	-12.4003
knowledge	-12.4003
burnt	-12.4003
nothing	-12.4003
aa	-12.4003
▁dismiss	-12.4003
▁Gi	-12.4003
push	-12.4004
serve	-12.4004
coat	-12.4004
One	-12.4004
whe	-12.4005
trap	-12.4005
▁thresh	-12.4005
dad	-12.4005
sail	-12.4005
▁lum	-12.4006
green	-12.4006
ertainly	-12.4006
Say	-12.4007
place	-12.4007
▁confound	-12.4008
▁hallow	-12.4008
▁gainsay	-12.4009
▁shear	-12.401
▁vanish	-12.401
▁signify	-12.401
▁edify	-12.401
▁explain	-12.4011
eeches	-12.4012
▁sniff	-12.4012
▁vex	-12.4012
▁repeat	-12.4012
only	-12.4012
▁kno	-12.4013
▁chuckl	-12.4013
▁exceed	-12.4013
▁ordain	-12.4013
▁grabb	-12.4013
bond	-12.4015
▁amaz	-12.4015
▁threat	-12.4015
Put	-12.4016
▁flam	-12.4016
ounted	-12.4017
See	-12.4017
pri	-12.4018
portion	-12.4018
▁laborer	-12.4018
▁citizen	-12.4019
lead	-12.402
rable	-12.4021
seeing	-12.4021
Wa	-12.4023
oasty	-12.4024
nything	-12.4026
▁App	-12.4028
made	-12.4032
▁plea	-12.4035
▁tame	-12.4035
▁boot	-12.4036
▁testifie	-12.4038
▁create	-12.4038
run	-12.4038
▁Israelite	-12.4039
▁boar	-12.404
tant	-12.4042
olved	-12.4044
▁flourish	-12.4044
hod	-12.4045
▁continual	-12.4046
▁genealog	-12.4046
phos	-12.4046
▁sudden	-12.4046
sparag	-12.4047
ufficien	-12.4047
oldiers	-12.4048
▁choos	-12.4048
▁dizz	-12.4048
trong	-12.4048
▁filth	-12.4048
▁reconcile	-12.4048
▁snar	-12.4048
▁communicat	-12.4048
▁memor	-12.4049
▁twent	-12.4049
hould	-12.4049
angel	-12.405
▁distinct	-12.4051
bur	-12.4051
ification	-12.4053
▁Amra	-12.4053
▁import	-12.4054
▁mir	-12.4054
▁merci	-12.4055
▁persuasi	-12.4055
▁tee	-12.4055
path	-12.4055
▁Mattha	-12.4055
▁appro	-12.4056
aradise	-12.4056
aughter	-12.4056
neys	-12.4056
▁stubb	-12.4056
▁attract	-12.4056
▁subtil	-12.4056
▁Govern	-12.4056
▁habit	-12.4056
▁situat	-12.4056
▁pouch	-12.4056
▁abomina	-12.4056
ecomposers	-12.4056
estroy	-12.4056
ntreat	-12.4056
xcellent	-12.4057
attering	-12.4057
ontrary	-12.4057
ontinue	-12.4057
▁gloom	-12.4057
venture	-12.4057
urmur	-12.4057
ilbur	-12.4057
epart	-12.4057
istened	-12.4057
▁excel	-12.4057
▁Apoll	-12.4057
▁Ponti	-12.4057
▁succ	-12.4057
arvel	-12.4057
Crunchy	-12.4057
ietly	-12.4057
languish	-12.4057
rink	-12.4057
▁Mattath	-12.4057
▁Phoeni	-12.4057
▁chryso	-12.4057
▁esp	-12.4057
▁scru	-12.4057
▁Supreme	-12.4057
▁altercat	-12.4057
▁bomb	-12.4057
▁disannul	-12.4057
▁executi	-12.4057
▁unfair	-12.4057
Phoebe	-12.4057
Slowly	-12.4057
bulus	-12.4057
cian	-12.4057
consequen	-12.4057
continency	-12.4057
gullible	-12.4057
hippoorwill	-12.4057
mphas	-12.4057
petitions	-12.4057
roduction	-12.4057
zziel	-12.4057
▁Agabus	-12.4057
▁Ancih	-12.4057
▁Areopag	-12.4057
▁Assyria	-12.4057
▁August	-12.4057
▁Baal	-12.4057
▁Baalzephon	-12.4057
▁Babel	-12.4057
▁Baptizer	-12.4057
▁Beautiful	-12.4057
▁Beroea	-12.4057
▁Bigfish	-12.4057
▁Bithynia	-12.4057
▁Carmi	-12.4057
▁Circumcision	-12.4057
▁Cotton	-12.4057
▁Cowee	-12.4057
▁Crispus	-12.4057
▁Crucify	-12.4057
▁Dalma	-12.4057
▁Dorcas	-12.4057
▁Ellasar	-12.4057
▁Epaphroditus	-12.4057
▁Florida	-12.4057
▁Fulfil	-12.4057
▁Gabriel	-12.4057
▁Gerasenes	-12.4057
▁Gershom	-12.4057
▁Gethsemane	-12.4057
▁Girgas	-12.4057
▁Increase	-12.4057
▁Izhar	-12.4057
▁Jehoshaphat	-12.4057
▁Jenny	-12.4057
▁Jokshan	-12.4057
▁Joram	-12.4057
▁Lebanon	-12.4057
▁Lydda	-12.4057
▁Lydia	-12.4057
▁Matthias	-12.4057
▁Mehujael	-12.4057
▁Melchi	-12.4057
▁Methusael	-12.4057
▁Millipede	-12.4057
▁Mississippi	-12.4057
▁Nico	-12.4057
▁Nimrod	-12.4057
▁Nineveh	-12.4057
▁Onesiphorus	-12.4057
▁Pergamum	-12.4057
▁Pisidia	-12.4057
▁Potomac	-12.4057
▁Prophesy	-12.4057
▁Publius	-12.4057
▁Rabboni	-12.4057
▁Radiant	-12.4057
▁Rahab	-12.4057
▁Rameses	-12.4057
▁Rephaims	-12.4057
▁Rufus	-12.4057
▁Sabaoth	-12.4057
▁Sacrifice	-12.4057
▁Salome	-12.4057
▁School	-12.4057
▁Search	-12.4057
▁Seba	-12.4057
▁Secret	-12.4057
▁Shaveh	-12.4057
▁Siloam	-12.4057
▁Smyrna	-12.4057
▁Sosthenes	-12.4057
▁Squirrel	-12.4057
▁Tavern	-12.4057
▁Theophilus	-12.4057
▁Thessalonians	-12.4057
▁Tubalcain	-12.4057
▁Zachariah	-12.4057
▁Zerubbabel	-12.4057
▁acquired	-12.4057
▁advise	-12.4057
▁ammunition	-12.4057
▁apothecary	-12.4057
▁appetizing	-12.4057
▁apprehend	-12.4057
▁armpits	-12.4057
▁assumption	-12.4057
▁beefsteak	-12.4057
▁bison	-12.4057
▁boulder	-12.4057
▁brilliant	-12.4057
▁bureau	-12.4057
▁burial	-12.4057
▁busybodies	-12.4057
▁calculat	-12.4057
▁calico	-12.4057
▁centipede	-12.4057
▁clamor	-12.4057
▁companies	-12.4057
▁compound	-12.4057
▁conspiracy	-12.4057
▁convocation	-12.4057
▁cornbread	-12.4057
▁craftsmen	-12.4057
▁crawfish	-12.4057
▁cumber	-12.4057
▁delusion	-12.4057
▁denarius	-12.4057
▁detail	-12.4057
▁dictionary	-12.4057
▁discarded	-12.4057
▁divorcement	-12.4057
▁doorframes	-12.4057
▁downstream	-12.4057
▁elaborate	-12.4057
▁eloquent	-12.4057
▁emperor	-12.4057
▁employ	-12.4057
▁evangelist	-12.4057
▁expense	-12.4057
▁experiment	-12.4057
▁extreme	-12.4057
▁fatfleshed	-12.4057
▁fathoms	-12.4057
▁foreknew	-12.4057
▁frail	-12.4057
▁fullgrown	-12.4057
▁fumbling	-12.4057
▁futile	-12.4057
▁garner	-12.4057
▁gleam	-12.4057
▁goddess	-12.4057
▁grasshopper	-12.4057
▁gravy	-12.4057
▁grisled	-12.4057
▁gulped	-12.4057
▁gutted	-12.4057
▁gutters	-12.4057
▁happiness	-12.4057
▁hominy	-12.4057
▁humiliation	-12.4057
▁immutab	-12.4057
▁implements	-12.4057
▁inconvenient	-12.4057
▁infield	-12.4057
▁ingathering	-12.4057
▁interlude	-12.4057
▁kinswoman	-12.4057
▁kneadingtroughs	-12.4057
▁lamentation	-12.4057
▁lantern	-12.4057
▁leisure	-12.4057
▁lintel	-12.4057
▁material	-12.4057
▁medicine	-12.4057
▁millipedes	-12.4057
▁moccasins	-12.4057
▁mudflat	-12.4057
▁muzzle	-12.4057
▁nerve	-12.4057
▁nipple	-12.4057
▁oysters	-12.4057
▁pellets	-12.4057
▁penknife	-12.4057
▁pollut	-12.4057
▁porcupine	-12.4057
▁portrait	-12.4057
▁preeminence	-12.4057
▁prejudice	-12.4057
▁preparing	-12.4057
▁presumptuous	-12.4057
▁problem	-12.4057
▁promptly	-12.4057
▁provocation	-12.4057
▁rabble	-12.4057
▁rapid	-12.4057
▁religious	-12.4057
▁renounce	-12.4057
▁restraineth	-12.4057
▁revelling	-12.4057
▁ridiculous	-12.4057
▁rigour	-12.4057
▁roost	-12.4057
▁scruples	-12.4057
▁skelet	-12.4057
▁slog	-12.4057
▁slothful	-12.4057
▁smiling	-12.4057
▁sobriety	-12.4057
▁sorceries	-12.4057
▁sorcery	-12.4057
▁stimulate	-12.4057
▁stupor	-12.4057
▁subdue	-12.4057
▁suffice	-12.4057
▁sumptuous	-12.4057
▁supreme	-12.4057
▁survival	-12.4057
▁television	-12.4057
▁terrestrial	-12.4057
▁theoretical	-12.4057
▁thereafter	-12.4057
▁thirteen	-12.4057
▁thistledown	-12.4057
▁timbrel	-12.4057
▁tomatoes	-12.4057
▁traffic	-12.4057
▁traitor	-12.4057
▁trample	-12.4057
▁trinket	-12.4057
▁unaccountabl	-12.4057
▁unruly	-12.4057
▁unthankful	-12.4057
▁unwashen	-12.4057
▁vesture	-12.4057
▁vicinity	-12.4057
▁victim	-12.4057
▁victual	-12.4057
▁woodpile	-12.4057
▁wrinkle	-12.4057
▁yawned	-12.4057
▁zero	-12.4057
▁Death	-12.4057
▁copy	-12.4057
▁ribbon	-12.4057
acinth	-12.4057
shrunk	-12.4057
significan	-12.4057
ummim	-12.4057
▁Antipa	-12.4057
▁Frankl	-12.4057
▁Jann	-12.4057
▁Malch	-12.4057
▁absolute	-12.4057
▁assault	-12.4057
▁clown	-12.4057
▁clutter	-12.4057
▁delud	-12.4057
▁drool	-12.4057
▁expanse	-12.4057
▁flags	-12.4057
▁gabbl	-12.4057
▁grove	-12.4057
▁happie	-12.4057
▁influen	-12.4057
▁license	-12.4057
▁lilies	-12.4057
▁magnificen	-12.4057
▁morter	-12.4057
▁narrat	-12.4057
▁pastille	-12.4057
▁plaster	-12.4057
▁sandwich	-12.4057
▁snuffdishes	-12.4057
▁squeal	-12.4057
▁terms	-12.4057
▁twirl	-12.4057
▁univers	-12.4057
olog	-12.4057
▁accommodat	-12.4057
▁crafty	-12.4057
▁cripple	-12.4057
▁enact	-12.4057
▁grandfather	-12.4057
▁humility	-12.4057
▁lamented	-12.4057
▁lungs	-12.4057
▁mankind	-12.4057
▁negotiat	-12.4057
▁risk	-12.4057
▁smack	-12.4057
▁soothsay	-12.4057
▁spark	-12.4057
▁stove	-12.4057
▁surmis	-12.4057
▁unsettle	-12.4057
▁withdraw	-12.4057
▁Towers	-12.4057
▁circuit	-12.4057
▁expert	-12.4057
▁foaming	-12.4057
▁fragran	-12.4057
▁ignore	-12.4057
▁surpass	-12.4057
▁whicker	-12.4057
▁beho	-12.4057
▁garnish	-12.4057
xtort	-12.4057
▁Galeed	-12.4057
▁basketfuls	-12.4057
▁daddy	-12.4057
▁motor	-12.4057
▁napkin	-12.4057
▁overflow	-12.4057
▁scourging	-12.4057
▁tremen	-12.4057
▁wobbl	-12.4057
versatile	-12.4057
▁balance	-12.4057
▁glid	-12.4057
▁initial	-12.4057
▁suspicio	-12.4057
spouts	-12.4057
▁Sabt	-12.4057
▁dazzling	-12.4057
▁effectual	-12.4057
▁opus	-12.4057
▁waistcoat	-12.4057
▁hobbl	-12.4057
▁purification	-12.4057
▁Joanna	-12.4057
▁dragline	-12.4057
▁runneth	-12.4057
▁Hirah	-12.4057
▁assessment	-12.4057
▁loathe	-12.4057
▁numer	-12.4057
▁superlative	-12.4057
▁Pontiac	-12.4057
▁persistent	-12.4057
▁uphill	-12.4057
▁Amoz	-12.4057
▁nursing	-12.4057
▁oink	-12.4057
▁rude	-12.4057
▁shiver	-12.4057
▁approached	-12.4057
▁billows	-12.4057
▁globe	-12.4057
▁hazard	-12.4057
▁option	-12.4057
▁balm	-12.4057
▁councillor	-12.4057
▁frying	-12.4057
▁rescue	-12.4057
▁Josiah	-12.4057
ilacs	-12.4057
▁ambassage	-12.4057
▁enchant	-12.4057
▁forefather	-12.4057
▁sentiment	-12.4057
▁eventide	-12.4057
▁filthiness	-12.4057
▁grandson	-12.4057
pproximately	-12.4057
▁babblings	-12.4057
▁consist	-12.4057
▁reclin	-12.4057
▁dignities	-12.4057
▁peaks	-12.4057
▁Slug	-12.4057
▁Raamah	-12.4057
▁stroll	-12.4057
▁superfluity	-12.4057
▁aloft	-12.4057
▁furious	-12.4057
▁pride	-12.4057
▁slats	-12.4057
▁caution	-12.4057
▁divinity	-12.4057
▁precede	-12.4057
▁cautiously	-12.4057
▁ginger	-12.4057
▁leasing	-12.4057
▁Doctor	-12.4057
▁appeti	-12.4057
▁splash	-12.4058
▁welfare	-12.4058
▁befitting	-12.4058
▁outfit	-12.4058
▁spoonful	-12.4058
▁uniform	-12.4058
▁bacteria	-12.4058
azin	-12.4058
▁Corinthians	-12.4058
▁usury	-12.4058
▁display	-12.4058
▁salon	-12.4058
▁battle	-12.4058
▁vomit	-12.4058
▁turtle	-12.4058
substan	-12.4058
▁manger	-12.4058
▁Calah	-12.4058
▁stanched	-12.4058
▁chaise	-12.4058
▁translat	-12.4058
▁vaunt	-12.4058
▁exhal	-12.4058
▁owl	-12.4058
▁britches	-12.4058
▁guiltless	-12.4058
▁enrolment	-12.4058
▁travers	-12.4058
▁fuss	-12.4058
▁Salem	-12.4058
▁acquaintance	-12.4058
▁Gaza	-12.4058
▁Mizraim	-12.4058
▁allotted	-12.4058
▁soaked	-12.4058
▁suet	-12.4058
▁droop	-12.4058
▁primar	-12.4058
▁clash	-12.4058
▁gloomily	-12.4058
▁vouch	-12.4058
▁decay	-12.4058
▁Rhod	-12.4058
▁dripping	-12.4058
Meeting	-12.4058
▁Julius	-12.4058
▁loyal	-12.4058
▁partiality	-12.4058
▁enforc	-12.4058
▁kidding	-12.4058
▁legitima	-12.4058
▁popover	-12.4058
Nice	-12.4058
▁eaves	-12.4058
tude	-12.4058
▁Tert	-12.4058
▁laz	-12.4058
▁Claudius	-12.4058
▁poet	-12.4058
NK	-12.4058
▁streak	-12.4058
sabba	-12.4058
▁flake	-12.4058
▁okay	-12.4058
▁cinder	-12.4058
▁tube	-12.4058
▁railhead	-12.4058
▁Jeze	-12.4058
▁Poor	-12.4058
▁anti	-12.4058
jah	-12.4058
▁Javan	-12.4058
▁pulse	-12.4058
churn	-12.4058
▁Job	-12.4058
▁Lud	-12.4058
▁subtilty	-12.4058
agic	-12.4058
▁factious	-12.4058
▁whale	-12.4058
iggled	-12.4058
▁blunt	-12.4058
▁kin	-12.4058
▁decade	-12.4058
tenance	-12.4058
▁Maha	-12.4058
▁edified	-12.4058
▁hammer	-12.4058
▁Kid	-12.4058
▁concourse	-12.4058
▁rhythmic	-12.4058
bited	-12.4058
▁hencefor	-12.4058
▁earshot	-12.4058
zzling	-12.4058
▁horseback	-12.4058
▁Zac	-12.4059
▁Dead	-12.4059
▁Teach	-12.4059
▁coco	-12.4059
▁oilcloth	-12.4059
▁Elisha	-12.4059
▁Padanaram	-12.4059
▁spectac	-12.4059
▁sheath	-12.4059
▁severity	-12.4059
▁embroiderer	-12.4059
▁Naaman	-12.4059
▁recall	-12.4059
▁impu	-12.4059
▁stew	-12.4059
bia	-12.4059
▁hop	-12.4059
▁flute	-12.4059
▁ownership	-12.4059
▁Irad	-12.4059
▁ancest	-12.4059
▁suggestions	-12.4059
bula	-12.4059
▁foreship	-12.4059
ember	-12.4059
▁Massa	-12.4059
osity	-12.4059
▁Carry	-12.4059
▁persuasive	-12.4059
▁Lyc	-12.4059
▁thunderings	-12.4059
▁tripod	-12.4059
urvey	-12.4059
▁rig	-12.4059
▁Merc	-12.4059
▁meditation	-12.4059
▁trump	-12.4059
▁instant	-12.4059
▁trench	-12.4059
▁Edomites	-12.4059
▁Bridge	-12.4059
hites	-12.4059
▁thankfulness	-12.4059
▁detest	-12.4059
enser	-12.4059
▁Beersheba	-12.4059
▁calam	-12.4059
▁tackl	-12.4059
AT	-12.406
▁cookery	-12.406
▁piss	-12.406
▁scalp	-12.406
▁wavering	-12.406
▁missionar	-12.406
▁removal	-12.406
▁drear	-12.406
▁eff	-12.406
▁Kar	-12.406
▁Kir	-12.406
▁parings	-12.406
▁wakeful	-12.406
▁grid	-12.406
▁partial	-12.406
egion	-12.406
▁beget	-12.406
▁rebel	-12.406
▁speedily	-12.406
▁justifieth	-12.406
▁expression	-12.406
erceive	-12.406
▁variance	-12.406
cade	-12.406
▁cruelty	-12.406
▁Naph	-12.406
▁Hog	-12.4061
▁pomp	-12.4061
▁riotous	-12.4061
▁history	-12.4061
▁transit	-12.4061
Easy	-12.4061
▁funny	-12.4061
▁theatre	-12.4061
▁confirmation	-12.4061
▁roadway	-12.4061
▁boyhood	-12.4061
▁Hermon	-12.4061
▁mineral	-12.4061
▁fuck	-12.4061
▁Hori	-12.4061
naim	-12.4061
▁bondmen	-12.4061
▁rocket	-12.4061
▁policy	-12.4061
▁unholy	-12.4061
▁unseemly	-12.4061
nkle	-12.4061
▁gallery	-12.4061
▁wavered	-12.4061
apolis	-12.4062
▁encourage	-12.4062
▁phoe	-12.4062
▁Bow	-12.4062
▁alternate	-12.4062
▁Beriah	-12.4062
▁State	-12.4062
▁Aram	-12.4062
▁skirmish	-12.4062
▁wariness	-12.4062
▁Matthan	-12.4062
ndron	-12.4062
▁cling	-12.4062
▁axle	-12.4062
polis	-12.4062
▁nea	-12.4062
ilver	-12.4062
▁Lie	-12.4062
▁carrie	-12.4062
ccent	-12.4062
nnels	-12.4063
▁politely	-12.4063
▁similarly	-12.4063
▁sparingly	-12.4063
▁doubleminded	-12.4063
▁wrongfully	-12.4063
▁Shim	-12.4063
ulation	-12.4063
▁noisy	-12.4063
gage	-12.4063
▁bump	-12.4063
▁suppertime	-12.4063
▁arising	-12.4063
abies	-12.4063
guiltiness	-12.4063
▁alongside	-12.4063
▁dough	-12.4063
onia	-12.4064
▁acceptation	-12.4064
▁grand	-12.4064
▁Hadar	-12.4064
uda	-12.4064
ddling	-12.4064
▁stings	-12.4064
▁Onesi	-12.4064
▁chaste	-12.4064
▁rill	-12.4065
▁promi	-12.4065
▁crunch	-12.4065
acter	-12.4065
eously	-12.4065
▁crust	-12.4065
▁gentleness	-12.4065
▁Rhe	-12.4065
▁gum	-12.4065
▁fitting	-12.4066
▁lam	-12.4066
▁mockers	-12.4066
▁scabb	-12.4066
▁hitherto	-12.4066
▁collapsed	-12.4066
▁disbelieved	-12.4066
▁confi	-12.4066
▁surre	-12.4066
▁eag	-12.4067
▁hello	-12.4067
▁attachment	-12.4067
▁Jah	-12.4067
▁boxes	-12.4067
▁china	-12.4067
▁identi	-12.4067
▁thankful	-12.4067
▁Tab	-12.4068
oper	-12.4068
▁attraction	-12.4068
▁freeman	-12.4068
▁genealogy	-12.4068
▁bull	-12.4069
▁tighten	-12.4069
▁team	-12.4069
▁shaven	-12.4069
lene	-12.4069
▁Gomer	-12.4069
▁mire	-12.4069
geon	-12.4069
▁fearfulness	-12.4069
▁gorgeous	-12.4069
riah	-12.4069
▁fume	-12.4069
▁honest	-12.4069
▁seduc	-12.407
▁homeland	-12.407
▁defende	-12.407
▁tones	-12.407
▁station	-12.407
▁incl	-12.407
▁Tryph	-12.407
affl	-12.407
educ	-12.4071
▁approvedness	-12.4071
▁earnestness	-12.4071
▁alo	-12.4071
▁Cover	-12.4071
▁normal	-12.4071
▁agent	-12.4071
▁flourisheth	-12.4072
chant	-12.4072
pilled	-12.4072
▁dealings	-12.4072
▁pew	-12.4072
▁soberness	-12.4072
▁bedtime	-12.4073
▁reconcil	-12.4073
horus	-12.4073
▁backbone	-12.4074
▁Ken	-12.4074
retty	-12.4074
rubs	-12.4074
rged	-12.4074
Are	-12.4075
▁assist	-12.4075
▁foes	-12.4076
▁chast	-12.4076
▁ledge	-12.4076
▁scare	-12.4076
▁dau	-12.4076
cientist	-12.4076
▁dreamily	-12.4076
orci	-12.4077
▁belonging	-12.4077
▁drowned	-12.4077
▁embalmed	-12.4077
▁hesitated	-12.4077
▁butchered	-12.4077
▁cobbler	-12.4077
▁underwear	-12.4078
▁Mish	-12.4078
voca	-12.4078
▁meta	-12.4078
isc	-12.4078
▁Near	-12.4078
Goodness	-12.4078
▁gloriest	-12.4079
▁Apple	-12.408
▁sym	-12.4081
▁delicately	-12.4081
▁meekly	-12.4081
▁laughter	-12.4082
▁chasteneth	-12.4082
▁tamed	-12.4082
▁explod	-12.4082
▁flapped	-12.4082
▁Elim	-12.4082
▁Mib	-12.4083
▁acquaint	-12.4083
▁tailor	-12.4083
▁wreck	-12.4084
▁blaze	-12.4084
▁familiar	-12.4084
▁ordinary	-12.4084
amous	-12.4085
▁Wind	-12.4085
▁cure	-12.4085
eneration	-12.4086
▁saddle	-12.4086
anim	-12.4086
▁thump	-12.4086
▁Fight	-12.4086
▁firelight	-12.4087
bsolution	-12.4087
▁Majest	-12.4087
▁watchful	-12.4087
▁overboard	-12.4087
allel	-12.4087
luc	-12.4089
arge	-12.4089
▁worshippeth	-12.4089
▁Obe	-12.4089
oic	-12.409
blossom	-12.409
▁generally	-12.4091
▁sunris	-12.4092
yway	-12.4093
rban	-12.4094
▁perfection	-12.4094
▁joyfully	-12.4095
rsel	-12.4095
▁striker	-12.4095
▁lightened	-12.4095
Avery	-12.4095
▁unity	-12.4096
anging	-12.4096
▁copies	-12.4097
▁morals	-12.4097
▁palaces	-12.4097
▁endeavors	-12.4097
▁feathers	-12.4097
▁politics	-12.4097
▁proselytes	-12.4097
▁symbols	-12.4097
▁convers	-12.4097
▁rambl	-12.4098
willing	-12.4098
▁Mana	-12.4098
siah	-12.4099
▁Alexandrian	-12.4099
hepherd	-12.41
▁mites	-12.41
▁bored	-12.41
ighteous	-12.41
eyond	-12.4101
▁Boy	-12.4101
▁scour	-12.4102
▁unbeliever	-12.4102
▁dar	-12.4104
▁thereupon	-12.4104
controlled	-12.4105
▁penny	-12.4107
▁decrease	-12.4107
sorry	-12.4107
esis	-12.4107
jack	-12.4107
▁fisherm	-12.4108
planted	-12.4109
▁cult	-12.411
▁gloriously	-12.411
▁assuredly	-12.411
▁carcase	-12.4111
▁scattereth	-12.4111
▁drunkard	-12.4111
▁dismissed	-12.4112
▁licked	-12.4112
▁complained	-12.4112
▁reviler	-12.4113
▁lackest	-12.4113
burger	-12.4114
▁contem	-12.4114
▁whistling	-12.4114
▁complaining	-12.4115
col	-12.4115
▁mom	-12.4116
inter	-12.4117
▁baptizeth	-12.4117
▁project	-12.4118
▁Had	-12.4118
▁pyr	-12.4118
▁wedding	-12.4119
▁Joy	-12.4119
▁lick	-12.4122
evolution	-12.4123
ripe	-12.4123
▁mouthful	-12.4124
▁dries	-12.4125
▁spy	-12.4126
▁quench	-12.4127
lunta	-12.4128
▁Ach	-12.4129
▁pathetic	-12.4129
sea	-12.4129
▁becomingly	-12.413
▁faileth	-12.413
▁draft	-12.4131
▁summ	-12.4131
▁constant	-12.4131
▁Shil	-12.4132
▁TH	-12.4132
▁sling	-12.4133
▁compare	-12.4134
▁abhorre	-12.4135
▁Wash	-12.4135
▁earlie	-12.4136
qui	-12.4138
xplosion	-12.4138
▁local	-12.4138
quality	-12.414
▁ruff	-12.414
▁heartily	-12.414
arsely	-12.414
▁Aren	-12.4142
ffer	-12.4142
▁Phu	-12.4143
esture	-12.4146
ouching	-12.4146
▁encountered	-12.4147
▁mansion	-12.4148
▁thereabout	-12.415
▁missing	-12.4152
▁fastness	-12.4152
▁excused	-12.4153
▁swamp	-12.4153
▁brightest	-12.4156
▁nicely	-12.4159
▁glare	-12.4159
▁Ze	-12.4159
non	-12.416
urning	-12.4161
▁Nan	-12.4162
▁wrestling	-12.4163
▁ramp	-12.4163
rks	-12.4164
rped	-12.4164
▁elbows	-12.4167
▁hillsides	-12.4167
▁poplars	-12.4167
▁scorpions	-12.4167
▁aprons	-12.4167
▁citizens	-12.4167
▁belongings	-12.4167
year	-12.417
▁outright	-12.4172
▁payments	-12.4172
ymen	-12.4172
▁legion	-12.4172
▁ref	-12.4173
▁highways	-12.4173
ffed	-12.4175
venge	-12.4177
mely	-12.4178
▁proudly	-12.4178
▁readest	-12.4179
▁witch	-12.4179
▁hangeth	-12.4179
lunchtime	-12.4179
▁archer	-12.4179
▁remarked	-12.4182
▁someday	-12.4182
Alon	-12.4184
▁vowed	-12.4185
▁lesson	-12.4186
▁stare	-12.4187
▁despairing	-12.419
▁inventing	-12.419
▁ev	-12.4192
▁sadly	-12.4194
woods	-12.4194
nuts	-12.4194
▁gear	-12.4198
▁faster	-12.4202
▁stunt	-12.4203
▁weakling	-12.4203
▁miser	-12.4203
▁Phil	-12.4204
▁hasn	-12.4204
▁impos	-12.4204
ngular	-12.4205
▁Beor	-12.4206
▁uncover	-12.4206
▁awaked	-12.4211
▁Rest	-12.4212
▁paces	-12.4213
▁admoni	-12.4214
▁Israelites	-12.4215
▁consol	-12.4216
▁reput	-12.4216
▁included	-12.422
▁plu	-12.4227
ball	-12.4234
orehouses	-12.4237
▁wickedly	-12.4237
▁washings	-12.4238
▁benefits	-12.4238
▁guests	-12.4238
▁bishops	-12.4238
▁patriarchs	-12.4238
▁ewes	-12.4238
▁results	-12.4238
▁dispos	-12.4239
▁factions	-12.424
▁Spid	-12.4242
▁nast	-12.4249
boards	-12.4252
stones	-12.4254
works	-12.4257
TER	-12.4261
fied	-12.4262
▁dissipat	-12.4262
▁decomposed	-12.4266
▁gnawing	-12.4266
determin	-12.4268
▁coveting	-12.4268
▁grassy	-12.4269
▁aboundeth	-12.4276
▁secretly	-12.4277
▁Ked	-12.4277
allows	-12.4277
band	-12.4282
▁boiled	-12.4284
tay	-12.4286
▁Nor	-12.4288
▁bin	-12.43
▁Tir	-12.4306
▁blasphemer	-12.4308
▁dre	-12.4309
▁candles	-12.4311
▁ranks	-12.4311
▁railings	-12.4311
▁repenteth	-12.4315
▁sorely	-12.4316
▁departeth	-12.4317
▁cries	-12.4321
▁reigneth	-12.4324
▁sharply	-12.4326
lay	-12.4327
▁stag	-12.4332
▁forbearing	-12.4339
▁weeds	-12.4344
▁Dis	-12.4345
hips	-12.4347
▁lawfully	-12.4352
▁Hot	-12.4357
aves	-12.4362
▁warmth	-12.4363
▁breaketh	-12.4378
▁twisting	-12.4382
▁sheets	-12.4384
▁tumults	-12.4385
▁poorly	-12.4386
▁instructions	-12.4386
gree	-12.4394
▁consented	-12.4403
▁preferr	-12.4408
▁aboard	-12.4412
▁rouse	-12.443
▁jet	-12.443
▁Cos	-12.4444
rock	-12.4444
▁fou	-12.4447
▁planning	-12.4457
▁labours	-12.4459
▁balloons	-12.446
shearer	-12.4468
▁airy	-12.4469
▁belt	-12.4471
wailed	-12.4477
▁clapp	-12.4482
▁Arch	-12.4485
▁activit	-12.4491
▁test	-12.4505
▁sleepy	-12.4518
▁signal	-12.4522
▁vig	-12.4528
▁plots	-12.453
▁bullocks	-12.4534
▁killings	-12.4536
▁enjoin	-12.4536
▁Abia	-12.4537
▁platters	-12.4538
▁ge	-12.4542
▁bloo	-12.4546
▁retain	-12.4546
▁lusted	-12.4556
▁Hada	-12.4559
▁seedling	-12.4594
▁kne	-12.4641
vity	-12.465
▁Sm	-12.4664
▁praised	-12.4697
arcel	-12.4698
▁dism	-12.4725
▁Pau	-12.4731
consider	-12.4753
▁popula	-12.4774
▁farth	-12.4776
chem	-12.4779
▁residen	-12.4781
actors	-12.48
there	-12.4819
acked	-12.4822
porter	-12.4839
AB	-12.4841
sters	-12.4855
La	-12.4856
umbled	-12.4881
had	-12.4898
▁agenc	-12.4905
gation	-12.4929
raggle	-12.4929
▁sanctifie	-12.4972
city	-12.4972
udg	-12.4999
▁radian	-12.5001
▁conc	-12.5003
ency	-12.5026
balanc	-12.5031
▁lengthen	-12.5033
▁husk	-12.5063
▁weaken	-12.5097
▁blur	-12.5102
fallen	-12.5134
tines	-12.5169
tac	-12.517
twee	-12.5204
▁mini	-12.5213
▁gunfi	-12.5214
lative	-12.5305
hip	-12.5346
rich	-12.5356
rake	-12.5383
escend	-12.539
▁kni	-12.5394
gratulation	-12.5403
▁distresse	-12.5415
journ	-12.5426
▁paint	-12.5445
▁Mesh	-12.5511
▁ripp	-12.5528
▁distribut	-12.5552
▁gar	-12.5683
ral	-12.57
▁Alva	-12.5708
▁blo	-12.5714
▁trou	-12.5724
itting	-12.5752
▁morta	-12.5752
ays	-12.5784
Ever	-12.5799
▁watche	-12.5818
ex	-12.5863
▁carpe	-12.6022
▁quali	-12.6061
▁contra	-12.6063
informed	-12.6065
gin	-12.6156
lets	-12.616
nches	-12.6171
▁dainti	-12.6177
▁unmo	-12.618
▁ba	-12.6213
gi	-12.6233
air	-12.6255
▁sla	-12.6263
Try	-12.6335
nish	-12.6341
▁aveng	-12.6344
ttle	-12.6355
▁relat	-12.6431
par	-12.6449
och	-12.6477
fighters	-12.6481
▁non	-12.6487
▁obs	-12.6506
view	-12.6557
▁invite	-12.6569
▁naviga	-12.6629
composed	-12.6647
efraud	-12.6678
▁sca	-12.6813
orseshoe	-12.6968
rang	-12.6978
▁Cre	-12.6981
ust	-12.7031
▁welcom	-12.7044
hen	-12.7124
▁protect	-12.7149
iving	-12.7155
ormwood	-12.7277
ana	-12.7284
clusive	-12.7336
▁dep	-12.7437
▁humm	-12.7438
▁dam	-12.7452
opping	-12.746
bag	-12.7481
tasting	-12.7768
aving	-12.7893
▁impr	-12.7953
▁pac	-12.796
▁elevat	-12.7975
nuel	-12.8019
nstead	-12.8035
▁Mel	-12.8132
▁compensat	-12.8133
oz	-12.8229
mock	-12.8394
ether	-12.8494
phras	-12.8502
▁exclu	-12.8537
add	-12.8611
▁principalit	-12.8737
formation	-12.8758
hereunto	-12.8759
▁prote	-12.8799
evil	-12.8806
ize	-12.8825
awl	-12.8899
shoe	-12.8914
▁epi	-12.8996
▁Creat	-12.9004
▁protecti	-12.9069
llows	-12.9097
udder	-12.9116
wed	-12.9116
bon	-12.9117
pot	-12.9118
bat	-12.9121
▁entic	-12.9277
▁Rep	-12.9281
▁endur	-12.9324
fraud	-12.9329
ck	-12.9341
▁navigati	-12.9392
▁compose	-12.9479
ioch	-12.9527
move	-12.9637
▁persuade	-12.9682
▁Po	-12.976
omantic	-12.9865
rk	-12.9877
▁snatche	-12.9901
unic	-12.9989
vo	-12.9994
▁daint	-13.0011
ushim	-13.012
lotted	-13.0152
phra	-13.0185
AM	-13.0224
▁measur	-13.0235
bits	-13.0292
▁purpos	-13.0292
elect	-13.0296
▁Revi	-13.0336
arrow	-13.0373
mali	-13.0482
oneliness	-13.0594
LO	-13.0671
ignity	-13.0695
▁na	-13.0777
▁treati	-13.0935
ripping	-13.1021
arba	-13.1027
acle	-13.1032
olent	-13.1092
scend	-13.1132
▁adjo	-13.1173
▁slack	-13.1222
▁bewail	-13.1283
▁compelle	-13.1395
▁grip	-13.1408
▁exalte	-13.1421
tching	-13.1454
▁Writ	-13.1509
▁acknowledg	-13.1517
▁gla	-13.1561
▁mode	-13.1594
▁Bac	-13.1628
nction	-13.1644
▁lin	-13.1737
▁vainglor	-13.1787
kite	-13.181
▁mids	-13.1869
▁pudd	-13.187
ammi	-13.1909
▁radia	-13.1913
▁divin	-13.1927
Pre	-13.1941
styles	-13.1961
▁rele	-13.1968
▁temp	-13.1988
▁guid	-13.2033
▁Immediate	-13.2044
▁hi	-13.2098
ruption	-13.2106
▁nois	-13.2152
tographe	-13.2171
trot	-13.2232
easing	-13.2241
mble	-13.227
ggle	-13.2276
vah	-13.2333
▁squ	-13.2335
▁deci	-13.2369
hab	-13.2471
▁Li	-13.259
teller	-13.2606
▁reli	-13.2616
▁heav	-13.2723
now	-13.2754
▁refer	-13.2801
pops	-13.2802
▁enrol	-13.2813
▁Mac	-13.2859
▁blasphem	-13.2872
▁Byron	-13.2924
▁loc	-13.2945
▁proposi	-13.2954
emarkable	-13.301
bakers	-13.3045
▁separat	-13.3081
gro	-13.3091
▁Ex	-13.3098
Spring	-13.3121
quarters	-13.318
uc	-13.3181
Jach	-13.3198
shares	-13.3219
pockets	-13.3297
▁Straight	-13.3319
▁nu	-13.3324
reaching	-13.3351
rley	-13.3371
plicat	-13.3387
▁plac	-13.3398
dresse	-13.3428
▁Atta	-13.3432
maker	-13.3435
racker	-13.3436
cca	-13.345
covered	-13.3458
wise	-13.3468
▁Dio	-13.3471
gger	-13.3476
▁Tema	-13.3477
arry	-13.3482
pine	-13.3486
mount	-13.3512
counting	-13.3529
Ti	-13.3549
▁spo	-13.3552
▁Earth	-13.3562
sipate	-13.3568
▁Whoso	-13.3588
piders	-13.3588
uddy	-13.3601
▁simpli	-13.3604
▁esc	-13.3625
omen	-13.3627
▁chang	-13.3627
admonit	-13.3656
maids	-13.3667
thrus	-13.3669
ickle	-13.3682
▁northw	-13.3715
ooted	-13.3721
▁Arc	-13.3725
gaining	-13.3766
▁Step	-13.3768
hanging	-13.3775
ppers	-13.3789
emon	-13.379
pecial	-13.3825
uary	-13.3831
▁plat	-13.3843
ticks	-13.3843
ekah	-13.3844
uckle	-13.385
▁priv	-13.3853
ual	-13.3859
Ba	-13.386
▁abhor	-13.3861
▁hoar	-13.3862
▁comp	-13.3864
▁reconcili	-13.3868
nstantly	-13.387
▁conver	-13.3882
▁rub	-13.3885
▁unbeliev	-13.39
pra	-13.39
▁fac	-13.3902
lute	-13.3907
change	-13.3907
pti	-13.3914
▁contemp	-13.3914
bearing	-13.392
vented	-13.3921
▁carcas	-13.3922
▁Buck	-13.3923
wake	-13.3924
eaten	-13.3926
▁circ	-13.3938
▁clap	-13.3944
kin	-13.3945
burg	-13.3946
▁bruis	-13.3947
ppoint	-13.3948
creased	-13.3948
postle	-13.395
lready	-13.3951
give	-13.3954
▁endeavor	-13.3956
▁politic	-13.3956
▁proselyte	-13.3956
▁symbol	-13.3956
▁feather	-13.3956
▁copie	-13.3957
▁moral	-13.3957
▁palace	-13.3958
G	-13.3978
Z	-13.4003
D	-13.4004
q	-14.7755
“	-14.7756
